13668
13863
21DA1
56063
1EB3A
5F6FF
724FB
65EAE
7B8DF
67636
5D533
1135B
0D4D0
5BA2C
55504
28BF0
6B5AE
02DF0
55D51
5E724
6186A
58063
7446F
04EFE
03F6E
7FD47
7368C
59DDE
6C83B
6E5B7
7371D
09742
5D7AE
6721E
01831
0774B
05CCD
28653
121D4
045EE
24C28
6B88A
565AF
65F95
55D44
548D0
584CD
68629
1D5A6
0E67F
22552
7B672
6787A
0FD24
0CC06
0A26C
6BA2C
5D03E
02D0C
1A14C
71225
67973
04F0C
13772
5DF6A
1DA88
5D193
2B9B9
02F95
6E012
711E8
5C9EA
745E0
67D6A
15BAD
5498F
7A655
23307
20077
11A9D
1F735
7E4E4
58711
2B7DF
65338
1DEE0
27617
582EF
268A2
6FF9C
7A853
19148
144DE
18415
76C8B
7DC96
6F41B
2299B
2A924
542AB
54A99
7FEE5
16EFE
54346
752AE
14ED0
67C7F
280E4
1F852
7D81C
21CCF
7F852
5D2DE
76404
27377
5AF8C
59FB8
571C7
7017B
2104E
106A7
7B7E5
607EA
019EA
54801
5A7AE
1285F
1142F
64B8B
23C11
57644
090C3
5C069
5622C
57CA3
11DF8
6658B
21794
688C8
058FB
1277D
192FE
11D84
711AE
5F422
60173
75E67
5BDB4
7575F
7203D
7E23D
0A932
2BA95
54C53
2A8A5
0A62A
7A15C
799C5
2BB71
27F0D
06446
26D21
28164
00077
26A35
5E3F9
03610
19B4B
73A5D
5FA35
63B42
6B26D
5A0C2
58570
5528F
7131C
277F3
29207
7231E
25629
560EA
71E1C
780DE
5947A
552B5
08399
67824
27890
175E7
5AD2C
6304D
20BA9
578ED
69EBD
26AC1
1632C
59842
58609
5E357
0DEB8
17D23
234E8
561C5
57265
15946
5D861
03555
6FB20
1DD7B
26B86
56374
7518D
557BC
631A2
6CAB8
071D9
001CD
54DD6
10228
77DF3
189FA
051F2
68DC2
752B2
2A664
2708A
6B557
18EBC
5FA97
1B7E3
5D464
7059C
640D6
0DA2B
2AE70
798CC
61BFD
79F7B
0BE87
119E9
064B5
2B5F8
66813
1BA56
204D1
672AE
10B72
58A13
06FC9
1A28B
6B9F7
5C543
07E44
55283
0C960
1D855
1B405
574CE
0D064
11ED1
031CE
5F6ED
1B4B6
294B2
709E5
00A2A
24D47
6D305
7E70F
096E0
1797C
645E0
2B49A
01554
0E628
58AFA
5B8D0
249A0
010AD
5FCE4
0B953
6A608
77030
7B376
5C29B
63EF8
7D574
71181
2776A
6D6F9
134D0
238D9
6E04D
02A23
71C5B
76716
046D1
561F7
5420C
13D57
1CB80
1E931
650DF
64073
7F589
73B51
13946
5C988
6013C
7F32C
57068
54762
181BF
0B96B
56D25
26886
1AE6C
54A25
1D012
74650
1EBE9
7823D
2476A
78B5C
2BB2D
0DBBA
66881
6C382
230CA
68613
7BC18
5E48A
0FA51
27731
1FDA5
76A87
66066
03F14
1C26E
2AED6
586D3
207F1
1F1E8
6C5B0
0E3E1
20376
2080F
09BDC
576A0
64203
7085E
09A00
255FE
5E2CA
58E04
24C0F
7E7C0
03000
57BBE
7D5B0
18530
75892
1981B
5466A
554DE
7B2D9
5452D
16E5F
7EB07
7B12B
56D24
58FAC
6954D
0E25F
6089E
620D9
706C0
2B439
72A2D
5EE7D
28102
6BF52
715AF
7639C
6F193
217CF
0516A
65BC4
5BCE5
5728A
642D9
09A17
62140
226D5
17E75
27F85
049B7
6C81A
7B891
60C2B
73F9E
6391D
1937B
16A31
685EF
15C40
7A7F0
0D3F2
21F5F
54C48
25834
5FA12
5D28B
774ED
673F2
1EBEB
7A95B
7C250
1DB49
5A6A0
024A0
13EBF
58D26
66128
076DA
5BBD4
27C8B
6F639
66FC1
6390D
56C2B
7987A
73EC4
22362
0AF7F
09C83
18FB7
1DDC2
04C3B
6D648
232CC
2B6BA
5FA61
00A8E
13816
65063
0449C
60CDF
5DD08
7451B
67A74
6F768
03150
0060B
5BE78
0AD5B
0562E
6C4E0
618E9
60EDF
6BF19
715CC
1C154
67CF8
05255
631F8
54B93
1E0FF
15FD3
7B1D1
779FC
00104
5D855
7D91C
1148E
60004
01FB7
596B5
0171F
621C8
03644
75C04
23B9A
59299
19C0B
07BAC
14872
16DCD
68B57
2A34B
1CB9C
23A77
126C4
160FA
5E28A
0317A
64B4F
64C8E
63EA2
04F03
5E8E7
17A1F
286DD
5E089
27960
63E0E
260D7
74D15
0445D
29A6C
0133F
227B3
18F29
0F03E
06A75
6A87C
24B47
06818
1FF64
619E5
073A0
711DA
12B59
170D3
0E942
1401B
058BC
657B9
045A3
13030
60731
78FA5
6B564
56F88
6F4A6
6716F
11E24
0ED12
6A16D
6E458
60791
10E2C
04960
5EDA8
0594E
2B88D
5B15E
68A66
11FD7
0BE46
67A4F
09966
226DD
28B32
1AF67
6716A
6E7DD
1F180
7016A
08A81
7ECD2
0C806
6DA10
5B1B9
7C399
6EE7E
24EDD
718A9
21C90
7D676
0A32B
72181
6A458
277B8
19884
0D84F
1DAF1
182A9
558E0
14AAA
1E627
6C07E
22101
26171
616E3
5447F
7CE7C
68C32
777AA
74542
0853F
5C214
6D565
634B7
6DA45
1656F
211BA
641E5
294CF
056FF
1E6D3
7892A
62232
208D7
1A1C1
256EA
6CD99
2726E
0B1F4
6379C
04DCA
62B20
0788D
6400C
7E524
74AD1
6D7D7
00E45
00546
17BD2
7E6F3
1B038
1FCF1
6D381
05232
01C72
7583B
791AB
673C3
6C38C
5C59F
088DB
1F1B8
71ED3
210ED
235BE
7A3FD
78759
690FB
759E3
7E5CA
09D15
5AAFE
1BB3E
60686
613EE
79679
5870E
7F819
62ED0
6E888
2A45F
1B7F6
1D25C
223C6
285C5
5FD4C
070AE
0378B
618BE
67400
177F8
1DA94
56160
118B3
70BB1
0D07B
14B25
5EB7C
073E9
6944E
7D7B9
6DF26
2530D
1304B
6D803
0E27D
667E6
6ABC8
0EE17
70B7A
1BEEB
6EC6B
651C7
1FB18
79A00
6D331
5F9EB
0E937
64377
77F01
17839
000CD
5D7D4
6E300
6AFAC
75568
5FF21
241B7
7F82B
698BB
0D569
66311
06398
6D58D
1AD06
6AB75
6448C
56113
70DDB
5880C
6B615
25806
201E3
6D1D6
194F9
55D63
67A04
6EA6A
076A2
2AF21
192EA
03CBC
1C4E8
77550
1CDF4
0A6CD
05AFA
72F73
5E70C
0811C
61E79
67827
77D24
19F23
2B806
7390D
21BCA
05517
2B064
6BE23
76940
6838F
7362C
7D7EE
61016
1EA9C
69263
68673
01260
5C10A
67FAA
66072
64B5B
26323
68E59
59B90
0FBA1
7BD84
665A5
58C6D
7F52E
0BF15
1F613
08A9C
75CDF
73432
6674F
7276F
1D6CF
66A8F
0BDA6
175BA
67ECF
5FEE8
1A2C6
2B0CA
20379
6FD75
606CE
5BD43
63BA0
7ED33
1E808
01F95
590E8
2B591
1B0F2
028CD
1ABE7
0F4C1
5A555
60692
5AA6E
21DE8
5B95E
1FF00
6920E
75EAD
7F8B3
6871F
16E5C
028C0
2185F
64ECF
5FD1F
728ED
24786
25711
76E52
76E79
09ACB
022B7
24D0F
0A516
7ABA2
5A82A
59544
6874B
13F11
553C9
169B7
04FCD
54A7B
59286
0E93E
60F36
1A29E
66C21
04AC8
549FB
2A154
79044
57A38
77CB8
63D4E
06E55
7DE5D
6A53E
6DF13
126AC
1774E
62972
7487B
2A972
64454
6F957
26D7B
6A615
608C6
763AF
64A32
2602A
7DA8E
67EFD
693EF
67D19
6E768
0DE15
69976
0FB7B
5C9A6
606B7
6522E
56333
12439
7AE3F
21C13
1017F
1B1CE
6185C
791D8
78FE6
69A81
069A4
29871
672A0
0F586
5D9AE
27A64
76C15
25115
19953
6EE7A
288A8
1204F
0CC15
67E99
26A52
05120
0BA52
24DA2
6DF61
72D91
138E8
0038B
57719
597BE
54E69
572C6
7A4E4
00977
6A698
6818F
1587C
0B0A0
2027A
03E34
76997
0C0B7
5A53C
13FD9
057ED
5459B
29F8B
014F8
7CE47
2A030
18B91
0AF61
0F842
0A3CB
27F63
65F55
68BCF
7BF50
2230C
0AE27
13496
21100
18B7B
0D82A
11418
73FA2
0AB0B
1CED3
09974
77D69
08F41
6BF30
7A556
7E6BF
55ED1
563AC
56D60
58B0F
245E5
0CE12
0D262
733BA
59B9C
774D5
6C2B4
012CB
24202
15078
7BF3F
26B62
57300
76978
13EBF
595A9
28593
5E6D6
0F0A0
0B340
71776
66BCC
005B0
6FEC0
74FD6
61A9F
18467
061D6
14848
2B404
577DC
76EE9
69F14
57E5E
01131
1DE11
0F708
1E2FA
73B6B
130E0
00A8B
57CB2
1913A
70088
6F729
654BB
6D45A
61AE3
72785
7D3BE
059BD
25421
61D3E
29885
0A638
09EBA
2B07A
21286
5A6BD
27561
0069D
7AB5F
575CB
728D6
75B7C
65392
66C54
69357
0E73B
2859A
191D3
146AD
1F3F8
7F905
0F457
16B4E
0FAD2
17ACB
1229C
058C4
7FBE0
0AF2E
0663F
13CF9
7DDBF
17D06
6C613
1D5DE
233E2
0C7B1
02F04
1F0B9
7F31B
146FA
191C2
7488E
6E678
164FC
24D09
5BCBD
7F9B6
24683
20975
61040
71918
04EEE
113FF
0B1F1
0D7FC
0074E
20238
77285
58393
59358
6234C
1E9CA
7B3EA
5F1CD
146F5
6280F
5EF7A
5FBAF
7FD8C
0A10A
0C226
6719E
2AA7E
7D14F
5EEF5
7C05A
7EF1E
23309
0709A
13665
1CAFA
5B77C
7C1A9
19406
6120D
5EBD0
044C2
1B323
7C64B
57207
17529
57C54
5B8DE
55A37
61343
0A964
0BC48
5F3D5
1268C
1D8D5
7F888
1E586
1633D
19880
75451
09D9E
6DA51
11CD3
79B35
1DCE9
7B3E7
204E7
7AA24
7B8C8
6E492
7F22A
5F9EC
0CFED
08DEE
76CF6
036F3
27FEB
02784
621F8
18EC4
6BD58
1E4D5
27718
7004B
62E26
6480C
18ADA
74AF9
7FC98
01F4B
05DD6
7EE92
65486
20964
61BD8
75CC4
6EECD
6CD9B
7A135
717FB
26845
2B184
6AB3A
581D7
5B29E
753A2
1BDDA
5F9F0
02AEE
7991F
69B8A
219DB
01203
6C307
0EEB4
6D126
170F5
7E6BE
0E738
61114
7B6AA
755AE
6EF62
7213C
1C68E
0924E
7CCEE
63429
546D0
69C4B
05744
7DBB3
79662
75847
19C87
12DBB
73C8B
0F045
0C4F4
081F8
68B47
5EE5C
62D3A
7F516
27417
189DC
65ECD
16DC0
11864
6785A
74E9B
17C10
21A4C
20C16
0F9C9
1321B
0F7E5
21E37
0BE6C
629AF
6E1F0
6C665
0D1D4
2A8A9
0BCD3
69512
0D9C9
638E3
5E937
0FA21
73BAB
2B721
65408
1E750
6BA1D
6B2E8
7B44E
15528
0F0F0
783D3
19F5C
5FFBC
12990
63BAF
02714
1D18E
7AC67
0C507
6D5C8
70FC5
1C1E6
12757
0E871
10ACC
27E80
2105D
7D341
14E61
16356
73D49
6F2EA
121D8
64E79
6FE6A
081E1
0EA70
564B9
64A72
7AB8F
67C59
67D86
66DC8
73234
16DA2
7BC4C
0039D
5BCA3
57C1D
15BDF
0BE4A
1E73F
6698F
5FBCA
6BF8A
69F8E
11E89
155F5
747FD
5763F
68866
64C84
561A0
014CA
2B525
55293
1C125
6C704
78A72
696A6
6454E
6E8B7
6AE43
6DD96
5B7F3
59891
166BD
11318
6BD8C
1B4ED
57C08
6B989
59F7E
151C0
039CB
74366
0E19F
07251
56AA3
6DE0D
6BBD8
7938D
703FB
6DDE0
2650D
70C2E
55334
5FF29
2363E
61052
16E52
2B97B
5C83F
0A1A7
6D4D8
13CCE
0AB85
208A6
2B917
0B1C1
57CF5
0E829
7D14A
637B2
599E7
647D5
78319
1C09E
0288B
0C225
55228
2786B
7365F
27ACA
0BD32
621B3
59481
19D7A
131D9
14728
15701
28F08
546E5
0C087
2200B
20364
1A6D0
58540
59D19
1C27E
7A0EB
10B9A
76B24
58011
09486
71E80
75DEA
297F9
7E02F
0E263
248F4
1C977
0037E
04E11
78A59
04515
1047A
7DB5E
1BA53
7E870
5E6E0
28CE5
7F263
73822
0972C
66AE5
27619
02EA9
18C9B
258B5
61348
10C42
62DFC
0630B
04338
20BB9
05EE2
611FC
23BBE
7F485
2870F
7B57C
7D878
7AD87
00885
70EB9
7062A
66126
5D8E9
0BEA0
5E8F9
0B151
18383
5875F
046A4
71BA5
080E9
623E7
1D684
7A518
21853
68E1A
5E9C5
11C58
1C87D
6C982
6453C
27EE3
131A0
77026
25BD2
5C486
69BDB
2B4B0
68253
28E3A
18EFE
158D4
6C935
2B88F
5D22D
787DA
16322
00BFB
02713
15109
5FD77
28D06
5D39B
6226E
55934
1962E
59FA8
180AE
74A4D
74F94
10B06
6EFBE
2BA95
13BEC
575F9
5C2F9
5A56A
68649
7F350
733BD
6635B
1A749
21850
0308C
2056D
5466C
02031
7D4B4
1CF79
115ED
05E6C
2B030
27E49
0722D
6AFA6
2613E
64BDC
7EE75
73BA2
619FD
06143
60451
64C03
65140
6838B
128B9
047E2
0E7B3
29850
661D1
5CBE7
15199
7A090
6DF26
0CB1C
1FE90
0543E
5F9BB
1CA0B
75F14
72202
27DA6
64880
26CA0
655E4
0741A
5551D
76502
1EBFB
15B89
78F71
009CB
5D641
01575
6955D
621CA
56046
57D9F
0267A
1266F
5CEF6
24F1E
768D6
01996
6ADC0
6078C
69A24
7413B
5B5CA
09CBD
1E528
093A3
5EC66
6DB73
0B1CC
7874C
1CB2D
2AB61
7480E
16523
0254D
1D931
5BA90
6D0D9
76CB7
5F8A0
28F11
0EF15
62FBC
045B3
590A1
5652D
612F3
1BB3C
74A95
21EFB
74CC8
11D2A
5EBE0
6EDBF
26429
1F443
121AA
0A7E8
0834F
11824
7068E
1F93E
18CFD
2264B
625F3
74F98
641FE
0DA77
1E991
7057A
1EECD
57E43
05F04
665C5
5B283
74701
267C2
01049
7DFBB
648F6
72A84
71A6B
56AF4
777C6
587DD
246DA
0C7B5
7B671
66AC5
01BBA
69E48
75F19
0A06F
5A4DE
6BD34
5AE6D
61967
7FD14
67975
178DB
16F2C
6C6A8
21BCA
2258F
5D239
59FEB
294B0
02012
0FE99
54BD9
02F10
7B30B
695F8
2A00B
677FC
78609
65B39
60B28
0556E
1F1FB
5B112
63D2E
1E9A9
04C2A
23145
7B482
19B7A
19393
7C344
6FE37
28F1E
76287
21DDD
1CB9B
64FFE
6938B
5D198
0E723
197A5
1FDED
6A21E
7D4CD
62268
0F7AC
1ABBD
16CEB
62E7D
69829
6BA99
1BE1E
62EBE
7D9F3
27D60
6EB8A
1F95B
7C7A4
5ACDA
00172
7CC32
555A1
7E60C
6F02E
09AE1
1D635
774D4
5622F
6CDC4
78660
6D29A
7AEC6
577D5
29859
75B4B
77E4D
1D6AC
10C22
7CFB3
2B8B2
56465
1550A
29ED0
7A343
57EAF
21E24
79EA2
75AA7
6792F
181DF
7069A
59775
61361
57F91
7029F
1CC55
59F55
1778F
5CC2C
070DB
68827
5BC0C
00741
73275
0A4F3
2A019
25C87
0F0A4
19BBB
1B26D
18A4C
003EB
12A91
1B7C2
25ADD
75993
67018
641A9
5AAD7
1B04A
131B7
5CE8D
07B49
5A9BC
676C5
681A0
5A337
6AD40
7E668
20ECF
6C52E
0C3DC
0B09D
6E691
71A26
730C5
7D87B
73499
72EDA
07260
7B41A
0729F
54654
564B6
06C39
63313
21814
7B71F
7B936
0EC23
28166
060A0
71B56
6F649
21C41
0880F
2BE49
1141C
1F22E
06A6D
1A092
6A845
6BCC8
1D6F6
11C05
64BF4
02C05
581E7
70319
17AF6
59EF0
0BF0F
641CF
1AE86
654F3
6BD2C
78A9D
0FB70
0255C
76533
113E2
0C5B6
59E25
781D3
08788
6D538
704EF
01846
7D36B
575AC
6CF9B
09B62
22B47
20A79
042EA
29A60
6A810
11D8B
69768
7844E
0C263
0D7BA
29A90
1C241
5497C
73E54
75933
5584E
180F9
03FF3
7F361
08865
747E6
0CC38
5A426
024E4
1F5B1
18A89
20EA5
65F37
2B172
26E18
73961
75DD5
6019D
6DCE1
1CFDB
7EB89
067B8
59DE7
16FC4
630AA
77F4B
7DA8D
10F1E
55A1E
77DBE
649DC
5FE6D
2327E
544E2
21120
7E6F3
0C82E
1A180
7C8E1
05CC1
70C5E
5E4FC
1B88D
5C4FC
224C6
61C3E
77571
6B5FE
1E53B
78AA5
75AE3
15818
5EE64
68BF0
5FCF1
673F9
07FF1
2A124
60639
1D180
5EE9F
0243D
0C82E
7526D
128D8
041E7
5FC0C
5F550
055ED
28C6E
5685E
6057D
688FD
24944
0BC14
0B07F
7EBB8
13A68
5883C
63A39
71022
6CA4D
0A45C
098B6
10B83
01B7F
59228
629A0
621DC
62FAB
1BD95
611E6
79231
61B19
06816
59E68
54200
5A1D3
6ADCF
03DE8
12DC2
79D1F
583CD
24566
080BF
6F802
134C5
63BD4
12745
06DF6
7BBB1
06CF0
167FB
1332B
7FB7E
0FDFE
1A1D8
0E17B
7EDBC
70980
62FD7
63F5C
1BA42
2381C
7EFAE
0884E
7CCD7
20BDF
6128A
58F37
7D89D
2B21F
69784
02768
64D4B
1777E
603B7
7B278
04DCC
164D1
70D85
5C881
5A4B8
5BC19
0B20F
6587F
048D5
74F86
1BA09
16C25
65694
2AD64
223B9
68CA0
2B28B
66250
1ED44
03A49
7C8BF
7DCA5
7163A
25203
5ECA8
01B94
59100
02853
1C8E3
1243D
22A49
6B625
5E90A
7050D
6F365
1810E
29FB3
7957B
7D207
0EE93
71C0C
10B7A
26E01
65C5C
68AE5
1D6B0
5DD7E
57DD1
6E136
5A4FB
17563
5A386
223AD
07E16
1139B
06705
79251
5BDDE
293AC
0D4AF
228DE
0FCB0
1376E
108B4
1D3E7
02FF9
7C882
74B2C
5BF81
69ACE
664BD
7C4DF
57291
21EEF
6296A
0E35E
251C9
79241
6B4C0
07F51
60E84
5FA75
63DC2
19804
567BA
13DE0
1CAAD
61EF4
59E1E
13EC2
75DFD
633C6
6B14D
66817
6C66B
251C1
1AA02
5AFC5
023DC
76BB8
7CF85
7FE3E
6C874
10260
6734F
12A1F
078BD
1346C
7C1A4
61E39
1E390
1C201
10629
0329B
55498
6F157
5E811
7F4F6
21F52
09DAB
67CAA
02E6B
0A7ED
0CAA4
741A8
188A9
72787
102C0
748FC
58CB0
7F3B6
6481A
62972
23BD8
25D3B
259CB
586A8
74710
1FE57
2ADDA
63928
7EEE0
622F1
69585
60775
01ED3
1D08B
6C53E
230F8
14A1B
1D106
155E7
089E9
7A93F
5BA4C
6BC2A
73E37
77E04
63E70
6A0E9
0F834
670F8
769C0
78B95
572CD
6B4D2
07148
0F64B
2AFE9
28DA4
26EC0
03BF1
71E23
0283F
5EBA0
692A6
242D5
6AF18
71158
724E1
6B405
7365D
0D4B2
602D5
71D38
11790
0ACF5
0E3D3
01AB4
2250C
03296
70CAE
6FFF4
18A25
19A70
7AF66
69DFD
65B54
1B069
5B135
780FA
6C873
1FB67
2ADA3
779CF
0BE4A
5F591
1FE95
179BF
7CFA4
25336
5AD06
0DDBC
7E5B0
2A676
60164
63767
23636
77C62
6B615
01DE9
6173C
26865
0E322
1605C
008C5
7B958
0AEE6
57DC5
09F69
0C115
5788A
267C6
74FE6
548FF
0C069
5A045
6665C
0CBF2
1A559
0C2F7
04F9C
16AD0
1297E
60A7C
1FDCD
5AD14
68B38
6D76B
69CCB
64846
029ED
7D0E4
1BB2A
77199
1A15B
7972E
29681
209C2
76200
5A1CC
7AAD3
78A54
05369
77A72
24BC6
5A4D6
77BE6
6C614
5D89E
5C8D9
67A13
5D91E
65243
1E4F1
55944
69085
0E1A5
147FC
54BDA
571B7
75FEA
1D1B2
7BD00
66E40
62DD1
0DA0F
00091
08506
75554
036C6
051FD
69C5D
0639B
6AD6E
5C0D0
2B807
667F9
6CF92
1A6CB
11CA7
55304
65E10
0C71B
7A505
5E71A
7AEE8
66F56
632FD
01088
56660
7F939
724D6
63847
5F352
0D2AE
27F45
5AFA3
6E4B9
0C473
5F1C2
237E1
03F58
22DF8
61516
00DFC
6E650
00E87
133A9
26F00
73530
18020
1348F
7BDC6
1D365
0FA40
1BCBE
6BF18
177FE
71E95
048E6
1DEED
0748D
72F06
20A72
64661
66C1C
2B665
77E00
25B03
0B308
77418
6353C
100E7
1B5B5
6F29E
07540
67DAB
1E959
05A9E
5CA06
55B86
0259F
54D0C
164CC
5E6CF
5BDC8
67A48
18B3B
6492A
14D4D
5D073
57BB5
0C9E3
15CD2
2634C
19356
67579
7B1E1
14DDF
7536C
55D36
0159F
72930
1687C
094CC
73944
279D1
22234
78C57
69416
755F4
1CDE4
1488D
0180F
20F21
10CFA
6892D
18D15
24110
62C4C
249F6
047C9
21490
6D22A
6EADB
6BBD2
285EF
039DE
6636B
2B217
57B4B
68453
76CFB
082C6
6616F
75461
709A3
686CF
0D462
2A07A
0AD06
7278E
1D523
08CD5
559D8
02D48
605B9
57271
679E3
7287C
72775
089CC
67109
032C3
73335
56DA4
1F173
658BC
0DB71
6070C
169C1
0A935
0D37E
12208
09870
54D0B
5FBC4
13BC7
79630
65ABC
5DD0A
69E3F
1D8D3
681A8
6E3F6
2B473
127CD
19BBE
0AAB9
56333
5C9EE
0E70B
6D694
59D3B
18E8D
06DB5
1048C
0CF08
05A16
21011
71422
1281C
73CEF
57320
544B0
6C19B
1674C
5E49A
69CB2
0F9DF
745B7
7AC5C
60E79
7CDA2
21196
24710
6D6A2
55387
64E97
0E046
249D1
723CC
0D157
61310
1F84F
14ED6
014C1
631D8
2483C
63C92
7F577
5AEB9
76C96
7D378
1EFA3
15C6C
0A445
23074
6480B
059E6
25424
7FBBC
15743
7BDED
6FA82
72D76
79434
103A6
59AE4
7BC73
120CB
56866
2A5B5
70DAE
2A1DE
24C63
6D2B4
5A629
0D668
78CE5
60DBD
21A42
2B891
71C57
00928
153BD
2934E
5F33B
76A18
70A97
1052B
0DC91
02563
06B15
20FA0
21B19
6795C
61244
66D74
19C6B
08675
5646A
20388
690ED
22225
17441
16AD6
27505
0255C
25A8E
0F59B
0E75D
03F6C
64827
7E207
55153
0FC51
573D6
77635
70C77
7A8F6
75EA1
046EE
2725C
65020
0C4E0
6B350
0D7EC
26921
6F867
1722A
76DE5
0557C
0D1F2
0D479
5C614
6F8FA
6CB85
5C0A1
0D46B
65DC4
6A8BE
03A49
1CE7C
658A3
7C408
17742
155C4
5E231
1F544
54C17
76703
576F6
12D08
6C239
5F1AE
60D41
78DC2
224B2
5FCEC
0958A
72D9A
05393
5ED5E
02F97
05A61
02F6E
27133
17E37
6CA7E
0517B
6214D
7280B
161AD
0D4AE
06449
18095
5DD0F
55DCA
5E0A3
20680
1D293
25244
5A377
1EFE9
59031
1F9BC
6C708
03AD9
57B85
62D74
267AF
0EB14
76FB1
7D5B9
79C1E
6747C
231A4
66F23
15BB6
26EBF
0009B
61FF6
6C21D
714DF
22C6D
00E6C
0E920
082F6
27EC7
2512E
5B650
5537F
2B245
55991
5DF86
1183F
5FC57
22DA4
14CAD
28172
117A5
6D205
1D957
21D28
60D2C
0EDA8
2454B
7C20A
69DF0
6AACD
1D39E
1FF23
1F33E
7DD49
6CA43
101DE
24E82
6405F
2AB63
2A57E
162FB
5B1FA
1D302
1D0AB
55B9D
00121
1D201
7AF03
0F2E6
7DE2E
56D31
24EAA
1C435
5C96D
7044B
5DDD2
16C8E
58621
062AE
21128
16EBF
1FA67
1DDAF
7E64F
1E197
56B72
13925
21399
559DE
1DC9C
0755C
16958
7A6FB
61034
0023F
6FAD0
6391F
5FD44
769F5
5C85C
7CC96
7542F
68C0B
0451A
74F51
7B70C
5B475
641A3
1C66A
02603
18C27
0F6F6
23FE8
00807
77CFD
01AA4
69D6B
1EF7E
5C3F0
5C20C
567A5
235EE
74113
1A57C
562AC
7A308
237C8
6A2C4
759F4
681F2
0E8D4
0369A
7AB6B
7DC58
2A653
7C19E
24973
1F667
08AE1
289A5
26D8D
56C08
7BDAF
094A7
7BC77
1743F
78EBD
6928D
784AB
770D9
7A1A1
21FAC
76341
65DB9
67BB8
5E7F0
623A9
264FC
25B3D
6A86F
13F14
5CD86
070E1
1BCB7
2251A
2B2D6
5781E
64FB3
57B26
1723E
7BB0E
7FFCF
23ECA
26B89
660BB
5827C
0B1D4
7DEBC
6CDF9
749EF
1C81C
2879F
2A2F2
284DB
7DBB3
61227
6C3D5
76D49
5D2E1
6D12A
24584
76D23
0B78E
67E92
71431
203A9
1EE3A
2251C
761B3
5CDF7
0DBB2
069CA
1F48A
258C8
5F9FB
14CD3
560D9
59387
24009
7C55C
05F4E
6E1AE
0D7EB
6A5DE
56985
676D7
7A753
62A4B
24AF1
5F9C7
26D15
0BF33
0290C
7CDE0
18C45
581AB
5B998
17BDA
7ECB8
1347A
1908C
68889
1D2B3
1287D
66894
14F11
24C95
104E2
0819B
20228
0D0F5
79FBF
1FB17
64078
13D18
22428
61B5D
1F734
64766
5EA70
7FCB1
7333D
1FECB
1D896
651EE
7C9D3
0CFC0
1605B
06B3C
1DF02
1A995
7FA39
10F70
56782
5FFBB
58C62
00610
20990
1CB67
795F0
0913B
62C8A
243CD
2010F
2613B
686AE
2B468
22CE5
0BBA3
03B74
01274
1E9AF
5A2D5
77662
69D61
2902C
6EE43
5BC61
5FED6
6F20A
74112
5CB09
01D71
2B8E4
680E2
5BF2E
7C304
67500
01B3A
66238
18CC6
0EC92
088A6
1EA7A
6995C
5A5C7
544E8
5DEF3
66F2F
625B9
6A158
0CDD2
6EDE9
68EE9
29865
7CFF0
0B506
26D60
6EDFF
0E514
5942C
5C7E7
67B2A
1AA94
54247
2B414
062CA
55D9B
6273C
594B6
68E7D
2A4D1
75148
7536B
2215E
0C63E
6F3D5
1489F
676D3
6BA0F
57B66
1A8FD
7BFB7
2A85A
6BE88
00CBD
5B645
6F65F
7A65A
5F7A9
79B9B
71480
24849
110A6
12B77
7B88C
5D4C4
133CB
1F5AE
21DD5
59217
5B953
6B0F6
26602
750D5
54777
1A959
2341D
09007
2A8CA
18C0A
70C29
176BA
57662
66C28
6C511
6AFFF
2076A
55DC2
0D66B
0026C
6BACF
22E01
1F2FA
03097
0BC01
128FF
0E3C7
58623
261BE
1D4B7
019E4
71922
1F272
77880
65B4B
6EA70
661FF
72AA7
1A565
7BED4
58923
643C9
72ED5
184F3
6BA24
72F86
17E70
67141
5884E
62C52
5F313
60B0F
65052
7AFA6
169AF
5FDD6
03D47
751F4
06E8C
09537
1D0BD
26E1E
14896
21CD8
07CE5
57DCD
6C44F
00D45
5641E
0587C
1F40D
637BF
10877
701FF
633D0
20886
70C22
5F0FC
6C036
04DC6
1C9C5
1BFCB
5DD5C
72BCD
29469
19592
2014F
04B46
08F1D
1D981
6CE8B
1D70D
2372D
175FE
04D8A
19CB9
7FD5B
7288C
769AA
7EF1D
220AA
28E8E
14B79
1CF90
1993B
5F498
0E595
122B4
6D16D
229FF
7F967
197EA
223AF
0B9F5
6ECEC
03C12
7C9EA
58F91
6930D
59865
1CAF2
79DCD
67F17
7F2A0
11FAA
54C55
06405
6CA06
2130B
22D48
28CFF
6E336
2ADE7
7F547
07CFB
01DB2
6BD45
5D039
12C1B
78F37
7206A
56617
2AB75
65106
2582F
06173
27A2F
65BFA
57261
5BBC0
5FB80
6E9B5
667C9
15975
06AB8
6BE6B
6413F
743D1
55230
1EA17
6AE73
1D449
5B616
05EA1
7DE24
5C7DF
63093
68BA7
562AB
72120
055F8
1CEB1
7F85C
04CDD
701A4
55E2D
673E8
7AA9F
1D014
24457
11704
15200
5FAAC
78F04
04DBB
23246
119B2
26DB4
2B75D
0B7CC
60D04
221E6
7E122
0C254
12090
1B6BE
2BA22
15036
7ED58
73E47
7E031
127E1
5AF83
7AA38
08A4C
2121C
6F80C
2AD2C
78F92
5B07E
21EBF
5F758
6B86C
68666
2586E
7F2AF
05CF4
74871
0255D
2AFD3
621C0
65CD8
5C7C8
16264
60F97
1AF0B
69166
5CF78
563C3
54AA5
7625F
0EE3D
27E5C
2475D
74C67
04A40
79958
6A68E
65C46
6F8E5
5B90A
7A17B
27B85
065EE
75864
25A62
066CF
69760
075D2
02065
7C85B
643CF
66BE8
7A50A
28BB9
732A4
24DB4
0A127
5F9A1
70734
1C6CD
69CED
68D9A
58E0F
73057
0D82A
1CFC9
6106B
566E2
7B2CC
67542
604F2
615A0
7488E
0CD97
180FA
5B773
23263
29F93
6C92E
14786
01204
09E3B
0A062
76907
1A541
60F9C
1C47C
6C1B2
78B84
75521
62C8B
19CD0
7EC00
6C4F1
089A9
732AE
68685
07FEE
2B135
797DB
1E293
26E73
5BCA4
6DCF8
59D93
0B468
1F6ED
68751
7C49F
57D03
1683C
7DE8A
5BB78
11FAA
7B6BE
181ED
29B09
03A07
28338
0A597
242DC
0E231
1ECD7
687FA
7AC41
082E7
5F4D3
740BD
25933
269D5
2BA95
5D331
14B9A
76683
65FE1
7180B
68079
5586F
07A72
55CD4
76FD2
65C02
0A4AF
62A91
12C5D
67136
7245E
203F5
68FD7
15A98
78638
133D3
61831
13EE0
54A9C
6541E
66AE4
6E637
6F199
5B356
66650
6CC8F
7895E
198A0
58748
08F84
6E15D
5D7EB
603C0
0FFF9
184FA
6F132
1AE79
098D6
646D8
00D4C
64460
255DA
6AE33
5CFB8
14469
2B07B
7AA87
14C5D
7E3BD
7390E
5F4A1
17A55
6ABE7
02F3A
1AAFA
21070
1EF41
0A72A
644DE
0B85D
06AE3
29070
17627
63220
081FE
5BE41
5FB3C
642BB
218EB
7115C
7CBFC
5F936
72044
6A3B4
10990
795C3
73CE7
55C52
1052B
7DA12
19057
6E712
1535C
7F38A
67088
2A7B8
5F79C
1C2B9
233F7
25235
23A33
75A6B
62E3A
7EC24
73835
0944D
65DE4
24E15
67CDD
75C34
0A5C5
1A18E
7D707
5B9C7
7AC68
0749A
5BE39
76DFA
5EF24
2840A
7D5A2
16499
23123
57506
28725
70B80
6132B
28E9C
0B2A7
07105
55584
26F9E
03399
0E883
7DBA7
153F6
13C27
56492
24C93
05728
5D52F
600FF
5E7BC
29608
035AC
5AE07
72AA2
6E1C0
60384
0D553
1C970
5484A
08E8A
71E7E
6A9D1
15916
7FF86
67F92
5B15F
67383
7AB50
024F7
1E4D4
11216
6E4AD
6431F
661B0
7DDDF
1B215
5C6EF
74AFD
7EFE7
5CF9D
0CD88
1E9EC
7006C
63C90
28DD1
1CA40
623B0
6A60C
5FB02
56BF3
2917A
690F3
77CB0
1435C
7BDB6
10E9B
585EE
693D2
241EC
1E972
77FFE
2544C
0919E
7461D
0EBA0
19245
13974
6D553
1CB52
5EC07
6F790
5AA90
18E20
71DA1
5F174
075CD
2AA67
690D1
0D3C0
26046
201B5
0C4B1
003DA
19BF1
72DA5
57DAB
78327
72359
69663
003BA
1111C
6EA96
1672E
7FFE0
09F0C
57DD9
5EBED
73ABD
2855E
2AA08
18555
54436
57085
68337
6CF0B
6625A
79CD3
64ECD
1D952
69271
29E65
14385
60D8E
05345
13B39
75B0E
60D3F
2B400
1B07D
2273F
71E36
1F6FD
5BA0F
78B89
07CD9
16B49
72BF8
06238
0266B
1BDB8
1925D
09C75
19DE4
1D284
7D412
6391E
6726A
15695
7B357
5D7BA
08D7C
1DAB4
6051C
5E4D1
06DD3
6F6F6
2A0AD
68EC0
597B8
26FD3
58988
72D81
0E431
55119
1234D
7B038
11A60
5E11D
68695
1BFCF
5E27B
714FF
76515
17310
6107A
74060
7F068
0E609
7D224
71581
220B8
583ED
296E6
75660
08F5B
0B88E
5D6B7
1B4CA
568FE
7216E
20BE9
1EE0F
22F26
1899A
7C84C
7FB7B
72908
5CEB3
545A5
1D840
1DD76
69599
0D304
6E650
5C620
2930C
10E1E
6DD75
272DF
221D5
0CABC
7A5FA
68374
7E79B
77593
64E9D
69DBE
6B903
2802F
7DC5A
0499D
6D11D
18253
6448E
7EACB
1EC31
19675
267E3
5D82A
71F56
062DB
591DA
707B5
10173
16F4B
22C1C
10200
77C97
622BF
0F382
6172E
65762
1BDFF
555F6
6B452
230ED
668A0
11A49
734CC
67877
055FE
08F81
279BF
0097D
04EA9
1A0A3
657F4
06A4B
68625
0186D
76E1B
5D6BC
0FBED
0B9DD
7D9C8
5A58C
05F69
2A42D
7C9DE
7B432
2A9D1
274C5
2021F
23A41
75DBE
5DCD1
70ED9
127D7
134F2
69777
60570
05867
5D83C
222B6
566CA
1E5A4
0770A
5F067
239E9
683B2
77E20
260B0
73374
063A4
5B932
749F5
75D89
5E16E
2BC6D
5CA56
5CB3B
73DC3
1B2C7
5A8C9
1BCDC
60448
629EA
594C3
6C65C
11304
25D3C
280B3
08A2F
7B298
18167
20DBF
5EAB0
0FB3D
5430E
54BD5
28FB9
0E724
1FFFE
0AE71
1C2B7
63DE3
1A6EC
1C1C8
63BA8
2AB2F
63AD9
61DEE
67A2A
7CBB4
7C97A
54C8D
2899F
279FC
62FE2
666C7
6CA67
1D9B2
25091
0F645
03948
02ED5
13B85
686A6
085B6
2BE6C
6E6D5
7B9CF
0311D
5C720
23A0A
5F901
7FFB9
08D16
26707
59262
111F2
60B46
55DA3
735ED
70503
19313
71E4B
57C11
2992D
66C3F
684B1
1D084
5E7F1
18DF4
5FDFB
175AE
59C08
605F9
114C0
61E17
5FBE4
13CA2
10AEF
680E7
61898
7A9C0
74475
021B7
6297E
0BC63
01BA6
178D7
0092E
6A88E
13D5C
1569E
5EAA2
73217
73EDD
7DE3A
10405
634AE
1EAF9
69A29
0F44E
1E76E
7B68D
00716
0A321
21E36
76F36
0923A
6E6AA
0EBA5
63EA2
1E525
598FC
7D8A9
1B6FC
630A9
762AF
20EC8
29229
5A9AE
62B85
60477
5A46A
23C64
7C6CE
1F6E3
0B3A1
594FB
6B143
70569
77E38
0B448
7AE42
1B0A0
20DF8
60DF9
71EE8
61342
7B446
11724
103FE
2A27A
692C0
62A9F
59CD9
0B606
22E92
56C92
73ED3
29D2A
0F62B
1A371
26696
5B48C
12FD8
7938C
0439C
01058
1ADDA
235F4
05309
081AE
54829
7114F
5E331
5D1EB
735FA
7B302
1A35D
59AF0
742EB
5DFC0
2010E
5EBD0
5AB02
6E30A
5B1D8
74D47
797E7
1BF0A
66295
120B8
24453
7D529
541D5
59B2C
2141C
1F0F8
7EC87
78092
7A839
251AF
20C76
20C9C
2B8DF
55E51
1252B
2B3AF
57417
6267E
23F15
20EC7
14F6F
541AA
28152
04FC8
0EE7E
07DB2
6B3D8
56509
04F1B
064F4
5D938
1BD38
60871
67D3E
54A58
66F77
03F78
6A34F
588FA
15F93
2AA40
62B49
6BCF7
5C931
24B53
7557F
26CB1
7FBB0
101DB
79A5C
76DAE
5B2F4
11E46
5B081
02343
2AD51
27130
66EF3
56750
73208
73A8C
5AF33
04D41
09282
1777C
557AE
24292
1B40C
23EF4
127B5
13819
7FB6B
2280F
74706
7B118
093C9
6E95B
6DCF6
6121B
74265
21051
20E05
1DA59
04533
0CC3E
06F51
6BDEE
7B4AC
6120C
0FDC8
60705
2649D
29691
7E82F
1F618
59F2B
10DB9
72B03
1410C
1482B
69092
07EBF
04D5A
6CA0A
6CC09
0B5C2
0867F
59A8B
7B924
7C13B
584C1
657F6
67DA6
7D332
0EE21
0187D
73060
23F77
28C93
573C7
57C33
19317
743C5
5E8B5
7CCC5
19AB9
7AA65
596F3
77349
6499D
5E212
15E2A
548A1
2556B
77800
13E33
0F220
2B4B9
021A9
5F549
1F8E7
6B8FB
62B3B
6BD9C
02791
21147
6A403
7CE7F
54953
70C49
711EB
10826
16D99
69740
5F896
12CD7
79844
26AF5
6E73E
0987E
65561
6FB05
7D7CA
01812
0D56C
1ACB6
7B135
5B95D
00066
69D16
037A0
29542
2339E
7E348
5C066
07969
29CF8
07D6F
6C336
60E05
7FF04
79481
6D034
7E070
743F3
5E07E
772DD
61AA3
175C2
01525
18FF2
09E96
27F54
2368F
55A3D
12043
17FFA
1300E
64D87
17AFB
145C5
215CE
206E8
5FA53
09EBE
78FA0
1A6DE
2449C
7C62C
2589E
03563
2A932
6CA2D
1E9D3
64730
73FDD
6F167
0091D
0CA1A
6A0BC
2A874
14962
70918
08419
18D47
5BDFC
73986
02C7D
1446C
7E9A9
10CEA
19333
6FA58
60569
64640
760BF
1F891
5ACDE
2B66F
1E282
03620
15F6E
7C53E
68C4B
04645
0A67D
10CC6
0D34D
0E8EA
18F11
184A7
0EE9B
78CB9
6014E
2BE3C
5F79B
73343
60D9A
12D0B
7521F
72AC1
0F7A8
70C1E
02C7C
03A89
1E59E
1383C
07F40
7F423
5E526
01BFB
1E1DE
17A06
7DBF8
55D48
6AA35
154A1
1B40E
1BC45
0BC3B
5A331
75872
75982
56181
5AB38
0A723
04B6E
294B9
7EA86
691C6
6B67B
28E18
73E38
6EF33
6E9A5
0A452
6A2AB
02E79
22F35
0CF5F
6B98B
0AD70
56698
22A46
5A707
5E59F
54441
7B581
0CB84
629A2
546C0
26CB3
29708
6B955
22EEE
5B16D
153C0
08D61
1AF77
77CB1
2B700
66F89
65CE6
7EF07
6E995
22340
7BB90
55C03
67CBE
79D4C
7753E
0F167
10560
67A0E
00CAC
1FD98
0E876
02F7F
7569E
146C3
1DE3A
091DB
12DC6
04C78
07B67
6D076
66BCE
5D3AF
5C6A3
7FA76
7C73A
6E043
2AE30
5CCE7
07810
263B7
0EF98
19E3B
0418E
5701D
17D90
7BAF2
14393
10EDF
70F2C
5BDD8
20573
29B5F
097F1
641ED
735E0
5ACEA
0C86C
2BA77
084F8
6102D
14260
1F648
1ED37
7A6F1
74086
2B49B
19F30
00C22
249D8
6F8DF
751EF
6020A
54817
2804C
05B48
22E09
67AC0
080FB
0FC13
149BA
0C22A
7F064
577F6
0663A
7920F
11919
0090D
03FF0
5ACCD
125EA
6BC81
66D50
76BCA
70771
1DA28
2BC86
5AFE4
22CCB
7B6DC
0DD60
28734
54C6F
73F4A
1ACEC
6B69F
05A79
0F959
6C7B5
77995
13B57
2620B
6B486
7FFDD
0AD59
595E9
77219
79C41
5ADF2
7B4E0
1FA41
1413C
21B22
1D7F7
71130
13363
24241
5B408
09EA6
7CB86
618C0
225DE
1C673
000FB
14983
690AA
124C8
6018D
5946A
61CA2
68ED3
56A15
0E1B6
60037
65B1D
1E7BC
7230F
67B80
180FB
621F0
23DAA
2198B
6A659
29CD3
0B9C8
09E98
729AD
571A9
67E84
75E15
1B855
07EBB
5A3B3
25B65
1917E
283AD
7FAD7
02B1F
1633B
0B3FF
211FC
568FC
1DE35
22C15
23140
6221F
22A92
66F69
0D619
73DBF
0C032
740A7
5E755
12BEA
19540
0A8AF
63EE3
0DE87
679BF
5DDD1
6AC5B
6EA22
1967A
77D1C
110F6
566BC
705A7
7B2C8
7B29A
5B82E
5D06A
20337
772CD
579CC
2BD7B
2865D
786EE
05CE4
13F76
6BA6D
7A8C9
01064
100E1
5B53A
5668B
019EB
60918
0EE68
54B3D
20532
7180A
17403
1588C
7B5DB
09DAD
5DF85
20210
5E04D
210DF
65E35
13564
0BCFE
6DD51
66264
140B2
6699B
5EAEF
6348C
08E52
0B603
71724
675D3
5FEFA
72ABC
743CD
6ECAE
24299
2B3AB
04A39
56138
79D97
02E22
5D327
1AB25
115DA
1A9E3
70BCF
5D29E
15D5D
7F269
65F10
789E8
064A5
75F38
5AADF
1C00C
74F90
1690F
089BA
611F6
62523
0B57A
6D740
606C7
71676
56DC0
1473F
02844
5AD5F
18C9D
00FAC
5869C
11C6C
5AD82
78C88
5CCD7
6E079
213BA
130D3
1E5C2
229A4
63A61
02E86
68DD7
0CD6D
09944
14230
6AC22
23933
26846
5ED6C
19EBD
13C1C
54C31
05E56
5F245
1EEC9
713FA
7AB7F
7E009
25C40
05CF2
28B4D
58350
7EEE3
27BFA
79D9B
66FFD
660D6
25627
122BB
5842E
555F8
54325
5D88E
219E3
1E41A
68E73
054CE
59EFF
10C28
157A8
5FA0C
16FE1
29491
710DC
265E8
7D15C
1BC3B
1244C
5BB9A
2090D
0D981
00EB5
6F449
25A2F
5AF92
65CB3
2584F
028B4
15839
6FC38
2532E
19398
28825
139A4
01884
21609
78DCB
14B1F
1E69C
0D846
09A43
07B5D
68100
2B4D0
5DBF6
6A3A2
7A403
5F5B7
68DB9
13DC4
01940
74F13
6E2F5
69894
6E235
01796
0E20F
617F4
24B1D
693F9
1E808
0F345
1E25B
7E546
69E94
5B987
63FB1
65681
18B51
7AB2D
1D398
05D19
06ACF
09045
7726B
75A3E
55A98
78648
05B17
0C28B
7DECE
03FD0
0AA40
0A195
19BB1
69D36
58EEF
152AD
6D7A1
24072
6242B
73157
1F5C9
23178
1F527
727EC
755FD
5F742
6D780
78FE0
5C5D3
5BD2C
58451
1DCCD
24C68
20552
5BC9D
66F6A
24DD0
784A2
20C93
11508
580EC
06DDB
7B795
0BD55
5BAA7
095CE
5EABB
11894
06A98
0EBE4
5CF5A
79C63
7E75F
0B33A
65FFB
5861F
6F0E6
7DC6D
077AC
0DCB0
71C19
5DC5C
028A2
64AA0
63111
7EE6C
0E9C1
02BD0
18912
23510
5D5FE
6DB84
615A9
2B175
29EFD
566CD
69547
6AAA0
025CF
04DF8
29D95
5E520
7E51B
5775C
11CDF
09DD2
088DB
6FFCB
08532
1F9C4
688AC
26B50
28A48
262E2
2A6BB
5A9C9
182A6
6CD44
7352D
6DD78
5C836
79D62
1163C
7E6AE
039D4
733CB
64697
07084
7EECA
19E93
6BD08
71BE3
6D1CF
69475
6BF44
01E3D
133FC
08E22
74F7F
0D094
75E8C
0B318
54C23
1DC03
7AAAE
0A590
11441
21026
13A58
1B070
02FBD
6925E
68211
7CE29
58C37
006D3
661E2
28F0B
255CF
793D2
7ACAE
7A5A1
7C266
216EB
1DA9A
6FB0E
7E0B6
00289
707A1
2B639
1FFF3
74AE9
78B13
6CA89
74DA3
11011
7BCE4
08999
02204
7470E
18C2C
2A923
0696F
12E27
5F255
6D4AC
25171
1C4AA
56EE3
04C31
03FA7
67ED8
0E65C
78958
259A3
244DE
561DB
6B22E
730B9
1C992
7EDAA
0E690
13B55
25298
162D4
7AE0C
7D969
1B3A7
6E622
09088
09810
02660
78F16
7F07A
0C5A8
0DCF3
12017
1A40D
0D4C6
5B135
738C1
5E693
10CAA
2AC67
1EBF6
779D9
0AD69
23F0E
5DE0B
6AC8B
6B8F3
75A2D
6D2F7
5DF37
0C56E
7FFA5
04716
23B21
7DB01
61C4E
1F0D6
676E3
0855F
297EA
29431
75FC2
1711C
18A28
74F87
60BCA
5EA49
21C7E
25C38
7EBF1
75AF2
092BC
56050
0DE88
2721E
23EC8
6C07A
79FAB
0F7B7
26167
08467
7B898
29287
6FD6F
068AC
0574D
028F8
64FC3
1CA8C
6CF27
1EC31
78266
2947C
6EEF0
79D94
19D81
1AB10
727B2
2565A
63F91
7BB7A
7C0E6
0AB38
61A1D
27814
1005D
66C12
22614
58793
1A71F
1FC5D
7ACB8
12EC7
1AAB0
755BB
7B6FC
67D9A
0883F
5DF0B
74BA4
66A5C
1C3D9
0FF0B
1ECCC
0CCBA
1128B
688AE
63E2E
6A6E4
15FA4
56C7A
1F390
79713
5BC44
58BE1
05784
7FEB4
1CCFA
1FC35
13BAF
698F1
1B533
72B10
770D6
025C3
5C0BB
117E3
27DC2
29257
1162B
10805
70DC7
076CE
25D45
0A369
20E09
59162
7544F
6EDED
0215D
773E9
71191
5B300
2A6B3
7E291
10199
670E3
21211
755C7
76A9F
084FE
1A84F
5457A
13C42
7FEA2
2976C
1782A
1ABC2
57F98
0C230
26B04
08D94
1BC98
6466B
5BF5C
6F9D3
15C51
2103A
58366
61C45
0D95E
1843E
6853D
15E07
5B196
564B2
7A218
7F240
0E066
0A69D
0C127
14770
7B94B
138EB
7EB0B
12AD4
6977A
6641B
1E73C
2A6BF
5F236
1BF6A
5E92C
7DF12
1D4C0
14723
0B746
21E2C
07BDA
0F68C
6010F
02448
790E6
01DED
07DEA
25C40
14EDE
026A2
2A418
7DA2C
1B64C
76FDB
58261
78FB3
255F7
186AA
24E19
28A5D
570DC
76981
5F47D
2A873
0F8B9
5E7D5
1B36C
652D5
660BA
7B5C7
78C82
05EED
7801B
54B3E
15582
6877D
562FC
21C51
173A8
23C3E
7CDAD
009C0
0D801
13A32
17E39
659C2
07DE7
24C67
14EE0
17B8B
0237A
596A6
7FC48
17E44
722C5
00243
1CA3C
70BA3
10290
6F4F3
03188
0C242
7BD7B
19D84
6871F
679B3
26C03
06342
68997
1863E
279E4
033BB
02BF1
25664
19075
17AA1
587C8
5958C
2B00C
058D7
15249
0DA59
6C517
219F4
206A4
0ECF8
11498
5C47E
6612F
14F9A
1C940
55AC5
656DD
6DB4D
7E869
0C0B6
55E4A
7A702
775D6
0461F
0B903
2B4E4
26B08
77B2F
7702B
700CC
68A68
6B36C
717F7
7D031
7489F
06C83
07967
26972
13328
78DFD
64B68
5C902
24BFF
58C5F
223CC
07A5F
1159D
07BAF
2A66A
73BA4
10DCC
1D363
690CC
18DCE
18467
61D46
79765
170F8
212C0
6866C
1633C
184D2
1A757
60070
27AD3
5F39F
24CBE
78C43
6A3C3
121E0
17D87
6C81D
664F4
63114
5BBFD
119A3
60B1B
06131
799C4
23AF6
6CEF5
1AACB
702FE
566ED
0010D
2601E
09EA1
07963
798B2
1F896
19337
02690
7ED5E
63148
74D99
78766
6C165
5AE8D
29757
73CF0
16E06
1E3EF
73011
662F2
7B551
75062
110FD
5F868
54ACF
14508
6E2DE
10673
0761D
7CF1A
208B1
574DD
14351
56114
74952
27D73
0E05B
18AEC
07FDA
01408
047F2
7DAB0
0C65C
59CEA
17353
580E2
2780E
24D3C
0D90D
72C0C
030EB
5E5F7
681F6
7982A
7720F
282F0
65EED
21274
13624
1F463
1253A
58574
7E97E
7EE26
19222
57BE9
151C5
6121C
0CDEB
2BA88
7D7EB
67D3E
11533
78BAC
238C9
141DC
17DD6
67139
59F52
69535
1A895
7E524
669F8
72A51
20BEF
1CB84
23537
60D9C
7854B
1482A
57C86
6F4FA
56EFC
6F50C
1D870
04C2F
22BE5
7E97E
5E243
6DDD3
58F0F
77093
13D41
775DD
6F8C0
07E6B
1C38C
12EC2
2511F
18746
6265B
5857C
7FBD2
09966
2A877
09389
76B54
5DA58
73615
26F12
5BE88
1D9DA
07FB3
0873D
27883
7C998
28C7C
7C982
11E2A
03DC9
1695C
76B9D
0B30C
06158
58238
214DC
1D172
1CE49
5FA20
707FF
77AB6
5D8ED
57B52
0D2A0
596E1
07C02
6ABDA
7561F
2304A
182CA
5C94F
68C19
2220B
6FB07
033EC
19A0C
16C63
14903
29B6A
0DD36
782AF
25C07
6C847
25F65
74009
284C7
2364A
6C993
08837
29548
7D186
0A72D
22A32
5EEBD
132C1
2827D
12A8B
0B4DA
0383F
21256
63A64
5962E
0065B
2254A
6618E
09A12
131E1
68F4E
1959A
0001F
22FBD
272BD
6626B
5C397
1CFC2
74A76
6C101
06167
2701D
649A0
14E3A
07CD9
7D10C
22A88
6F643
06D94
71240
5EEEC
757C5
0D37D
1AE5E
5FA54
109A9
04449
5DB2C
7C774
740D4
0E2D5
00042
2A048
191A0
013B4
6199D
6F0BD
6F0DE
6D2CB
68F5B
146B2
7A300
71624
5D77C
555EE
77252
66649
0D34B
5C82E
05332
2635D
1D9F4
57097
210CC
58673
621E1
6FA4F
08A8D
237DE
168F0
66847
2609A
008F1
78005
1CFC2
038A3
1DAE9
60ED2
24967
1B56A
191C4
2335E
13C2D
19453
69733
053D8
02A0F
05F55
154C0
130EA
5D5D1
7873C
7F409
04BB2
64356
077AF
1A2BA
0064F
5FDD3
24522
0F307
66077
269E9
29B5D
6F16A
1AE5C
06E3B
78B5E
7264D
2A328
1FEEF
76FFB
16E91
6BC5A
13D09
08564
2289E
6F118
0A5A7
77D47
0C955
1B896
7C2F0
7A917
7DE14
04B85
0A9EC
0AD76
5CD73
5FDB4
5F548
0E4BC
16F23
64525
09220
083C4
12525
19732
1921B
12E8D
0142C
06B7E
5CFA7
64C77
6A14F
10C6B
24645
648DD
741DF
0A30D
0E96C
6842D
6EA27
7E437
04B54
2B440
543D9
71AC2
0592E
5B547
73157
227EF
77E21
66D1D
0B734
7A342
5DB6F
7EF4A
1ABB2
63005
7B36B
14415
6419F
2A50F
7F3A0
1F25E
2915D
72C6A
09302
6F907
61B59
18496
75FCB
0DAB4
64278
1E07B
56183
65DA3
29040
5F8D7
5F530
2081F
10902
72453
7FB1C
78461
270ED
7112D
671FF
7E170
65E56
6A1AB
5E2E5
57B4A
5EB48
1064A
23CCD
6C895
69CBF
11CD9
76ED3
58CDE
1D407
25664
76E7C
76262
0CE66
6E352
6C7FC
6A106
58775
7847A
05130
23BFB
6F387
65D19
16DDD
652A1
56E83
02ECE
2391D
24D87
1C32D
179EE
0A7D6
71379
63CF7
7CB17
6B647
22B94
1572D
7EB31
650D9
6F263
239A9
66330
7C2D2
0CAD6
0716C
6CE1A
5DC37
799E1
76CFE
58D0B
13801
26340
5BE7D
288B1
1BAC2
09607
5C4B3
0C847
6ED53
72FEE
56AAC
22B38
56220
65DB4
2BD5E
5B84E
59B02
69EB6
5E4AC
01E21
769A9
62186
64DED
5D768
666BC
5F0E4
0EBDF
58370
74157
0502E
0E043
6601E
00991
7CEE9
1A320
74CE9
06746
049D1
6BEC7
11437
75326
26840
0FDA8
62837
26E07
23171
00FBC
5BCD1
08DB9
0A432
76C60
676B4
6D0A0
55748
27686
56388
6C132
275D8
7C593
76225
6B7DA
716F5
0BF09
13842
5AFA6
77CF5
2A454
2564D
02A68
26F85
602A0
751ED
16BEB
5B3AD
022FC
558C7
05B37
7465D
0B255
196F9
0EFA1
0CC76
101F2
7B8B6
167A3
0614F
01A6E
6DD5D
1971B
20C08
16356
1DF57
27925
77EF0
73F20
6FF02
16F83
13A87
7CAB1
0E45B
0B41D
10A3E
06C59
7F976
78BCC
015AA
03ED8
7C67D
71785
2755C
5621C
10023
6284B
1FCC3
0464A
10BB5
74130
5AE02
1FA1A
2A4F2
68D3C
1EA97
05252
108BC
7168D
6B89E
69D39
595B6
20384
718D2
7BD7D
15BA0
29F8C
047EC
0C137
54B9C
56B47
681BF
5FF09
5EF2F
06EFF
11309
681FC
0526E
2471B
6F985
73004
729C6
1E28B
56DF6
040D6
59A69
17B10
55664
1D058
562CB
23003
61D9E
78C1C
6F4B2
6B28A
279C5
57098
1513E
5D807
7C2A7
5F2A4
2AE25
5583B
1B3AC
59BEB
164DB
1C669
6C0F9
06C74
66B0F
2A443
78CDF
10318
59275
79026
234CE
7E05A
1EEC8
0A052
60953
0C554
67FCE
62501
21D12
5A2A9
7E549
721F5
00457
27F81
08BBC
1AE0E
290C3
5EEB7
5B29D
24370
132D6
7F209
64870
27383
27ABC
79C11
02429
5A891
681F5
0C785
25885
6E6DE
54FD5
627E9
1098F
1EE45
0E525
60BE1
77BD0
21CF5
1710C
6A522
6271B
75C11
1B6A4
5BFBA
7119A
22A8A
5555D
7DABB
0FA8D
172E3
1569D
6FE9A
1D22A
0EEFF
5ADEB
1FE3F
17CCA
22D7A
5F55F
71AEA
20145
6698C
58089
6B67D
72BA5
673A5
15B07
28369
6CA70
01504
2B2F5
6467F
6E73C
66E8F
77A8F
5ECC7
660E8
0B3F2
0A0DD
65E3A
04A7F
0D0F7
6299E
17017
64443
15E4C
75636
03F51
239B8
790FF
0D76F
0575C
7B74A
13288
11000
67AE3
122AF
6A454
5E5BA
6292F
15892
0F349
571D7
2AA3F
6DE8D
166AA
633C2
6FF0A
6694D
2B2A7
28032
1E438
20190
01909
04138
63763
0CF03
26490
15376
6C17B
566A3
755E7
56D7A
2949B
0CE83
6BE0C
63744
04155
003F7
7658E
26871
6456C
1502A
034E5
6F6C9
11ADF
09FAE
74C53
19CDD
02780
5C7AF
0D84F
2375A
78B2C
542C7
54FD3
13972
2AA01
6A2C6
5C500
202D3
59BD5
136FB
65185
5E724
7F3DC
59898
62689
76170
68031
18E9D
5F705
2984C
14E8E
05C0D
5ED8A
26A7C
0F646
10F15
569B6
54310
68E21
6D776
68120
7E379
1DCDA
6E40B
776C2
58F9F
5662D
239AE
5BD36
0B280
2267E
5F0E9
2630F
1C250
244C0
29F8A
72961
20595
5AC38
66883
0782D
7F976
6B51B
0F178
767BB
18A9B
74FD9
1800F
23BF2
1AFE2
7E154
64CF4
0E1C2
7DB64
0BAF8
5BCFD
6A47A
05792
2A1DA
2B6F0
663B2
54364
1E8F3
1FD4B
0F3DA
250DC
163DE
187D6
7F129
60281
586BB
177DF
09968
7B1A0
7AF19
06691
05B62
76859
76699
2793D
1C3DB
5FE1E
13F63
6F40B
676DD
7FEFF
7B990
75C24
1CE2B
2550D
00D4A
108DE
09C83
1AFDF
69653
6F536
5A8A2
2A87A
2AB88
02527
54DE6
00D56
205F5
61CE5
59EBC
7F6C0
06049
1DC52
67C96
652AA
1FE67
7CFEA
174A7
1A04D
7F65C
59C3D
2B681
27B33
6C32E
65ABB
5F323
71CB0
71B5B
0CDCA
62F5B
65BC8
0668B
05B06
71F8E
1398C
08841
02612
1577F
76995
005A0
27690
620CC
20ADD
7ACEF
7F02E
099E1
254A1
039D1
27285
1DCC9
5A4A1
0FA9C
77A48
7D017
6212D
13786
05C6E
0B687
5F522
1C88B
0C02F
00522
7DD25
23A63
64564
2328D
6AE2D
5F549
24ACD
2622B
29A43
17CF2
742A1
095F2
6FC16
5FEED
7E385
09B41
13926
5BA9E
67C4C
6060A
04FC3
2B982
718D1
6793F
02002
196CC
20857
726C6
26CA5
22A2C
726D7
7B549
11AE1
26A79
79D0D
586C7
07C6B
7B7A4
574FD
0D125
08ADB
0D29B
633C4
0D9BE
68EA6
61AB1
1FA66
259EE
1DA30
1F159
71DD8
24639
266BA
0F0C6
10FB2
70CDC
6E458
6265A
1A772
15D0E
2B185
29039
180A8
0FD43
57376
26578
67367
7C8C3
1DB40
6EFBE
7B02B
1D038
78E5D
083ED
5CE6D
586FA
16EEA
55897
034AE
08191
1F03F
55BD9
6F6A2
0E384
637F2
75FC7
5CCFA
29148
294F8
1E870
54474
1CCA8
0BD16
55D5A
08EE8
20AEE
2BC7A
2AD04
15ED9
010AE
5ACEE
58A6C
6500A
00767
1BEA2
77034
56CE6
79D93
01444
68A48
6E11C
5607C
0207E
27F86
21B77
68B3B
6F587
73198
58E17
68A05
0D4AB
5E20B
7D6BD
0383B
112F1
0A3B1
1DCEB
61C76
1AC35
75178
0F2CF
7CE3E
5BCBA
22BE3
72124
2009E
6A0B5
56586
1CD76
0FDC1
76A68
7B484
73CE0
08CA4
03AD9
11A9E
754EF
0B937
0F6C4
014FF
02A01
62706
15593
2A736
60AC3
1DE5E
76557
5E13A
15505
1975F
6258F
1C2C1
76F6F
6A690
6060A
5857E
12783
6A773
68ADA
12773
71505
69FAF
78274
1A1A2
7B4B1
1AF60
003F7
6E643
78547
5F199
0905C
6131F
60142
1AD17
0ADAA
5B337
0E2C2
1645B
0BA15
6CEFB
282F8
05905
55094
24C39
1EB33
6451E
07E59
10E4D
5FF92
089ED
1E161
1B490
5B2BB
6940B
15CA4
03EFE
1CA35
7B55C
6BCE9
1444F
23B38
14048
0CD38
66FD2
12950
76FCA
58314
6051C
55656
71249
6A0A2
55A7C
5C695
64759
24499
283C3
5C677
65DE2
24941
79709
61CFB
1028C
21F6F
69C31
787B7
1EB99
023F0
68F0F
62660
00534
6C2F8
2955A
2035B
19375
1A23B
2B67E
7CDD6
18C87
02A83
5BF32
7D960
07951
60BFF
65C25
0B043
57C6A
66ADE
1AD61
00D0C
07F51
08730
6F233
06E80
6E485
1B579
5DDCA
6919D
09FDC
71D72
1426B
6D4A0
6DB70
54EDA
0B237
7D666
15A57
1F521
55A80
170E7
12C89
75367
1BFCE
7E043
1FD73
621B0
253C2
139B2
608B0
7A186
5AD30
68338
2AFE0
5EA4C
713F1
045AF
705AB
6478F
1400D
7E1F4
6AB65
6E27B
279A2
0A2D9
68BC8
04EF6
29E99
20385
72BB6
7E88B
06255
771AD
0EA09
12939
6388D
19EF3
0796F
17F38
058E4
247A8
67D51
1B883
69506
5FB43
6999D
7B6C5
01057
76633
1883E
61E88
031FC
7C13B
1ED38
5A1E8
70B96
17ED4
1699D
672B3
67B52
6626E
574C8
671F9
091B0
631D3
5EC8B
0ED34
21955
7FEDF
0517F
672A5
559A6
0F416
6982C
2ACFD
5B817
6FA2F
63435
06B2F
61F83
79E83
7D789
6B2DF
02136
63C93
55213
7932B
62D13
07542
66462
6DD29
676DB
55C04
57096
2A4FB
177A2
6EE24
07239
27F99
27985
06C64
255D7
6040D
75ADF
10B1F
131BC
7DAE8
5B2FE
64C6C
2287E
267DF
12617
1A5F7
036D1
09459
12788
1F2A6
5CCD8
77B5E
5F9FC
76400
615B7
0B957
25D1D
6116D
78EF3
25852
7209A
7D45A
0DF95
0C452
673FB
6DD54
72E08
76053
1D031
1F0C0
6C8B1
7ECA4
57D12
08933
5E35D
64D59
1D6EB
28DC5
55F15
11DFE
097FA
631E4
5BD63
744A1
6CB58
66E5C
1DC6E
788EC
252D3
084A7
66DEF
68382
5768C
7A3F2
00AFF
57E23
7DE1C
255A4
09550
6E6A8
556A3
672D6
21974
626B5
11BA6
16F6F
5BD34
58893
79C99
04204
5F1EC
27BB0
00814
564EB
55748
5BD2A
599C4
6E639
6A4A0
081C9
6F07E
112A1
64C53
5D757
232BA
0A669
23FA7
0B80A
1CE6C
245B2
24D00
1F5C7
0A52A
7A174
73C5A
283AE
1B5CD
0D8C4
6652E
5E536
7E5CA
11F4C
6A207
117E7
03E3F
03B6E
54499
0FA83
1716F
695E3
15DB4
5910A
1958E
04207
06396
5E884
0970E
153DD
79CC3
66396
01984
67171
58956
03F0D
0494B
032AF
1C71E
0F42B
7B24E
5785E
095F4
1E099
02390
224CF
29F26
61233
732B3
2A7A8
70F46
730C1
5ED8E
7275A
16826
65FC4
640A3
1AAC8
1A42D
1E8A1
74300
6333F
022B4
731F0
711EA
7BF7B
183B0
1F195
6B623
2A384
29F42
278C3
78E2B
5C137
174BE
2449A
1ED19
1933A
05614
70435
5922A
28964
74D23
5B9C0
7746F
17928
68724
15F38
2183E
27BCE
145D0
671A0
0FA0E
7F204
7E1CE
26180
6D06A
25F2F
239B6
7BB53
05E2C
012E5
0CC76
6C5EF
71918
68167
18B2E
2669A
75989
1CF67
6884A
57CF8
169A8
1D6BB
710A5
6BBBC
5BEEE
22B08
17F26
57746
08C07
5E755
03662
296B8
7EBD5
6355D
597C4
76D3D
6A52A
66F76
28522
1068E
7BE95
0F05E
6EAF2
63C7E
55B54
12B2A
0E454
01F71
08113
14DF1
7F92A
6ACDE
62A41
74182
78115
058FE
1D130
7DFEE
71CAD
1AD7C
20024
598A3
0A33A
61D12
6B215
5F659
14F2B
23100
098F8
7AABD
17F3A
66396
60A9A
02CE1
797E2
1400C
04992
7DC4E
00E19
7EFF0
7BF17
70A92
22EE9
67A1C
14A0C
7BFC6
22394
56009
7E1EE
26306
271C5
7A1C7
012A9
1FD12
29FAE
1AEE0
648D4
269AC
7F143
77E22
6F653
5F5F8
66613
0DE2E
76CF0
0F8DF
63774
0D832
204CD
23440
565ED
26B78
79979
7D5EB
01E34
1CDDE
1A8CB
095E4
14BD5
0DD46
76FD1
00943
20F91
5E112
799CC
62BAF
698F0
0E05C
1532C
0D717
71C85
5F6B8
7DD72
7D077
78F56
29FDD
7DD2D
6FA4A
6C6EC
70C7F
7334B
0C5C7
6B771
5A010
7CE15
27077
22A5F
142C7
7585F
655B3
15743
65C85
18FFA
141BB
22BAA
57918
15F94
6B422
0A0B8
57088
54765
196F4
01EA9
0F3F3
56724
1BDC4
11078
24E0D
2A4C5
16DB0
17C9E
13A3A
5C8FD
0D024
7E0E1
74669
750E4
04950
04502
0A373
7C1F4
102E4
23443
77208
13C0D
6299A
581E0
7E8E7
5F7A9
1D9F1
0BF14
6815B
7FB25
03F4A
138A6
1889D
56E7A
022FA
5FB38
7FB46
1A824
1E409
6EF01
1DE21
0C625
7FBA0
22893
7B55A
64883
06A8E
640EC
0B735
0F43C
693FE
5A37D
251C0
6FE44
2B511
7C00B
16553
0ACE7
15ED8
1287A
13519
67BB2
7675B
5BC9D
7E6BB
28917
18D57
58436
0719A
0AC9A
5AFEB
65FEA
73B5B
6F543
58E3F
77BFD
641EC
6675F
0CA50
104E8
1CE51
0A200
5A437
6F92E
54E75
088BF
26D2C
29D04
7DD8E
73E51
12B2D
19BE4
065FE
0E998
5A6F1
6CD22
12A05
73B0A
5BDB0
67C5D
1202F
264F5
6C120
23F9B
7D30D
17F70
0C31F
7798C
6308B
257AA
0E46A
5B428
2330C
7EA38
72EE3
13E2D
2AC38
082F6
22621
55582
16C66
7308E
2BD6C
5ABF3
24433
7B056
107FD
6F6EB
0D8AC
29888
7F4F6
27E73
5FFA6
6869B
1D792
17006
18752
5F9BB
542B9
66140
61540
64DB0
76040
1795D
5FCBC
1DCBB
549D9
601B0
09B43
0DC8D
5F5B7
5A0AC
6263F
624B0
07CE7
6F6B3
733A0
2B552
57AF9
5B4B1
166A1
5C70B
6ED03
63AAF
78567
6E72B
68A52
5D9B9
7400D
7F3D8
72D9D
006C1
7F031
22F1B
11989
7FBA2
61006
5CAB4
77338
7FEC0
0E26E
22393
242C6
092C9
01E8E
087B4
25590
6DCF9
72BD3
1EEFD
1A7CE
1D344
0AFDD
21BC5
20B56
5B62F
77118
027E4
0DFD3
0AA2C
61345
0C137
67252
65035
5619D
1CDB5
1625D
13E98
083C4
5769B
58A29
29D15
6CD8D
7B26E
0CE23
23EC4
0B98E
6196C
266CD
55654
5D75F
54AB3
01F4A
611C6
5512D
7ABA0
6F123
57C98
63072
76637
18F2C
19C4A
1AE06
783ED
1C84E
063C1
70B53
241B2
6E03F
1D28E
13CE3
03CA2
06894
661D2
0A445
03620
26100
708AE
7D63A
1A156
08E5A
6EE8C
72C3C
23EB9
11ABF
1FD52
5EA48
01EC5
0B155
04759
5D528
1DFF0
0A1D9
75930
1493B
56D44
1BC69
5F741
023E1
16AE9
77F70
5949C
65B30
0CB03
15D3E
58619
5ACB2
0D1C8
0CEB1
17D05
58AAC
1C688
6DDC6
7F22F
24FA5
76FAF
00914
77516
60736
1AAB9
795A6
79D00
63D95
73579
72B92
1D7EB
10FE4
6C1E5
7CB7E
07815
143CC
0E817
27CAC
7D867
7D85D
66379
6C3BB
0FB93
71019
55612
5DFE6
28368
17E8C
59B31
16165
00AB1
71ECE
137B2
6654E
1C3CA
2A740
6327D
0663F
0FD1D
29DBA
7D06B
1E8E9
6385F
7FEC8
170F1
72BD1
1CC04
58304
6C556
2A9DD
10497
06C92
6802C
17970
5B305
7E5B3
1566E
59F79
29091
20D20
6845C
690ED
01DE4
76481
0A3F0
70754
5CF60
5B78D
14EA8
21876
13F81
77F47
79C85
0E1D4
0BD3A
7EF18
62AE5
23F5F
5BFAB
17C4E
76C83
67D81
10618
6DDBD
1DE80
266A4
06B62
21BDB
5D8AF
19B97
7DC73
6A70F
161AC
714C9
6B265
1C989
2AF8F
03366
0D420
63610
710EF
774E8
1BE9F
55270
290AE
587E8
549BE
0EE6F
5887A
06A98
0E26C
71319
6B04C
28AFB
60E6D
057A3
6D845
0007E
10FB8
5E9DF
18D35
23F3A
59986
0D3F8
5BCCD
10D38
5AD39
6DA10
1C52E
6781D
138FB
6E83D
05F39
05421
16959
2582C
6A57F
57BD7
7168E
58A6A
6CB7C
569C1
72550
6760A
08E06
7FE36
07247
1381D
7834A
21807
79719
0077F
0B130
74CF6
7FF86
7BB0C
217B9
6604C
1C9E1
65A3E
7E2EC
03D5E
0C837
5DB20
211FB
5EB26
26767
5C691
19B84
686E3
7676A
0E78D
25CC1
11AC7
6A7EE
5BF27
6C064
13A80
6561F
6BE14
7D13E
13E95
7B465
793D8
68828
23F14
277F0
05744
57967
674FF
6C41E
0ABBA
6FFC7
1F49B
618A5
12E17
5AAC7
72496
69EBC
09F57
5BE6B
19B9E
1C048
115FE
205BA
1F1A5
0F3D6
76D35
09AA8
5782D
59C59
0B219
0E993
23479
6CF39
2981A
75B20
70E8B
7503F
1B899
203EC
02A08
7377E
148A4
02605
5A7BC
7FF15
61417
0BAC7
58211
1029B
028A7
6B617
5B3A5
25E46
0B58C
17633
0D9CF
7BEA7
004E9
27011
5F17B
57FC8
0F1E1
0DCF3
5D9BE
646EF
594D8
1432C
13F9F
1D974
0AA7B
61822
1951C
09D4A
669B5
6FF27
69F5D
71BA9
02BEB
5E3F1
025B5
211D6
033FE
64A5E
6AA17
18786
010A7
0A316
68553
79629
0A190
696E0
09CA0
0D4D2
28FA0
2199F
62E66
05E2B
1C061
76D79
6853F
03388
6DD3A
7960D
59EF6
09180
224F8
5AC9F
7254F
1F467
05C35
046B0
01EAA
1E7C0
66774
7EF03
7E268
66739
2415E
08ABE
7C5BC
0BA11
1DCBA
1695B
58E46
11A68
035A8
24D37
06186
7F40D
61794
1A28A
1491F
08298
08549
5805C
5E181
7E84B
0F555
63EE4
00D05
79E83
00F20
6D5CB
29DDB
23890
0FB61
66DC3
2A54A
761CB
64C74
1EF4C
1B949
219C9
10FDE
276F5
5EBD9
1A00F
28BED
115F0
2494D
5A7AE
7EDF1
63021
55FAF
26D0B
55103
659A4
65515
13C47
019F4
015B2
0D461
0211D
0B598
60254
17A55
15087
64F9B
63D97
60CA7
24689
61531
008DC
6F2D4
02A45
14B63
19181
273D9
295CD
033AB
61D60
58743
6CB72
5AEBE
78759
0F6D4
1A447
72D25
5B63D
066C1
27427
17A13
064BD
59492
10CBE
08833
22BDB
622AE
209B8
199C4
04E95
028EF
13E8C
0CB98
7AD62
6573A
69472
78A6B
6E53E
008D4
1AA5B
7CEB1
76713
7653B
67353
5AD89
6424F
72029
71F8F
1D438
7A60D
293A1
1C067
76E70
66F02
6C17B
781AD
24A2C
12459
2695A
6B2DB
1BB9C
04B17
28E72
0369F
621A8
55B02
0AC6B
19684
19197
6E582
66082
02B2A
0B094
00540
6DFA8
72150
1F61B
22E94
121D8
58704
6A531
7440A
654CA
2BBA3
22E7C
5E7AB
61E67
0CA65
6AAB7
5C6C2
2092A
5FA3D
05028
18E7A
6CF03
19F51
097B2
24510
216CD
27DC0
04047
62959
6BBEE
5F02F
6CF53
25778
0ED62
58A44
1CF29
5DEA9
57284
0AE2C
5EC9E
5B6EC
5F346
2AAE6
58AF1
04F01
2A22F
7340D
583C8
553A8
02446
0A974
13AA4
578B0
73B8F
7A765
72859
684DE
0867D
07BC2
07D1A
26A31
7065C
6B94A
1E263
615DE
1FA4D
2B1D6
5B390
70C1A
28C58
2AF7E
5D14A
5D0FA
5B69F
224A3
16DDA
1B689
0C1E5
25D04
6B5F4
796F7
19B3A
654C6
62541
11559
5BCBF
1D292
1EF9A
5E2AE
6937D
6E11A
69C26
0BAC0
00E74
295CD
1FC49
23FED
185EF
0FCAF
14AC2
64E70
1DC0D
7E573
6847D
1B1C6
71E21
7766C
151B3
2404D
1F802
0D281
6D741
5AFB8
71A43
7ACEC
5C4E0
1DA46
597DB
06510
0AC65
62060
78D58
103CF
66185
1699D
7F3A6
155F8
1A50F
545B2
765A1
094A9
094D0
70D55
7C5EF
27EBE
7AEFB
60E1E
7D473
5B46D
0ECD6
0E1FF
061C7
0B426
06885
273A3
061F2
07769
6EEB4
54FA1
13482
29EE3
73CE3
24571
0E319
685F8
73D4F
0BCCE
6214C
6E300
7E2CD
113FA
0BF5C
1490D
76CB8
12C2B
5CE34
16866
6C4ED
772F5
60A41
6E3F5
7A979
60432
21E5A
03821
2078D
05AEE
02784
625EC
755A3
69F49
66C1E
018A0
7C2FB
5F9D6
6D99A
1C0D9
5B00A
5635E
0C03C
0D48A
749A8
0AF8A
6C03F
1E220
03133
76C94
202BC
0A5FD
6E3B5
27E14
0812D
68976
29C35
6DC39
708BA
5FD66
610A4
20E08
57AFA
7B765
0F40F
062F9
13511
607B7
041C3
174F9
2B5F6
705D6
2542E
77543
63566
5E2D1
5EE9A
11F90
165AD
1DFC5
15420
2AA2E
18890
57CE4
255BC
78412
0939B
7B881
127B0
590E2
77474
21C6F
570CE
73A00
16E46
19CC8
6B267
16104
56EDA
2B6A5
73219
6D80F
07AD6
0C496
1BC1A
148B4
13432
12E8D
1CCA2
7514F
05FED
1EF6B
683BE
6BA02
63684
0420C
6A223
2321E
6E3B9
6EC40
5C80E
6A8C1
580CC
28311
1DA6A
6F844
5BC92
04E5D
17267
5F689
22FF5
5769B
60EB9
19F33
665B7
2367E
7EBFB
295A3
64B9A
25897
10BBA
1936D
58C4D
0DA7B
54314
088EC
5CE1C
57026
72413
1F722
7589B
70E10
5CC69
5B65E
658D6
7EA20
205B4
7FA8A
20B2F
7C84B
71A52
12D9B
13FF5
13388
7F53C
7E611
6E44D
6E679
65E3A
74342
0ACCA
7EBC6
62534
74051
625A2
1A5B8
5746D
2A1B2
267EC
56E3C
6FB64
15D80
17F8D
5B843
795E9
69AFA
7F28F
5BA51
1A67C
547B7
79BC8
7BA77
09715
0AE96
18841
6844E
1B816
0AF1D
162EE
269B8
732B4
19655
0461F
08879
08659
046E7
1F6B7
29B0C
66EB8
5AB73
6FC9E
560EC
75BB2
7E912
2BCA3
7C697
15FA6
6203B
644AF
20765
6A083
27F63
03729
1D219
7FF42
032D7
0C86D
549C0
26A4B
633B6
23C8C
70E5C
75767
737A9
780AD
68F6C
59393
0F40B
72EC7
5C5EE
7D206
111F2
65915
73F5C
12474
7B540
63962
565E6
75E26
21231
1013E
0FAAA
74021
5E439
167AA
1F9CB
6EC70
64A5E
0CAFC
0CC40
58607
0F6CD
00730
786ED
0B544
68455
2306B
272F4
0C6A5
12630
5F508
69DAB
6E543
079B5
71BE8
64064
11603
667FC
577C9
7D12C
604B9
6C189
607BE
57CB5
6B898
05C72
0CB43
0FB44
6FD9B
09AE9
0CAB2
0B032
282BB
7F296
14AD9
7103D
78DE7
0B4B2
209E1
73CC1
7C1F4
7150C
1FF0F
57EDD
72D43
258A6
15895
1CC20
59552
1CC2E
17520
273B9
70F7A
23E76
70D54
63DB7
65D35
7DF3C
24330
6E13B
7AC12
2541E
25D4E
64248
74E3E
1ED02
7DA07
0ACB3
6AE37
189DB
28FD9
69BF2
5EFF2
0649F
09A5C
6AA9A
7D56D
1EF8D
055B8
20027
058A6
18742
10B0D
07949
63BC4
68A96
04959
5CFEB
72815
5E518
19283
59C19
03F3F
2AB5C
74A63
68E62
1495A
0BA0D
16F8D
7C019
0A7DE
00279
077F2
0E4EC
13B90
276E0
69C78
65A04
164E2
6B37E
1058A
66FF3
7BFDE
6ABCF
0EBD3
013F4
54DFC
6A5BF
124F8
25A27
2A5A5
24610
29668
7CB13
67985
1B6DD
5A5F4
0A524
54D62
240BC
1C484
58D76
245FE
02D77
2103C
1B85F
2A8DD
16C8B
6BC0D
7E671
76696
09D5E
7F8E5
7C552
54BF4
69523
6E62F
06068
6D08B
57CCD
16812
13500
72935
5E419
0613B
64AA3
6D0E9
1A53E
255B7
272BB
25E54
0F47F
5BC90
1194A
6BDF5
765B7
0FD8C
2A973
20FEE
08BD0
7F68C
5CC91
6235E
781B1
6933F
55281
75ACE
7363B
7B63F
148B7
5A642
0A7E6
7B7D0
58A57
6F8CC
2654D
0BA49
1F1B0
58D06
03B6C
11173
1EADB
1F616
1E725
04E65
0A129
71AE7
77D12
613BD
249E9
7E959
7EF0C
6CC10
78CE2
73C86
787C2
7B3ED
5ABEC
194E2
5E606
11036
26C49
65E38
0553D
7D81B
20A4E
246DF
19D59
082F5
6CFD1
6DD94
6FE01
686D1
07AF7
17A61
6A923
5CA79
1752E
7BC98
2A764
7F9A4
72E19
5DB90
682E5
6B175
0A211
26576
05741
04AAA
28AF8
1D7D7
25873
1AC75
05280
0A064
6FF2D
285F1
79965
01790
607D3
1D154
7C306
02718
15A1F
7E16D
2BD30
612AB
692D9
1D9B4
16CEC
6F5F3
580F4
25B38
6A02F
11CF4
59D3F
64A1C
619A8
25C00
557B0
0E90D
1B71A
1A3D9
56D6B
7F157
15217
6BCA2
5622C
6A460
7D242
6F27E
00369
09DDC
55DB9
5F1BC
01A4B
68491
6409F
08D44
76D7C
1C6AF
13FD7
2AC48
7EE00
14DFC
0C896
6AC08
29409
6340B
1D65C
67A76
1B238
1EE9A
237E1
0D56E
00FA0
5E543
03B29
1D2D9
6020A
7FAD1
72AC9
28C76
296F9
6D6F8
269FE
0F448
7EA34
07836
0137E
273AB
726D5
1E85D
62166
0703A
66C86
6F9DE
6EFAF
6BDF3
2591A
067DB
5E393
12DA3
04632
6BACB
6F54F
2971B
7B058
75DFD
10813
2B086
2BBA9
72D45
542E6
0CC60
5B9E8
775CF
61145
78A99
6656D
75111
11D47
24A90
0D913
735C4
00CD0
76685
2046D
7100E
76C4B
59A9F
21A1B
796C6
5959A
2A3C6
6C248
15A42
6E098
6F950
7A63E
0E0F2
15AC8
115C3
7AEBA
74E6F
7BA20
5636F
1A96E
5AF2A
6F88D
01B5B
05A76
02A26
58678
22097
158F4
6C33D
243CF
63E87
21F13
06247
24483
23E12
5C8A3
20EFF
6CFF7
7D113
1E002
60E2D
0B4A5
28E2C
2B3DD
68902
298ED
079C3
17B0F
1540E
0B055
60024
280EF
6D882
76626
26E0E
6EDC7
587D9
13E4A
681F9
04BF6
7740B
58155
76163
1BF14
2379B
628F8
0EA04
7995E
6DC11
0C505
7EAC4
57B5D
09599
0CA2F
130E6
6A1AC
7423C
7131E
13494
1FFA1
12A5D
7B561
74DCB
67350
12068
11E4D
210E0
5FAFC
10975
7DF22
7DC4D
602D3
6C5C1
78BEF
05095
05A13
5EDCA
5FD64
627D4
1BCC2
0025F
0534E
5BFDE
05288
256B0
62425
074B4
1BA33
17173
69E68
5B870
5F0C5
17555
16839
039AE
6C98E
66C7D
7533D
0A60C
0E511
12CA1
595E2
5FCD8
790F6
25FA3
5BEE1
20DAC
101F7
2105E
60CDF
035CE
70A55
04D4E
7FE17
6C80F
1BA6A
05FFA
28BE4
2A21E
11001
0F899
677FB
2BBF1
6DEE7
0F37B
2451E
62976
256FA
01B49
02EB2
5554A
0CB9C
7D6E7
6D92D
20BE4
556A2
299AB
04752
114DA
56AC8
2253C
1A5ED
16A9F
27937
61DE1
576F3
6A9AD
28F97
6FEEB
18C63
18831
188E7
67250
65301
7394C
7F19E
678E6
231B4
06A85
0D975
0904C
0C926
1320A
7FFB0
7F67B
0584B
7F838
68616
72364
77A1F
6B779
0A9E6
5C38C
6021D
0CF41
0304F
5B127
1C626
22B1F
759C2
18F31
0978F
69F13
5EF1B
15082
70430
24217
02A32
61EA6
07CAF
712AD
57464
20AA9
1D952
677A1
73669
20655
62AD0
084C9
094A4
6B22C
73E11
153AF
2786D
5ADB6
084AD
093C6
5FB5D
1EE8F
0BE6D
622AB
79816
13732
6EEDD
08DFD
280D2
0D909
5DA19
1E1A5
1DDF0
1FEA3
269BF
154EF
70E83
6C4C8
59252
0FDB4
569D5
1638A
5A339
07DB7
1B29F
5A528
545AA
1637B
66220
5A693
0F78D
20385
78B52
0C237
74B35
0D0A8
11922
17C2E
7FBD9
2B8FB
5EC86
65BDB
29228
642B0
0B387
252FA
1F078
1EC98
29B48
175C0
7FFCD
63ED4
0D483
185DE
08563
02B6A
557D2
125F2
58A27
664CB
6391E
1E739
25EB4
1D595
06894
7291B
79F67
7E252
668F2
20F7E
2495A
71B53
553E0
1F886
10564
1E2FD
5E624
60DE3
0B98F
0BDA5
11F5F
5CC76
14E24
5D92F
05972
79B18
698D7
7E508
7D31F
276E7
02EBE
704F2
79472
0F081
5F07A
5830C
06964
209A2
06D3F
74434
6A61C
0D96E
62979
6D3A0
0C34B
111F2
0D762
0ADFA
0C403
1B6D2
0EBED
0BAD6
26782
6AAA0
0A063
7212E
191E3
0EB3F
76EFD
0F9FC
5B974
5829C
049C5
090BE
7886B
71D16
59E76
2B89E
79607
6DE73
71CE4
79EC9
79AF8
63A29
70A82
5C5C9
7BB02
25832
256EA
06F30
0EE2A
697C1
02935
2AD35
6CCC1
6C0BF
070D0
0F92F
6A160
1D587
577A7
0E64B
129D8
7835A
16AED
029E1
20243
1549C
590B5
2BCD7
0443E
6580F
7A0D4
084F5
56F6A
5A184
62521
20310
22AB1
5D47E
61592
7516D
1FA25
77874
73493
7E20F
15DAD
088EA
0A900
5D91E
04DD7
07460
6DEE6
7B962
2BA37
78BE1
760DF
6C961
75B8D
6A615
105E1
7F63C
5D820
0786D
09947
0D274
26EBC
5A801
5F742
5CE39
7A917
15DC8
0DE83
65231
7E456
74C0F
71529
5E17B
2BCBF
7CAA5
7B009
14EB1
0F1E8
62F46
17E67
610AF
01A60
7EFB8
192BB
54E64
6A691
7AA68
7FDF0
12F34
59880
74BD8
5AEC2
66B05
6927E
0F0D9
72360
579D9
034E9
22FB4
03F62
7686D
15DA9
632A2
6DB99
0E62D
1E5F0
0187E
245D3
70DD0
10830
560EB
01910
19949
1535B
15911
6CE58
599DC
145B0
0CAD8
126FB
0F942
6ED4C
1409D
227B0
267CD
68B61
6EDB7
16832
7B794
1F752
6742B
6AF2E
0CA2F
03D31
1FE90
541D9
61817
7D20C
5EEFC
5813E
6D8DE
59D3A
7185A
701AD
6E637
5C90B
6DBF0
1068D
55630
76A4A
5C59D
2A5A9
197B9
7BA07
28872
14F7B
0EB33
1A2EA
0A721
78923
1F9C0
7DC1D
27000
711A3
217F7
10FCD
28C86
62D57
62022
0FE69
1FA6E
5501C
12CAE
17429
2B662
79DAD
7BE6D
1BBC7
7D89A
03DBE
724E4
1EAEC
17DB5
571AB
69825
67240
6548E
78698
5691A
64BDA
0921A
7272F
56E43
548A4
1C939
5B6CE
06807
10162
1F0C0
57F1C
60284
684F0
76784
64D87
05C87
1C436
5B8B9
7BE04
0A3FD
5AE84
0315C
1A8C1
54858
6E684
5F031
1EBA3
70776
0F6CB
65B30
74378
704F1
658D1
61753
1FA51
1D383
78315
72F10
698DE
7594C
23A11
0C35C
7DC2B
7AD1D
7CE1F
6B4C2
29097
6A6F0
1C5C2
7248F
634D9
5879A
23EF0
2A4C9
5A87C
1B21C
1AF16
13DCC
77EF7
299B8
0B423
5D39D
08129
671C1
24F69
04857
71AD2
001D4
0233B
1934A
03421
559DD
28589
56DF5
139DE
269AA
1926E
7B684
73648
6A016
1892C
0E1E3
0E057
03655
758C6
12D6E
7372A
10D43
25645
580D0
5F886
7F45A
7CA1A
5AD77
62F65
682D6
2A721
0A7A9
16CC7
60486
0277D
09021
0EEF5
16B9B
6C62E
1313C
23328
7210E
1BA2C
16289
5D0E3
1D08E
7273D
582B5
5E41C
5CD67
19C70
7C04F
64E61
61C04
670DE
06C4E
0F5AF
08371
048E6
62345
224C4
0D955
0063F
7A388
22CE2
71402
1C768
188CE
5EEA4
61119
22762
1C8DC
0BF10
0FB63
25F20
27EAA
6FD75
0079F
08D73
25F3D
20889
6574B
0646F
5BB1E
2B7BF
77289
648A6
09E60
19C2B
67FCA
01F3E
00926
00D2C
6B33A
2070A
5D51A
77DB3
61F50
20AE2
1B54B
0EC28
6C385
1458B
1C4E8
0CF1B
665A9
6550A
20007
70D21
06F3C
0E019
7AB77
2542B
75C68
56DF6
24D02
5A040
1CE94
54886
7C49B
0FF90
226CB
1FB97
04C8E
2567B
77596
7C19B
2A34E
79288
192D3
063D0
57A97
241A8
6635D
0A959
0D9D9
77B00
77710
2B0BD
27AC1
5AB34
18AFF
5A933
67298
1DAC2
7DAEF
2197D
05D84
0B08C
06646
5B358
5CEC8
28289
22338
27197
5C217
12157
03392
6BFC9
7DC1F
11D56
29F56
05BEF
2AA38
04FB7
20888
7D0A6
1A999
687EA
1E492
0F43E
5B2A6
7A7FE
6667D
14855
5E25B
1E8E1
7C077
7B401
1A02E
1DBD5
07D99
00ADF
73D83
7DBF0
2569C
75398
02E56
6DC7D
2B4FB
06EC6
259E1
76E75
7C08F
021C7
7E3FE
0955B
6AFAE
12B9F
16740
1BDDC
00E75
27030
03093
78960
1A364
7450A
10A26
12B50
70DF5
16A00
1A4E3
022E1
14B1C
192E0
078DF
7ABDC
1A89C
6EC33
13CCA
76E8F
61932
20C3B
05983
5749B
58F2F
0473F
0C2AF
1563D
2205F
5CDE5
0DEB2
6C5BF
15EBA
19958
5F8F2
620E7
15DA5
60FCB
290DF
76258
08EEA
5AF2B
7C2BB
16DCB
03165
56CE9
5C00C
70634
57112
2AA99
5D669
5AB8C
61647
553C8
70980
5B16F
66B38
7146B
153ED
64082
5B341
27FFC
7AB76
15B35
1BF11
2171B
78243
64397
65FA9
0A9ED
6DB15
57B23
226E3
7F8A2
74D1D
7C475
0FC12
57866
15DE8
74ACC
28376
02C42
2405E
6F3A9
5734E
604C0
62586
72A65
272F4
5FE0A
0A324
043F3
0977D
05E4E
7C82C
56394
5B12B
68E84
115AA
215D8
25AD3
714FA
0C817
7584E
2848E
0CA5D
5DC66
7A7EE
0608B
044F4
6B305
245D9
07AE1
59BD0
19BF6
62CF4
56BB3
5F966
0AB88
5574B
7F81B
64C15
6EEAB
57DF4
65E05
5E06C
02318
73765
6AFE4
23477
0F88F
049A8
084C5
172F6
62C4B
69494
27FE8
74692
75D40
7D39B
0149C
55444
70ABE
7C267
6D8CB
75AC5
21D56
5AFA9
75C48
268FF
60D6B
05363
70AB1
20CC9
549CA
5F696
7F4D2
09DFD
78C2B
1E7D6
61DC2
1DDE5
2B9C5
77A02
1F61C
1852B
001A4
6D065
66CAE
73F5F
103C5
13047
60DAE
21AD4
0CFD3
0A4FC
2361D
62FFF
5CE8A
25680
6B30D
7A025
01FA8
0BB4B
295F0
0864C
1040F
2AD6F
16D72
5DD75
7540B
07C5B
1E877
56432
56EFB
1C7C4
764A3
0B073
571B6
58757
7B3EF
299C8
69A93
6324E
10498
560C4
67EC7
5DC56
6FD6E
00E66
26C7C
593C3
29542
6E8C2
725BC
1F833
668D3
61D86
0B74E
08F5A
11B84
28A77
71F53
7A371
764D4
22956
58158
02530
58851
6E54E
295B7
29DC2
1F302
18881
26FAE
20A95
27CA7
6160C
28012
06C9A
6025A
7ABC9
78201
700BC
7566A
6446F
6E87A
08E3B
0C509
21E0F
19597
6717D
198FB
1D771
25212
0B220
0255C
0B0D5
06150
0CBF7
2970F
653C1
1E3AF
2B998
5AE5D
65A13
0B08A
5EA73
76F82
27AFB
2B6E9
6A7E0
0DB1F
79235
7B4FF
08C0A
6A052
1D45C
7A1B8
0D372
06116
0FAC2
67E36
1FC77
0FDBF
2263D
7ACBD
1404A
09478
0C6E5
27B8E
2955F
11FBC
18253
65F43
745CF
07526
7A70B
54747
58A73
68B27
23498
0EAA3
17673
0144E
0C00C
793A0
050EE
22BCE
631F0
10E69
1D873
15E40
64725
26EFE
5A435
79C27
00B97
653D8
78039
067E1
6DC9F
792B6
232B4
7EC4D
0A0A6
23B13
15ABD
16C8C
04E6E
19035
7E505
67D5A
08FD7
2AA9A
11E1F
639BB
175E7
27002
575E3
5DBB0
26C8E
0090D
175AB
58EC0
7C0EB
098C4
6EAB0
29FC6
1E928
71235
09873
6AC36
1F502
20595
6582A
28ECE
6B54C
0B309
21DE0
73641
565CE
20514
7E278
00636
183BA
5BCF7
0AA73
1F7DA
67EEA
554DD
001CE
2B5B1
0BA34
627BB
04AA1
6BB2E
20EEA
5CAED
19878
07B15
07F5F
64222
0090F
72C83
674F5
559F9
5C919
62001
0EEDF
1BD88
650E9
57D9A
5A7BD
159DE
0DFE8
7F86A
1E749
7ED0F
08C33
60302
0642A
0D8B5
25989
62D8D
68DAD
1FCB2
05E55
02069
70CDA
791D5
19C6C
1A692
03AA1
5F5E5
074F9
2B86B
7AE46
0DED2
0C18A
7F3FC
64DAB
17089
16496
7489C
5A994
2A7CF
7B6BB
198A4
5CF33
6AD56
06CF3
182FC
7FACE
78E43
79BDC
201B3
0E4B7
17605
5C7A4
784F3
7C79A
57702
700B6
7CEE1
289BD
7E57C
09986
1DE95
17B98
062FF
5FFD7
72231
1A2B2
7E236
7B0CB
6A969
280DC
7447E
0BC8E
26ED5
299F3
71BF6
25913
10007
1458F
21B2B
22903
10F94
1F580
57D42
17044
733EC
5DF33
2A8D5
12D4B
7E5FD
0D6A0
1757C
1414B
0FA1F
65C35
78CD0
70482
7359F
5EFAB
5C99B
0C8D8
20709
72D37
094D5
1BB0E
591A1
561A1
02E92
6B7E3
5DEDE
0F68F
5E1C2
6079A
0AE1B
56E50
5EDF9
56627
166E1
015E7
2714A
72BDC
12C8E
0EC93
5DAFD
000C4
587F2
7394A
21724
147DC
09A21
005B1
57AA6
76243
1EF61
1F879
56DA8
0910D
190BD
5782F
0ADA0
27674
262C7
05651
1F9D5
6ED3F
18581
2A04D
2B7E4
7BE15
6839F
747D2
237C5
13DE0
2104A
1A175
05518
0C3AF
2BC23
25AAA
78D76
2BCA9
6E787
6D4CE
02393
61662
1D376
56A17
0873A
1D5D5
60A87
5DAB7
75D34
02428
69A30
29EBD
69E9E
06D54
149A8
743BA
7E99B
0CDA3
1EFFB
1CEA3
61252
293BF
204F0
56714
0BF55
2B5E3
1DD72
68A84
6E9E7
5AE19
2518C
2A480
62BE7
5D8AE
7C1E5
56B7A
08C7B
1AB19
6EBE7
5C0FE
61C7A
1EA0C
1941D
0A7E1
71E9C
68C69
7C6FD
0F44B
1C011
15D7D
627AA
6A996
2A06A
6483A
5E3BD
67972
7E0D7
70868
66EA4
5E0E8
56C40
69C3B
65176
095E4
117FF
1602F
5B89E
5FD87
6F7F3
1680C
6217D
05769
6A6E0
6F0B9
22695
741C2
5974B
76933
0F6B2
74433
21A6C
6CBDB
7A924
78B1B
0BDE0
578BB
56700
1856A
6DA87
5ADBD
255B8
06FAE
7C0CA
0E2ED
115F3
098CE
0522D
12B68
05AF9
6AC16
5D947
223E3
64A7D
237C9
29166
61F88
71D31
7E2C7
19804
5B163
217DA
1D6A0
6812C
61589
20064
27029
02EEC
59B88
578EB
7E41C
778B4
236EB
0CB3E
61E76
76F1B
07C52
0DE27
5825B
6EC3F
028B1
0431F
6F076
00236
567DF
73674
6B239
6A7A6
58F45
1B7A5
1CB11
1019B
22B2F
7D8E2
65862
5676E
7B4D9
69BFF
612DC
77D46
1C7DB
6DEB4
09CCC
75158
17F7F
58198
22F85
59BE0
060BD
76B3A
61459
1C4E5
63B40
545AF
188C5
17A6D
6725F
6F89A
7CA34
69F47
70977
134DB
710A1
7D3A3
55171
2B6CD
0CC3D
6D963
596E0
6722A
7AD7A
5D871
567E8
797D9
57BE8
09765
1B789
16063
1F6E1
71CF7
06D4A
07B37
07C83
747D8
5438F
01BA6
5FD57
599A6
54EF7
5B571
72E82
2865E
19969
65A3B
1ABCB
748DE
5D1AC
1CD9B
24BCB
6B627
5F37D
050DE
6834B
595A9
05300
779C1
6544D
29DDA
12D69
6AB12
0971E
0CAD2
65B21
04E52
68079
05B84
745DB
27078
7125F
0CB47
655B5
59C5C
293D4
5B9EE
1CA36
061B7
1B923
193C2
5DE1B
0495E
5F056
05D00
08CD6
747AF
221AD
058FB
787DA
230D0
25167
24F6C
61E3C
11FB9
087BD
6FAE6
653F3
67F4E
74CB3
15440
26305
61B0C
1FF61
1D7CA
5780E
78C81
782A1
14B1A
663C9
13D53
1C5B2
2137F
29C5D
5C0B0
6EDB0
60B1D
05C02
14DCD
0324D
5B577
06BB6
67B97
116FD
079FC
6646B
66BCA
1EC82
76B6D
6A357
16A5F
0C62D
70430
14F1D
21B54
097DF
7A9BB
59AE8
064C7
56797
6097F
1AAF4
7A034
2AE97
595F7
70DBF
565BA
7C965
216F3
1310D
5CE59
5BA8D
70EAF
1D8F0
0893A
1F143
28F46
011D7
171AF
58DA3
2A60C
202C0
24AC9
55A27
2AF82
65531
67A2D
5743D
23EEE
01A9D
14FBF
17E34
55EE6
242CF
56420
18EFD
54A0E
00672
6F8BC
57453
716B3
26042
1D7CD
665D4
742DF
5E6E5
1B30B
26E2C
1E54C
0A86E
2B809
104BC
57160
0B4A4
280CD
20315
7E803
7AD0D
7953E
1B6EA
27855
009E1
0FF1F
729E9
05193
72378
02EA6
248BA
0F991
5D286
7D999
1F519
594EB
1AB9F
6377A
7F85C
71026
08D69
09FF7
5B889
04597
7A631
54E9C
03B97
7A91A
0977F
16649
77437
7C38F
5DA03
6D72E
656FE
2283B
6EAD1
641C7
62899
66331
18CF3
1277F
20C82
6C96E
61E68
22B28
1605F
2A665
110CC
1C3C9
69001
25E59
6F53F
641D3
78158
19AB6
5A7C2
5C2C1
6F96D
17905
54446
69E29
16199
29AEB
21CC4
6C1D9
6CB23
622E1
7684B
0D0F4
622E6
775FE
288CF
7E71F
13AE8
74A39
19F5B
25013
2330C
15559
0458E
73A13
1743A
294DA
20044
24A11
71295
7CE46
5A078
2A5CC
6AD44
1BE5B

