20AE3
53F4C
28EF8
5D6EE
52572
04BC4
0063C
2C661
11B86
2CBE5
58891
24EA7
2A4DB
15FE1
7642E
07E56
2513C
0A0A5
1CDDB
316F6
52454
6ED23
62E94
6D39B
4FD87
52C53
6DEEA
7F032
57B6C
6FB14
02536
6BB2C
27E60
1F887
342E5
10A92
590AF
5FB95
10A60
1B539
1A80C
77396
2EDEB
28CE0
2B9CB
67A74
5DF52
50881
32FFD
4FCD0
63A51
4C1EF
0A84A
660C7
7B740
61B98
59BB6
0B830
1516F
07428
66B60
55AC3
30782
61E58
2E727
50E42
288F4
64230
7A237
597BF
2C7FA
6FC38
33145
2419C
1C18E
69A6A
7CDE1
23682
1D056
70FB6
1A340
745F0
7167C
4C3DE
5E005
337C4
66659
6E526
1276C
534DF
51B2C
303DF
7CAAE
0F530
300BD
25298
5BDE0
7BB94
1AFDF
66670
214BB
69244
2AB76
12CB7
08D3E
214FA
1E782
7B07E
5C30F
673B9
15BB4
68544
69B1F
22286
10BE0
63692
7C1B9
1A7F9
780F7
6669A
2E89C
65B30
102D8
176C4
1FB4F
122CD
7DEF1
26DA5

