28066
4A0EB
3222C
55AA2
48141
05CCB
007A4
36609
15B3F
36CCA
4FAA8
2D367
33CFA
1AEF5
74129
09ABB
2D690
0C4C0
235A8
3C8B9
47FE4
6AF5C
5C5F9
69017
4505F
489AF
69DF2
7ECA4
4EA8F
6C071
02D93
6722C
30DD9
269EC
3FE89
1467A
50499
58785
1463E
2177C
2075A
75408
39676
31F9B
3569F
622E6
564E8
45DD0
3E761
44F7E
5D45B
40762
0CE1D
60376
7A6E6
5AEBA
5121A
0E196
19D45
08E43
61070
4C28F
3B5CD
5B219
38E2C
464DC
31ACD
5DDFE
78D23
50D3F
367FE
6C1D5
3E8F2
2C36D
22696
64A0C
7C29E
2B5D4
238B2
6D9B4
20179
71C1F
6E201
409C0
565C3
3F0E7
60A48
6A594
169D1
49426
474AC
3B15A
7BEB3
12C4B
3AD82
2D83A
53BF2
7AC33
210EF
60A65
28C76
64011
34511
1704C
0ACFC
28CC3
25512
79E9F
5424B
61AAA
1A9D9
63026
64AEB
29D5B
14814
5CFC3
7B3BA
20742
7646A
60A98
38FF6
5FC9D
13D05
1CAFE
26D53
16428
7D783
2F95B
0074E
31235
70A09
1FE15
33F04
73D17
6843D
122E5
3BFED
6620F
4799D
35978
63A62
51A0A
01F4B
37AD4
2D44B
7F557
58CDF
41252
6CC03
076DD
58499
12513
6026C
7E6ED
7C6AE
61B30
79FBC
0A521
002EF
0368D
4A202
79855
0AE4E
6D95A
39678
60773
1C305
4DEB6
1EF39
4407C
7F7DA
43A50
7BB73
0E794
0EAD7
09A98
32FF1
46B10
561E7
12C84
7BEBD
06D0E
599B6
11B35
1C628
5BD25
758E8
28F59
485A0
3CD49
30C57
55FAA
59EBB
017F6
031B8
61758
61546
02FE4
35DA3
11DDF
6E8A0
226C7
4232D
06207
6316A
6A4A6
0596A
3A7FC
56965
26511
58B86
20457
5B085
2DF2D
67EBE
5810C
38220
4D179
552DA
48F16
16A3F
041CE
61647
4D9F3
5780F
2B9FB
46D61
28D53
6AA68
5DAAD
45960
1A342
429FC
0D505
15789
2D3D6
6FD6A
23C90
10DE2
20551
61EBB
2E429
31F41
19A8C
3DE2A
44A9B
2E196
0F8B4
6F6EA
0C3D9
01DE3
13263
2FCE6
13C62
24F80
04393
7785C
20397
75CF2
66C16
5F4E8
199A3
1E430
51E54
5871B
53B9B
2B925
75BA1
4D0A8
2CD83
1B7F9
04880
12E6E
0C044
36DE9
3352A
2D3E3
3EBE4
2588A
316D4
5F1FF
5DCD2
23423
5DA31
11038
569E6
30043
14D82
105F5
2B13A
2D8F4
0386C
68966
19A4D
1FD95
6F4BE
2C1F6
6F05C
60E9F
25685
73674
04E07
16A75
17D6F
49238
26527
2144B
69F94
58141
4D930
72F2B
26988
4B341
30E74
70C57
29868
0E11D
53A60
12F3D
3C197
2F732
7AF21
238EC
7D68F
41A09
493F6
4A6FD
6B573
79814
5DCBF
743CD
50C60
1A242
7D099
61276
77E72
29496
40CA0
0A981
452D4
5FD27
05C92
2BD93
55B74
109A8
553C6
3E59D
50AD8
3645F
4C447
7F052
1CB3C
6EF67
2F274
1AAF6
5121A
4F279
40AF1
4860C
56F27
7E43F
58569
0419C
67F52
3C282
66710
3CF3B
6804F
3908B
45211
5DBCE
06D46
3758A
66CCA
0A8A5
09041
7F3E7
6EE13
56BE4
40136
462F3
0C580
79B37
44C2C
50EFD
6DBE5
7ADEC
60651
4094E
70DA5
476C9
642E1
0E124
428F5
1F0D9
0DB12
2DDD8
1A861
27B3A
40AD5
6A11E
2D713
1EA76
2AF0C
6ABA5
6B5F1
7E85D
5A830
3DDAD
71014
4F381
22701
45AF2
56FE4
56BD3
65AAA
0FB3B
3F8B3
45A54
053F4
783B1
3DC12
1B6BF
7AE64
69789
7210A
1B10F
03173
5E732
45797
193DB
351DD
33D79
42629
1C614
1E15B
4C434
2D155
1BA46
4AA87
6B420
6D55C
0A281
3C6FD
19E50
61840
46F30
39023
7B0CB
50F26
29C51
79EE5
26703
11179
44C68
186BF
3ACEF
34B95
09368
2FAB1
66615
2E99D
79FF6
2BE83
6096B
55D02
7E366
43A9B
1FE6A
6FB79
34C1E
17664
421A6
19181
7F830
1148A
47403
53FEF
455D2
3948F
42098
5FBEA
3B55A
4AF06
7F799
7734F
30795
5A0A4
2D186
3C417
7AF1F
62AA1
4B260
5E8BE
4F1F6
7DED4
213FF
7A81B
41D28
5D7CA
6F9DF
1AD29
3987D
57C6B
63B80
5C3C1
2DBC4
5BA5D
67EE0
5DED5
2ED6C
1D772

