36D
2B7
F85
3A8
F40
375
088
07C
165
295
34A
ECE
3D9
D88
320
14D
F9E
1B4
E5C
315
172
CBF
FFA
F6C
ED2
CD2
0B9
1B7
C7D
EAC
F0D
3F4
D96
CEA
C42
1C0
E32
191
D2D
02D
CFD
C3E
DB5
335
F34
0E6
3EB
3A3
DC1
F1E
DF5
FEF
160
15D
2C9
1BD
F68
C54
C24
39A
065
D96
EFB
C06
D80
E8F
F48
EA9
2CA
BF6
E7E
D6C
E5F
155
D20
F77
CA8
025
073
DF5
C73
154
F3D
D01

