354
E0F
C0F
38D
C74
40A
E66
CAF
11C
257
155
DD8
15E
100
1C2
C5E
0E9
DE1
2A3
D06
008
C5C
F3D
3C9
17C
E0B
16D
26C
D66
D28
008
D4D
DC8
068
C3E
295
DD4
EB4
075
243
F5A
186
DFF
FC0
0D6
27D
F01
E1D
C80
02D
EF8
FAF
EE3
E8E
EB8
F2C
069
070
EEB
D30
2AD
224
C7E
F3A
24F
183
DB5
EB4
0CD
1C9
071
C36
25A
02F
1A7
C90
250
2C7
D27
39A
1F7
02B
09C
027

