0D6
3DA
CB7
D6B
CC5
22E
3B7
283
270
06B
CF5
F31
09B
181
EE3
3E1
F99
1BA
FA9
2EF
1C3
D55
23A
08D
C50
CEB
F66
E82
EA8
C4F
31E
142
F0E
13E
F35
DC6
D54
C79
0CD
D04
071
DF4
CAD
F45
F14
047
365
2BE
1A1
E0F
1C8
060
FB1
334
10D
34A
D70
ED5
038
31D
CDA
D15
F66
336
CA0
FAF
DFC
DB7
3CE
2B8
ED6
163
EE0
290
3FB
1BB
078
C17
D89
BFB
138
132
3A7
E23

