0DC
19F
211
2C6
D4D
252
34C
32B
3FC
FC3
EE7
251
36D
2F1
0FE
060
374
2D8
C92
0C1
DD5
1E0
0F4
D41
22B
2E3
D80
FFA
CA6
C9F
246
C3B
D45
FCA
FDB
C5F
CA6
14D
2C0
39F
2EF
067
403
095
287
340
DF7
DD5
CA9
E96
C96
DBC
E31
256
D27
D18
C64
D34
099
086
C98
05F
37C
409
CAB
194
267
1D5
305
D67
373
0DC
0BC
3A1
2DF
E71
F62
387
ED0
F48
D12
EC1
D1B
120

