22A
323
D88
C34
403
0CD
CF9
C68
F99
DEA
242
F49
FBC
E2A
06C
0C5
E7B
059
354
DE1
FCA
0AA
C2C
DDA
1B8
169
2FE
FB8
0FB
DAA
CB7
E13
203
D08
FEE
C17
FFB
034
09A
04D
346
174
149
1EE
E65
F49
E23
BF8
ECF
2B4
10D
DD7
EA0
2FC
FA5
FED
1BD
D43
FD4
F13
DFD
DD1
F8D
C89
39E
408
F52
350
EC2
BF9
BFC
229
0F6
3B0
E44
FEC
0EB
EA0
00E
3E2
171
FA0
C3E
F3D

