336
226
EB4
F56
0E1
1EF
BF5
3F6
3D6
182
0A9
FD2
E95
DAA
10D
FBB
C34
34C
04D
D14
1CB
CCA
1E4
D59
EBB
378
1BB
2B4
C33
318
F7C
136
F07
DFB
165
D4E
FED
33D
207
03F
FF4
1AC
2CE
E69
CB1
D52
1A2
109
F59
FB3
C5C
F90
FED
C88
F9F
FED
EF4
1C8
3E3
C75
DD4
309
31C
CE4
E6B
BFC
3CA
308
3AC
E05
E90
CDB
027
C61
E51
3C7
02E
3EE
35D
DC0
C3F
328
223
048

