15F
719
684
36C
11B
42F
3E5
6E5
676
777
168
32C
0BF
2D2
480
49E
36E
5D9
0B7
36C
62F
195
628
328
7C9
1D0
2B0
090
500
0A0
0AA
499
2E6
397
54C
4B0
02D
7D9
1B4
279
789
037
3F1
1FC
6BE
249
501
247
478
1A0
3BB
02C
766
2C9
06C
13F
6CE
717
5DF
0EC
633
63A
3A2
49E
5E9
323
5BA
765
1D1
7EA
513
173
628
178
13E
308
391
354
03C
398
428
07F
3EF
5E1

