3E2019B1
BE57C526
3E488B11
BE295747
BE5FAF86
3CB996FB
3AF49492
3E598245
3DAD9F90
3E5B328B
BE4155D6
3E34D9C7
3E4F3E8A
3DD77AF6
BD3ED634
3D1ABB02
3E35A427
3D44C059
3E0D6A16
3E722E5E
BE6006D1
BDA851A8
BE0E8188
BDB7F413
BE6BE836
BE5D9408
BDB106EE
BB9ADC90
BE455C10
BD9FC760
3C364E05
BDC6E9FF
3E43764F
3E1A7B0B
3E7FA26A
3DA33D6C
BE3ED99D
BE1E1EB4
3DA31F04
3E05DF22
3E01D68C
BD2BF76A
3E659D99
3E47E6F7
3E55A7D2
BDEE8C8B
BE26C5D2
BE688BDB
3E79D841
BE6C204F
BE0AE925
BE7E275B
3D4E1D65
BDFE44FA
BCB23359
BE145176
BE3B7953
3D619653
3DCEA290
3D0E4324
BDF7C782
BE4F5C29
3E6D7343
BE1379B7
3E638B05
BE66C8F7
3E46B378
BE088052
BCE5B856
BE3CB03A
3E59FF93
BD9F151E
3E7A3CA7
3E30DB6A
3E09A5A9
BDDAF9EC
BC7587D7
3E2D7519
3E0E2C99
BD932592
3E005E5F
BD63E07A
BD8EFF5C
BE7D8FD6
BE268F08
3E7C3A00
BDFADB83
BDAD35A8
3DB4E8FB
BE5AF640
BE62D4D4
3E6C5693
BC8298CC
3D9625A7
3E6B60AF
3E360E95
BE310343
BCA799A2
3E043BF7
BDFACD5B
3E231DB4
BDDFF716
3E514446
3DB82667
3D2CFC83
3E2330D7
3E1544BB
BCC2C1B1
BE2F6D33
BDF2AAE3
3DD4ECA7
BDE7ECFF
BDDA8A40
3E2756C9
3DA40A6C
BE0C0F02
BC988B11
3E01D085
BD1B951C
BDFAB3AB
3E63FD93
BE00D888
3D9E82D8
3DE57F30
3E1B54E3
3DB2146A
BC21F080
3E3E56CD
3AE9D51B
3E448D7E
BD75F6FD
3DFF0AA2
3E4FC116
BD42E87D
BDBDE15D
3D9172EF
3E6FFB48
BDCEF805
BE6198AF
3E565E03
BDE2CECD
BE397D4A
3BFA58F7
3E5EB52D
3E3512EC
BB2A8651
BE1CC815
BE7B6B6E
BD99FE43
3CEDBB5A
BE1ED99D
3D9289DB
BDFEC99F
BBC892AB
BC654717
BDF267C7
BCC08744
3D252157
3A3BF50E
3C5A37EF
BE577F6B
BCCF54D2
3D2E4E27
BD9352A8
3E659E1F
BDFC4652
3DE182ED
BE485272
3DF79C84
BE6FE0CE
BB0259E2
BE716BDB
BC8919F0
3D679464
3D6AD70E
3D1A9867
3E4BFC65
BE653BD1
BE27863C
3D96427C
BC8285EC
3CDA1CAC
BE199243
3D8D9AD8
3DE31401
BE10B6B7
BD27179C
3E23D641
BE5E97D0
3E735265
3E4315D7
BE28155D
BE185122
3BBFB15B
3C46E2A8
BDF4538F
BDF55CD9
3C3F93FF
3E5768E0
3D8EEFA2
BD8BAF96
3E09B1FB
BE7734B5
3CC40F24
BDE74AFD
BDADACAC
3CB2D4D4
3E69FF0D
BE25A683
3E194467
BE1D1E54
3E0115DF
BE13DEA4
3E37CB71
BDC0A0F5
BE1FBCE4
3E60880E
BE4BA1B2
BE2B495A
BE5C3A43
3DB51F82
3C839CD8
BDF4DC66
BE49830E
BE21FC09
3E2E7EE9
BE64A7B5
3E2354C1
BDAACB86
BE0954A8
BE69A7C1
3DD1A112
BE7580C3
3D55054B
3DABC48F
3E34F590
BD814AD3
3E0F2410
3D86F156
3E015443
BDF0A244
3E390A78
3E47D06C
3DCD466F
3E778AB1
BE6D590C
3E386595
3D78B47C
BD848ADF
3D43D9A9
3BEF1BAC
3D9931CA
3E3F398F
3D9E310E
3E13E037
3C8726D0
BD07A398
3E00E5E6
BD230DB7
BDC9F490
BE02C5E3
3DCCD185
3DF21816
BE386AD3
BE1E392E
BE311905
3E2E496F
BD245E4E
BE4BD5DC
3E3360D0
3DDBFCEB
3C9101B0
3D973754
3D404428
3E5B7A5F
3E4D4AA1
3E34F8F9
3E7AF923
3E162281
3E45B531
BE038002
BE08CB4B
3E0D08D5
BE097397
3D881C2E
BE258644
3E4010C7
3DA6C11A
3D82FAD7
3E2C4EB5
3E363D3E
3C61B08A
BDBB4CC2
3DCD26FA
3DFECAAC
BD85A0BE
3E307D91
BD87D1BB
BDF8B04B
3E15A145
BD498B2F
3C9C0EBF
3DB53AC5
3DBEB7CC
BE5B71FC
3E1949E9
3E0512EC
BDB035BD
BE1FAF86
BE49B3D0
BD50D499
3E1A6224
BE532F88
3E439D1B
BD73A8A4
3E261A1E
3D611DBD
BE3167EC
3D979E9D
3E7065F9
3E3DCCA7
BCA1BC12
3E0E3B04
BC25C1C6
BE797D8D
BE5B024F
BE5640A7
BDA5460B
BCCFD6D8
BE08D003
BD3C32EC
BE3CE7CD
3DD12125
BC3D987C
BDF6C482
BD018D69
3E252589
BE7CD7CF
3D298138
BE6B4AED
BE00B631
3CB925BB
3E2F64D0
BE2922D9
3D84D445
BE2B0E5E
3E796745
BE3D49D8
3E5917D7
BE4EEE0F
BB7ADF2F
3DE59E1F
BD884C6A
3E3C9D17
3DD57B42
BE3B7953
BE436199
BE7D438D
BE5E7CD0
BE243633
BBDE00D2
BE1EA5B5
3C83382E
BDC05682
3E70A0B2
BDCC77DE
3E73CEEA
BDBFD827
3E6422CD
BE6B7BAF
BE090C4E
3CDA8DEB
3E5D62BF
BDC99AE9
3D28A505
3D1041CC
BB41871E
BD88F649
BE2506DD
BE7FB268
BE674320
3D45803D
BCC9906D
BE6CF4E8
BE3C408E
BD920D13
BCA426BB
BDFCD706
BE7DAC69
BD725A25
BE624D90
BDDE8F6D
3D612407
BE75C28F
3DF86CA9
3D5B120A
3E37763E
3DD430F5
3E1ECE9A
BE7D4AA1
BDAF709B
3E35C4EB
3DF53B4B
3E2BC340
BDAA2D30
BDA50721
BBBD1245
BE15F3D8
3E776B7F
BD6FEB4A
BE431F8A
3E09C066
BE69435B
BE2406C0
BE250B0F
BDD2AAE3
3D7B3B75
3E7E2CDC
BE696AF0
3CA7E953
BCF89C5E
3E7704BC
3DDB5FA2
BCA337A8
BDB43B71
BD5EF523
3DD887EC
3C45CDD5
BE063348
BE6A1A0D
3DC9EDC0
3E547779
3E4F5E42
BE76759B
3DE30A0B
3DF0ADCD
BE4EF2C7
3E345565
3DDD230C
BE555E29
BDA5EFE9
BD9551D7
3D228134
3E71BF7B
3DCF2841
BDF3DFB1
BE6433D7
3E6408D9
BC9E68A1
BE3C3654
3E271477
BCC2352F
3E19C0EC
3D88BC9D
BE6CE5F7
3DC35F81
3E6B3BFB
3E52E558
3D136827
3E3EAC43
BDCCF52C
3E3A6762
BCC013EC
3E2FA0D7
BDFB4A23
BE28BF7F
BBE4C943
BE71593E
3DFF351A
BD824357
3E5307AF
3DBB3205
BE77967D
3DC8C0CF
BAF9F44D
3D8A454E
BE62FF09
BE300432
BE6A8B4C
3E6523F6
BE77D9DC
BE01055C
3E6D56B0
BE543E53
BB066A12
BD0CB07D
3E41E57E
BE17D6F9
3E3461B7
3E7105E2
BCA1C044
BDEAAF36
BE5367E4
BE05D074
BE43825E
BC04AD79
3E04FFC9
BCAFC8B0
BE78B5CC
BE0A0D78
BD831056
3DD694CD
3E661F5C
BE20E51D
BDE23FAB
BE0F0F9D
3E36F113
BE1168B6
BDC08FA8
BE084A94
3E3B5B2D
3DEBB906

