E42
190
084
EF2
C59
3CD
E22
F15
F09
F7F
318
403
F32
0F9
36C
E0C
2B3
1EE
326
157
FCF
E98
EF7
C27
E93
299
EC8
CB1
17E
C25
FB0
021
D25
226
1E5
172
CC5
3D8
F91
088
EB7
F74
DDB
285
E5D
FED
193
248
FB3
D9C
EB4
C63
3AB
E1F
049
C36
CD5
257
0AE
EE8
DD8
D30
E54
11C
1FA
2F8
DFD
EF7
DD1
FB7
C86
C3C
CE4
329
E25
3F4
1D5
29E
0DD
C27
349
CFA
C0E
E16

