5AE
27F
7F5
31B
460
6E3
5C3
717
2DB
439
673
549
356
5A1
67C
3D3
74F
611
579
7A3
0FD
4E5
2F9
4D3
516
6BA
30D
00E
453
432
523
36A
6FF
4B6
170
265
55E
0E1
74F
0AC
77B
1A2
6DB
65D
0A5
293
312
4FD
592
3C8
12F
360
637
40F
1AC
7E4
378
1B1
3F3
2C2
616
676
125
268
4B6
569
310
3E2
38A
044
14A
4F8
78C
19F
760
389
13B
6C2
359
59E
6D8
427
69B
1CF

