D46
3A8
D14
C67
D46
C5C
043
E13
3F5
EDB
28D
3BA
DCA
E16
D56
1A1
0CC
D10
3DA
F33
1CE
C6E
0EF
055
F87
1F0
2C1
E90
361
2D1
E53
D49
207
162
18C
E9A
CAE
329
2E9
EA2
2C7
C0D
358
EA0
3D9
221
FA5
CDB
0CC
111
29E
292
EC9
2F9
165
3C8
0F6
0B6
29D
CA3
39B
2C2
10F
D65
15C
F3F
FFA
3E4
2AF
401
359
094
20C
C11
DD1
2ED
EAF
33B
F29
CB7
D51
E38
D74
224

