336
E42
22A
15F
D46
0DC
354
36D
0D6
DAE
226
190
323
F19
3A8
19F
E0F
2B7
3DA
27F
EB4
084
D88
E84
D14
211
C0F
F85
CB7
FF5
F56
EF2
C34
36C
C67
2C6
38D
3A8
D6B
31B
0E1
C59
403
11B
D46
D4D
C74
F40
CC5
C60
1EF
3CD
0CD
C2F
C5C
252
40A
375
22E
EE3
BF5
E22
CF9
3E5
043
34C
E66
088
3B7
DC3
3F6
F15
C68
EE5
E13
32B
CAF
07C
283
F17
3D6
F09
F99
E76
3F5
3FC
11C
165
270
2DB
182
F7F
DEA
F77
EDB
FC3
257
295
06B
C39
0A9
318
242
168
28D
EE7
155
34A
CF5
E73
FD2
403
F49
32C
3BA
251
DD8
ECE
F31
D49
E95
F32
FBC
0BF
DCA
36D
15E
3D9
09B
356
DAA
0F9
E2A
2D2
E16
2F1
100
D88
181
DA1
10D
36C
06C
C80
D56
0FE
1C2
320
EE3
E7C
FBB
E0C
0C5
C9E
1A1
060
C5E
14D
3E1
3D3
C34
2B3
E7B
36E
0CC
374
0E9
F9E
F99
F4F
34C
1EE
059
DD9
D10
2D8
DE1
1B4
1BA
E11
04D
326
354
0B7
3DA
C92
2A3
E5C
FA9
D79
D14
157
DE1
36C
F33
0C1
D06
315
2EF
FA3
1CB
FCF
FCA
E2F
1CE
DD5
008
172
1C3
0FD
CCA
E98
0AA
195
C6E
1E0
C5C
CBF
D55
CE5
1E4
EF7
C2C
E28
0EF
0F4
F3D
FFA
23A
2F9
D59
C27
DDA
328
055
D41
3C9
F6C
08D
CD3
EBB
E93
1B8
FC9
F87
22B
17C
ED2
C50
D16
378
299
169
1D0
1F0
2E3
E0B
CD2
CEB
EBA
1BB
EC8
2FE
2B0
2C1
D80
16D
0B9
F66
30D
2B4
CB1
FB8
090
E90
FFA
26C
1B7
E82
00E
C33
17E
0FB
D00
361
CA6
D66
C7D
EA8
C53
318
C25
DAA
0A0
2D1
C9F
D28
EAC
C4F
C32
F7C
FB0
CB7
0AA
E53
246
008
F0D
31E
D23
136
021
E13
C99
D49
C3B
D4D
3F4
142
36A
F07
D25
203
2E6
207
D45
DC8
D96
F0E
EFF
DFB
226
D08
397
162
FCA
068
CEA
13E
CB6
165
1E5
FEE
D4C
18C
FDB
C3E
C42
F35
170
D4E
172
C17
CB0
E9A
C5F
295
1C0
DC6
265
FED
CC5
FFB
02D
CAE
CA6
DD4
E32
D54
D5E
33D
3D8
034
FD9
329
14D
EB4
191
C79
0E1
207
F91
09A
1B4
2E9
2C0
075
D2D
0CD
F4F
03F
088
04D
279
EA2
39F
243
02D
D04
0AC
FF4
EB7
346
F89
2C7
2EF
F5A
CFD
071
F7B
1AC
F74
174
037
C0D
067
186
C3E
DF4
1A2
2CE
DDB
149
3F1
358
403
DFF
DB5
CAD
EDB
E69
285
1EE
1FC
EA0
095
FC0
335
F45
E5D
CB1
E5D
E65
EBE
3D9
287
0D6
F34
F14
0A5
D52
FED
F49
249
221
340
27D
0E6
047
293
1A2
193
E23
D01
FA5
DF7
F01
3EB
365
312
109
248
BF8
247
CDB
DD5
E1D
3A3
2BE
CFD
F59
FB3
ECF
C78
0CC
CA9
C80
DC1
1A1
D92
FB3
D9C
2B4
1A0
111
E96
02D
F1E
E0F
3C8
C5C
EB4
10D
3BB
29E
C96
EF8
DF5
1C8
12F
F90
C63
DD7
02C
292
DBC
FAF
FEF
060
360
FED
3AB
EA0
F66
EC9
E31
EE3
160
FB1
E37
C88
E1F
2FC
2C9
2F9
256
E8E
15D
334
C0F
F9F
049
FA5
06C
165
D27
EB8
2C9
10D
1AC
FED
C36
FED
13F
3C8
D18
F2C
1BD
34A
FE4
EF4
CD5
1BD
ECE
0F6
C64
069
F68
D70
378
1C8
257
D43
F17
0B6
D34
070
C54
ED5
1B1
3E3
0AE
FD4
DDF
29D
099
EEB
C24
038
3F3
C75
EE8
F13
0EC
CA3
086
D30
39A
31D
2C2
DD4
DD8
DFD
E33
39B
C98
2AD
065
CDA
E16
309
D30
DD1
E3A
2C2
05F
224
D96
D15
E76
31C
E54
F8D
3A2
10F
37C
C7E
EFB
F66
125
CE4
11C
C89
C9E
D65
409
F3A
C06
336
268
E6B
1FA
39E
DE9
15C
CAB
24F
D80
CA0
CB6
BFC
2F8
408
323
F3F
194
183
E8F
FAF
D69
3CA
DFD
F52
DBA
FFA
267
DB5
F48
DFC
310
308
EF7
350
F65
3E4
1D5
EB4
EA9
DB7
3E2
3AC
DD1
EC2
1D1
2AF
305
0CD
2CA
3CE
38A
E05
FB7
BF9
FEA
401
D67
1C9
BF6
2B8
044
E90
C86
BFC
D13
359
373
071
E7E
ED6
14A
CDB
C3C
229
173
094
0DC
C36
D6C
163
CF8
027
CE4
0F6
E28
20C
0BC
25A
E5F
EE0
F8C
C61
329
3B0
178
C11
3A1
02F
155
290
19F
E51
E25
E44
13E
DD1
2DF
1A7
D20
3FB
F60
3C7
3F4
FEC
308
2ED
E71
C90
F77
1BB
389
02E
1D5
0EB
391
EAF
F62
250
CA8
078
13B
3EE
29E
EA0
354
33B
387
2C7
025
C17
EC2
35D
0DD
00E
03C
F29
ED0
D27
073
D89
359
DC0
C27
3E2
398
CB7
F48
39A
DF5
BFB
D9E
C3F
349
171
C28
D51
D12
1F7
C73
138
ED8
328
CFA
FA0
07F
E38
EC1
02B
154
132
C27
223
C0E
C3E
3EF
D74
D1B
09C
F3D
3A7
E9B
048
E16
F3D
DE1
224
120
027
D01
E23
1CF

