3B7
0A1
0A5
2FB
0DF
0FA
32B
2F4
0AF
3A0
3CB
3F1
33C
2D3
07C
103
082
33E
37B
0A0
3A4
121
2E8
368
01B
07C
053
13A
003
39A
057
2C2
0A3
033
05B
018
12B
018
382
02A
093
318
0B3
07F
0B0
340
05D
161
38E
045
2E8
025
0E8
16C
0F9
396
174
0EE
0BD
108
29E
2DF
2C2
3D2
3E7
0EB
3AC
14C
28C
3AD
0A5
0AD
009
3A4
068
37F
2F1
3F0
3EB
137
091
156
350
031
12C
020
3B1
2B5
3E1
0B0
358
07A
142
2A1
0E6
32F
39E
161
018
03F
0B4
11A
3B1
059
289
3BE
3DF
0CC
29B
176
080
050
058
2AE
370
3D7
30C
3B1
117
309
33F
3F7
158
04D
2B5
35B
06B
362
0C6
0A8
3FF
3D9
3FC
3D0
3F1
38A
319
020
307
3E6
137
04A
02C
3BA
383
3D6
0B4
0C6
332
05A
0E1
3E1
29B
113
0AD
144
3AE
3A2
111
3A9
002
2E5
026
02D
046
02A
115
37A
339
2D6
3A6
111
00A
35D
115
0B4
32E
010
14A
395
321
002
119
155
3C9
3EE
017
2CD
3C9
2AE
2B5
28C
2F1
16F
02F
3F8
2F0
320
353
3A3
032
32A
39F
01A
055
3FA
090
3D4
31D
3E4
14F
15E
3DB
2C9
077
337
321
0E2
327
106
334
2C2
0C4
167
0DA
33B
075
0B6
2DC
306
30B
2F4
157
2D9
0D6
0EC
0FF
2C9
111
31E
128
28A
3F0
373
065
318
316
311
096
110
143
071
10F
2E5
156
347
3AD
04E
2F4
299
299
3F6
106
060
071
2F8
13C
11B
2A4
314
344
39B
11C
3D7
002
068
026
30B
3C4
30B
2EE
06D
3F1
323
3B2
013
30B
28C
0FA
0B4
363
175
2E3
39E
306
339
0DE
0C9
380
036
318
338
021
2BD
0EA
060
3D8
2B8
13E
342
2C1
38C
09C
2F4
15D
2D6
011
09E
2FF
2A1
305
145
3FC
3FC
0CB
147
123
2D5
09B
000
106
151
0D4
087
0C4
0A6
29A
3CE
0AC
17B
05C
078
33F
3C0
2C0
2D9
08B
09C
28B
06B
0FC
396
034
32B
39E
0D2
12B
3B6
11B
3D0
3A7
032
29A
157
104
39A
169
37B
16B
14D
3E4
327
3B9
0E7
2BA
081
3AD
38B
326
385
3EB
178
114
022
34C
065
0BE
2FC
10B
3CA
0E2
116
05D
37D
09A
155
31F
113
07F
135
015
136
0FC
2DD
11E
378
132
3A4
030
02F
159
068
15F
045
339
3CC
2D1
105
08B
368
0D0
105
29A
131
01A
3EA
3E0
05E
2D6
362
12F
14F
16E
390
2F9
351
04B
03A
35F
165
104
364
37F
12B
02A
064
398
17B
114
34F
15C
04C
007
0D1
154
2FA
3B6
34B
3BD
3F6
036
284
2EE
12B
385
303
07F
3B4
2F5
119
30C
071
179
073
06D
2CD
157
30E
3CD
33D
0D8
3BE
32B
39B
325
35F
140
06C
002
0C1
0F9
374
3FC
174
2DB
092
2D4
17B
2E5
024
3A7
2A0
37A
016
39B
0FD
3F4
38C
085
3E1
15D
347
073
2A1
060
02A
115
357
0A7
0B0
097
38D
087
33D
38E
046
2DB
3A9
117
2B1
113
3E5
35F
105
305
34C
0D0
00A
0AA
004
301
0C4
069
028
021
2F4
00A
28F
3E0
162
0C3
3BE
3D2
095
061
36A
17B
2F7
09B
330
057
309
0F2
0B8
29B
0E6
13D
33A
351
2B0
0BE
157
097
3A1
2E7
133
3BA
058
030
392
393
3A6
046
0BD
3AE
39A
077
01C
3BB
2A2
3FF
367
165
3F2
2BE
158
3BE
285
0DC
03A
049
2CA
05A
346
063
30D
2F1
120
021
000
094
123
3AA
3D6
031
14E
16A
046
321
2CE
01A
0BB
129
353
0DA
168
296
0B8
3AC
35D
0D9
2C2
0E7
00B
0D2
344
0DF
102
0F4
096
350
2ED
309
3C4
159
0B5
398
29D
0BB
160
286
08C
106
2B6
3C2
3FD
129
395
11D
2F9
3C9
163
0D5
0EB
3C3
0EF
2D4
028
34E
323
371
3CA
0E5
310
28A
0D7
178
126
299
124
387
2CE
100
117
398
3F9
32D
2E1
07E
32F
079
378
29D
11A
125
09D
029
34A
134
3CE
3D4
11D
13B
10E
098
3B7
00D
042
38B
019
3A1
2C9
0F6
3E3
3BB
33D
11F
028
2A2
342
02A
003
110
105
381
094
133
00C
338
291
098
010
129
3EA
16C
146
2D4
0B1
091
339
300
0BD
364
329
081
3C1
33A
301
043
16D
2C6
3C0
369
132
01B
081
3A9
0BD
300
12D
331
03C
3A9
02F
374
2D8
3C6
3DC
163
12A
295
2B2
077
175
0CD
317
150
3F8
3B2
163
39E
0C9
3D2
2EF
025
056
07A
0DF
056
138
04C
2F4
0B9
2E3
36C
120
01D
323
179
0DA
0EE
37F
2F4
29F
373
124
0F4
3A7
2E6
0C1
0E6
36F
0BF
363
3B5
0A1
057
333
138
045
0AD
298
06E
316
030
324
37F
2C9
177
2AD
33F
175
3F7
06C
2FC
141
121
0E7
390
28B
2FB
077
2AB
112
2F4
074
3EE
031
2C0
310
2D3
0AB
2B9
169
0E0
150
030
3BC
0B1
2AD
0A9
039
07C
0E0
097
2A1
0C3
2F0
2F3
035
3B0
0AB
28B
07E
0E0
33D
2A4
39D
3FC
065
077
01D
00F
2FA
155
3C7
0BB
01C
152
36E
16D
3F9
3CD
0BC
3E1
323
038
08A
287
3F2
173
309
15D
3C7
37F
351
3D5
0AC
0D3
05D
35A
312
052
29F
0C1
13E
00B
2BD
2FD
3D4
32A
32B
38C
037
00B
302
0C6
166
0B3
355
109
33E
2E9
3E8
01F
289
0F8
303
0F3
2BC
3EA
0A6
139
15B
169
092
01E
00E
10E
33F
327
315
0C1
10A
0BE
345
285
383
342
082
3A2
364
35E
0D6
39A
313
38E
143
054
033
02C
37E
15B
39F
363
0C0
024
117
109
2AC
3A8
0CB
286
30B
315
090
348
16E
101
0B5
131
31C
387
031
3A3
055
331
0DF
2CA
07E
3E9
338
082
009
0E3
078
3FE
061
2AA
16C
04D
35B
38C
0CC
39C
145
2DE
312
09A
2B3
112
2F5
147
004
0B1
2A0
033
398
33A
2DA
2D7
2F5
0AF
015
059
097
2DA
034
093
023
3AB
366
3E0
3D3
3DC
150
2F3
043
097
114
3FF
349
337
31E
01C
160
111
330
35C
37D
04A
049
3DE
2C8
0A5
2F1
2A9
09D
2C4
118
051
2C1
360
390
065
3FC
046
094
37B
0A0
094
39A
029
036
0AD
3E7
0F1
009
16E
3F8
095
041
06F
0E8
17C
045
120
3AF
024
088
16D
131
0C5
16B
174
343
332
0E4
0A0
0C5
0BB
3A2
37C
300
029
167
168
16A
160
056
03F
11B
0C2
107
119
2E9
10A
3DA
375
0FE
05B
0AC
2A4
0FC
355
309
0ED
122
001
3FE
33C
2C8
335
0B4
0E4
3C0
2AE
017
388
2EC
286
348
00F
2F5
0AD
36A
0FB
0E8
2DA
3B9
310
2E7
149
2B5
164
380
2F5
159
0EF
30E
364
083
144
368
09F
133
2CA
0F9
3D0
346
058
383
07A
291
3FB
0D3
0B1
0FE
3E3
3EA
313
37F
177
39A
053
3CF
0E8
00C
102
034
306
067
2B4
02C
2BE
160
2E0
29D
375
06D
061
38C
320
2D1
126
0D2
13D
0AF
2DA
2E2
297
0F1
11F
3DB
161
3FE
051
0C7
3EF
3E6
340
298
131
2D0
095
07A
2F4
090
0E7
133
2A7
2CD
3DB
03C
119
082
006
0E0
179
16C
336
0BA
2C3
3B5
00E
003
3F6
3CE
133
3AC
3DB
022
29D
130
15E
151
31B
106
0EF
3D1
052
347
068
10A
2A4
2AE
3C4
100
0CC
156
070
342
2F9
0A6
2D6
001
01C
03B
2B2
302
2E6
2AA
166
3E3
11A
0E1
022
058
033
38A
3CB
131
2AB
344
3E4
0E1
0AC
2BF
338
00D
01B
3E7
397
2FF
0AD
15A
046
0E7
3D4
145
2B5
30D
0CB
300
2AE
38D
0C6
395
2E3
084
08C
370
06B
044
0D9
3EA
2B6
0F5
0AD
16D
3A1
15C
0F6
317
35D
2EC
05D
07D
068
0F9
2E5
31C
038
37B
371
16E
098
0DC
020
135
2A0
06A
177
09F
144
301
297
34E
0B9
3B6
146
120
128
06E
008
35E
130
0DC
318
025
032
30F
100
287
12E
2B8
330
374
027
331
2F6
2C5
3B1
384
337
376
0F7
0F9
3E2
37B
2E0
2A7
2E9
06D
07F
3DF
339
01D
176
13D
024
0DD
333
2DC
3E4
0B8
38C
07D
393
0A6
131
39A
12D
335
138
014
0FE
136
31E
063
043
3DE
160
39D
2C4
0C8
0D1
2A8
120
090
35F
2B2
3B4
0BE
01A
3CE
2FA
3EE
3C0
347
0E6
28B
2AE
301
2BA
368
309
0D0
398
151
009
2AD
351
007
09D
2D4
334
072
140
029
0EF
317
0B0
073
2C8
0BC
0E4
11D
110
09D
2A0
3C3
09A
323
015
311
05A
14A
2B5
0FA
2E1
321
2A3
05E
0E9
3C7
041
38F
315
055
39E
2E6
2E4
096
325
14A
375
34E
369
2E1
38D
2A7
328
0DE
023
35C
2F0
321
301
100
30F
30C
30F
138
398
300
288
2ED
2AC
338
3D4
110
2CE
37B
15C
00C
03F
2B8
0A7
371
06C
0E4
0EE
006
390
3B3
290
07F
0EE
029
3FA
2E5
03C
375
120
0AF
337
367
070
367
29F
28C
075
388
0A7
049
337
084
365
0D0
07F
3E7
0B3
105
0E0
3D8
2A6
2AB
10E
2B0
070
136
392
01C
3C5
179
05E
2BA
0F9
175
119
0F4
085
3F2
158
00E
357
36F
301
07A
3DE
342
2A0
3FD
032
288
304
393
0EE
049
089
3C9
175
0D5
39A
12F
2BD
14E
301
166
35C
068
294
361
0D3
3C6
036
348
007
3ED
0B2
3CB
3A7
0CF
035
04E
34D
0EF
0BE
076
385
345
32F
04B
0EB
373
398
2E5
12E
3D1
31C
01E
348
157
3A4
106
37D
3B0
111
0F2
3FE
025
049
3E5
31E
3FE
2B1
11F
38C
0A2
044
0DE
0B9
022
161
2EB
2DD
2DC
17A
114
0EB
3E6
082
11A
013
107
35D
11A
343
3D0
023
33E
0BF
2DB
135
0F3
08E
330
3BB
3FA
012
035
32C
2E5
303
321
148
0B5
16C
13B
2B6
062
0D4
02D
347
28D
138
0DB
2A5
373
150
148
399
332
33C
3EF
08D
301
0DD
0A3
30D
287
0D5
07B
0FF
3B3
3A1
2FD
038
355
2EC
125
3FA
304
10B
3F7
300
136
2A5
33B
3B9
14B
2C0
312
361
015
3F0
3EA
14B
337
15E
378
071
2EF
380
2E4
3B5
109
111
2FE
068
289
0BA
125
055
11E
024
057
294
321
3FD
3AF
370
344
01A
33B
2A1
286
126
093
094
0BA
287
121
095
061
12F
399
065
320
089
0A4
06A
092
08B
09D
3E9
2D4
300
2E3
2FC
0D8
0B8
2DA
32D
2F5
12C
378
36D
3C8
398
0CD
03E
08C
066
2A8
35C
2F7
054
065
341
2F4
28D
2C7
3C4
321
369
074
32A
2CD
2F9
3C3
009
3A3
307
3C9
121
0BE
0AB
322
33C
099
3F3
02A
069
2AA
30A
36F
2B0
0B2
0ED
2A1
067
0CB
2C2
16E
3EC
2E8
2A8
0E8
3C3
3B9
3FC
31B
08D
14B
13F
01E
3A7
295
103
0A7
2FA
002
051
01F
051
0DE
0C9
143
3F6
148
3AC
30F
0F2
29E
3A3
2B0
06E
374
2FE
383
2BA
033
2DC
290
326
158
100
007
0A4
3E2
17B
371
070
2E9
3C6
3EC
047
0A0
037
021
289
10C
367
299
157
2DC
3AB
0BB
122
098
358
2A6
3C9
2C1
393
093
287
046
0EB
309
2BA
163
2A5
0C3
040
170
2FB
12B
360
0FA
3DB
34E
360
0DF
138
17A
39B
2EE
0FE
344
370
017
294
05F
0F4
0A8
2E6
2B0
07A
05E
119
345
354
023
31A
0FA
33A
101
3E0
12C
347
0D5
2DA
07A
138
03C
38D
2BE
06B
3EC
3B0
0F3
3C7
0BF
3C6
39A
309
399
3BF
14B
119
041
0D5
172
28D
2A1
29A
3C8
0DD
0B3
095
043
17A
39F
2D4
3D4
0AF
3A2
2A0
3A1
092
085
027
2F7
2AD
065
132
0E0
319
16B
065
2A7
3DA
169
132
304
00E
283
0C4
332
15D
0DB
123
3AA
294
3D2
354
310
2ED
3DC
2B8
0E7
38E
36D
15F
06B
162
0A2
3A2
12C
308
172
11F
07D
0D6
3EA
312
28C
2A2
109
031
339
2BE
04D
2D3
07B
0DE
2E3
138
374
0C7
074
2B5
11F
370
2D2
316
0BA
37A
33E
392
090
3BD
11B
3FB
37D
08E
324
351
2C1
2D4
366
088
365
3AB
31A
3F2
2E2
2D5
08D
375
156
2B2
030
356
06C
11F
2DF
320
178
0A4
379
119
0DE
02A
2C0
294
3E0
136
331
28D
071
0D2
0C0
056
2AA
3CE
175
09A
092
035
302
0B4
3BE
159
318
38A
293
3E1
05D
0DD
3C0
3D6
2E5
2F4
2EC
032
09E
00A
150
021
2FE
12A
393
119
031
35A
297
0C3
301
2D3
284
2AA
302
30D
090
001
398
0C5
03F
172
07B
290
28B
2C9
3B8
0B6
028
087
338
3CB
347
307
0F4
2B5
3A0
123
15A
150
325
078
157
3D3
17B
28D
02E
137
38C
041
2B5
3F5
2EA
044
0F6
2A9
16C
0A2
13D
03B
043
111
364
29B
291
083
0A8
148
046
036
070
10E
289
306
009
323
384
38A
0A0
3DE
04A
295
056
161
2E7
132
129
0D1
2E4
294
0CF
0F9
0C4
05E
3B1
3B1
2AE
161
341
086
2F0
04A
043
35D
0BC
141
13A
31D
2CE
137
12B
09A
3D1
38E
3AF
105
2F6
2F9
3C5
083
112
2BE
30A
362
3BD
0DC
36A
016
3B5
310
05C
38B
046
35D
3C9
36B
3BC
337
045
16A
324
0D4
0A0
3F5
03A
2D8
370
0D5
358
000
393
041
3B9
0A4
365
041
0A3
36F
34F
036
2AD
348
079
095
153
2C2
02F
2C8
167
354
139
06C
38D
134
0D3
16A
027
2EA
2D6
09D
157
072
363
035
39D
042
2D9
308
0EC
2CA
087
156
0E1
000
0F4
3BC
02E
3EF
36C
0B5
357
01B
050
30E
354
314
08B
2FE
146
175
347
0D7
380
06A
0E7
2FB
333
15E
11E
0C6
2A3
3D2
0BC
37C
174
10A
0AE
0D6
05B
319
0D7
2DC
3EF
303
3C9
02C
38E
3C4
142
3FC
356
031
02E
041
0D5
371
0E1
013
175
0DE
335
3C6
0EA
331
326
2EF
14A
2C7
36F
169
3E8
108
16D
316
13F
05A
3DE
359
077
2B8
2CB
31D
120
027
3F3
3DA
024
01A
00D
0F4
2AB
36B
352
0A2
152
384
323
28B
00E
108
0B0
3B7
2DE
388
12E
30F
10B
0D5
175
2E5
0B4
2A7
14D
3D6
2CF
3A9
09E
3A3
307
0BB
071
100
3F1
014
2B9
06C
3C2
074
31A
16F
289
0EE
131
0B7
0E8
12B
2C7
003
387
354
133
39F
290
328
39F
3C4
3C9
0A4
29E
3E3
05F
151
369
0BE
095
2A2
363
01A
038
2E9
2CD
3D3
3E4
2FD
317
2D1
10F
0C3
039
2B6
311
2C6
112
04A
3A5
0B4
284
039
32F
039
10A
2FA
2F4
0A7
0B6
34C
321
28B
294
127
2DC
10E
02B
30E
0A0
100
2B7
14E
2A3
39C
3AC
0BB
0DC
38B
0AD
341
110
093
09E
3AE
29B
074
159
011
3F6
045
159
0AA
286
30B
159
387
121
0A5
2A9
140
10A
09E
322
156
299
171
0DF
3A0
352
3CC
040
06C
312
146
3D6
293
051
135
044
3EE
127
37D
137
08B
045
399
070
036
124
2CE
365
029
34E
33E
295
3A2
2D7
06E
2D5
148
12C
082
34C
2E3
0FC
0C5
158
3D0
2A3
011
39F
058
349
0B0
14E
054
2E0
3DF
3FB
32D
07F
0DD
3D5
179
3F3
035
29F
3E1
312
16C
16E
03E
325
3AA
398
33C
0B7
351
3C7
15F
158
01B
2AE
3A6
17A
382
341
2F1
107
050
3B8
3CE
316
2A1
293
004
046
0E9
391
376
141
2B1
360
048
3B7
11C
077
33B
2D3
12C
102
10D
38D
3C8
175
052
024
0D4
399
302
115
3CB
134
2D2
3F6
30A
3DE
0A1
2A0
070
3D9
069
0C3
3BB
002
0CA
048
04D
16F
34B
3D8
35A
04F
3D7
3AA
3E5
0AA
0FE
018
0C7
318
2DC
0B6
35C
072
0F0
0EC
0D1
114
28E
0C2
0E2
3D0
05E
0BA
033
0EB
2C8
2D8
309
388
02C
396
11F
13F
08E
3A7
290
14F
020
30C
079
3ED
31A
327
2E7
2D3
0EE
150
2CE
306
2A1
2F6
103
393
2C9
3B7
3A6
3D1
08A
00A
34E
12C
28C
003
0D6
3B8
2DD
2F5
288
319
11B
131
2F7
3C6
3F2
2A8
316
2E3
0B4
07D
320
07D
3DF
006
002
34E
3E7
176
094
2E4
323
063
3BA
3ED
318
310
2A0
078
0DF
11E
127
2A6
2C9
2F4
014
3F0
3FC
37A
3AB
0BC
060
36E
000
0D4
3C9
0E9
363
2F6
396
28C
166
015
0DA
0E8
0A6
28F
30E
0A8
3D6
372
3B6
3E5
0F1
16B
094
291
396
349
0E4
2FF
06F
021
04F
2A9
290
133
3FB
0FA
313
34E
13D
003
05F
382
007
2DF
2AE
0D2
0ED
2F6
122
3BC
02F
0A4
30F
051
029
091
13C
38F
3E2
16C
04A
03A
38B
0CB
3E2
39C
038
331
0C7
073
3C6
37F
156
3B7
311
10E
06F
3CA
345
0BF
06D
3B6
09C
0B6
316
2DF
3B7
3E9
0CB
134
2E4
01C
3C3
34A
031
03C
07E
07F
3F6
287
127
001
154
122
2C7
14E
39D
3B8
3BA
0B9
045
0B3
0C0
35F
368
081
074
355
0AB
042
2EB
01B
387
08B
0DF
3CF
00F
3D9
07E
31C
13F
07D
059
3D9
034
024
2E6
325
086
3C1
095
0BE
36F
06A
2F0
057
065
32B
2CB
3B0
097
10B
175
2F8
118
012
2AB
2D3
3CE
0A7
288
16C
00D
32A
38F
05C
2AB
2A2
334
132
3B9
385
2A1
376
396
085
127
07A
0F5
0A3
0D4
06F
3C8
2BE
318
36F
0F5
2A6
2DA
3B6
047
159
07D
373
3BD
08D
28D
0AF
02C
0DA
2B4
2B4
0E5
12C
2A2
008
16F
2A6
323
3A0
155
051
294
324
345
04D
019
2B1
01E
003
12B
386
0D3
3EC
2A8
136
360
01A
0F3
0FD
2A4
300
110
02A
033
07C
3BA
0A1
0D7
0D0
144
0E0
000
37D
007
129
146
301
069
00E
045
08A
05D
3CE
31C
2A6
16D
00F
178
15D
3BA
008
12F
379
040
3DD
10E
285
0D3
366
354
0A3
35C
014
3E9
0C4
373
12A
081
2CA
3DC
059
3C1
36A
389
384
334
2C4
03F
092
10B
388
02E
04E
294
0F0
12A
3C6
375
387
09D
009
316
09D
105
07F
06B
150
01B
29F
0A8
0C9
3EB
08F
16F
053
0B4
36F
17B
09E
13A
033
30D
2C2
17B
355
2ED
2B6
2B7
3D3
349
02C
02C
125
28F
366
354
0DD
3A6
3CE
0B5
34D
2E8
384
31D
023
288
322
344
036
0AF
108
124
3CA
047
0DD
343
178
31F
3DD
174
384
109
3C9
176
32D
2EC
298
151
056
075
3B1
337
33E
330
3D0
051
38D
350
343
3DD
34C
3FF
2E7
3A5
2E9
3B6
3EF
02A
020
054
0BE
2B2
3A1
02E
0D9
2BC
069
314
057
0D5
0BA
317
036
2F5
372
2F0
161
3A4
37B
0B9
091
3CE
399
0CC
15A
0BE
2EF
2DA
3C6
064
399
0FD
012
16B
117
0AA
046
290
29C
0D9
0AB
0AA
31E
395
065
0EE
081
379
2A7
35D
161
00A
2CC
10D
3FA
146
018
396
34E
2D5
0DB
36E
2DF
170
31D
36E
103
30E
292
3E1
0D8
14D
051
323
0F6
0B9
39B
363
3F1
083
038
2A0
06D
32C
2F8
309
3C5
0E9
073
3F3
154
0B0
364
2FC
148
363
0E6
060
0BA
0EA
383
163
00E
077
15C
3A3
0C6
301
0D7
2BE
16A
028
151
165
39A
0E8
36B
2D4
34C
3FB
004
062
0C4
366
2FB
396
01F
068
3B3
2A6
08D
0C3
2F1
156
031
3EF
152
00B
13A
30D
15A
084
308
2E4
295
36B
022
3BA
0CB
02C
0F7
008
3E7
292
020
054
35E
09B
0FA
005
14A
060
0C9
3B9
3C0
04C
3CE
084
172
0F7
0AF
2D8
319
125
16F
053
014
3B3
284
091
2F9
301
12A
28A
2B7
020
102
06E
3F8
300
3F1
3E3
289
0AE
121
0E2
2CA
3E8
024
391
07A
39D
2C9
2B6
0A1
008
294
08A
13C
3FD
34C
30B
2CE
383
3FE
138
36C
3CF
001
179
124
070
32C
016
2B9
093
17B
0ED
287
112
2D4
37C
0F3
007
168
15F
0AE
3DA
370
039
0AD
3AA
02D
3E1
3B1
0A0
109
339
33F
07F
309
172
2FA
333
321
179
049
03D
04E
3EB
332
339
13D
081
2F5
398
2B0
2BB
3FC
39B
29F
00D
028
3FD
0D1
2BD
038
295
3FF
06A
3C8
3C4
3EE
140
0F9
305
312
325
3B6
36A
0CD
0F8
098
3B5
176
0AC
06E
024
171
08B
367
299
3A5
28D
0C5
38B
020
2B4
2E7
372
01A
095
3A7
0F2
3B2
2F8
176
2C2
10C
33C
041
3D7
298
155
3F0
0BD
34C
0E1
2CA
145
34B
07E
386
31A
2FD
30E
0F8
2DA
36A
2FA
16C
314
079
060
32D
3B1
0FC
35C
305
340
086
375
174
13D
355
01F
2CA
13B
0C7
07E
33C
375
067
09C
355
3DE
03B
0AB
2D7
023
086
37C
018
068
32F
0F1
10E
359
317
154
02F
2D3
074
147
3E8
155
161
3F1
013
04E
374
170
38C
0A3
3EE
3F8
2FA
2CE
3CD
086
151
2B2
372
0A0
078
178
3D9
34A
156
086
0A0
2FE
12B
2B0
069
0CB
2ED
330
339
344
31B
08A
0E0
066
38A
30A
2D6
385
08E
02A
2BA
13F
023
3D0
00D
311
3F7
032
36B
035
39A
3A0
32E
2FD
3A0
394
013
09E
0A2
162
365
06E
0BE
006
2B1
3AD
14F
06F
111
39B
2C3
0B3
05C
376
078
317
05A
3D7
084
293
05E
12F
318
3D4
023
14E
02B
2A5
2A9
06E
0C4
29C
052
0CF
38D
2FE
092
3E4
36A
064
008
00A
37D
0FB
2C7
111
0C2
3BF
10F
3AD
2BA
0A9
04B
3F4
34B
100
15D
3A6
29D
00E
0C4
339
140
3DC
3B1
2AD
018
313
0E3
063
035
0D5
2EB
3DF
3B5
2AC
0CD
158
14B
3B4
14F
2C4
323
2B9
3AF
018
29E
293
086
3EA
3EA
2E3
368
2AC
3B9
2C8
11F
15B
09B
290
123
2ED
16C
2E7
319
048
29F
392
3DF
2A7
0FA
00A
12B
06A
098
2FD
2F6
3CA
0FA
0ED
3AE
28F
322
2CF
0DE
0C8
2B3
0BE
3A3
01E
294
371
3A9
109
35C
349
30F
378
0D0
14D
3B4
316
12A
0D8
289
0F2
0AE
03A
122
3F7
3D3
094
32C
118
02C
3A2
051
2BD
305
360
117
2E7
329
3D0
119
15F
0AF
100
3B1
03E
15A
0D9
0CF
0EA
05F
137
118
365
135
00E
368
038
2CC
30E
07D
071
05D
324
36B
04F
00E
287
3FB
2ED
0A9
078
2CB
2D8
0D1
151
314
075
087
077
02A
3C1
390
343
174
3FE
03F
291
03D
33F
140
284
2C5
2FB
28E
3BF
052
021
0B8
115
179
2DF
0D2
355
0BE
2CB
054
293
043
022
00F
3C1
2F7
076
334
3BA
110
357
036
2C1
2FA
3F0
3EC
142
385
126
2D1
12F
380
013
399
16B
01F
3E3
153
140
164
28B
0DB
15D
362
166
29D
307
081
0CE
35F
146
30F
2CA
394
165
328
31C
3C9
0DD
025
07B
17C
00B
312
12D
0ED
057
3A7
0DC
0F1
00F
329
31D
287
291
087
079
298
109
305
0E6
390
144
0EC
34E
398
00A
008
063
065
294
3AB
10E
2E8
015
2F1
16F
141
06C
37C
178
14C
01E
2B2
0A8
3DF
3C7
13A
059
2AE
0A1
358
2E8
17C
315
11C
367
07E
397
11B
081
3EF
38B
315
017
387
2D8
2F9
2A3
12C
14D
317
106
0FD
0ED
365
33F
102
020
165
384
34B
0BA
07C
043
0C6
3A9
293
0D6
106
039
379
008
147
017
02C
072
3EC
3E1
04B
0AD
0D5
33C
156
2E2
118
2C2
3D3
0F9
012
076
38E
166
170
0B7
04E
376
33E
35F
3CE
35F
3CB
312
0BB
3E9
367
3D3
03A
15E
08F
36C
123
3D9
15E
037
078
3F5
2D6
368
09B
2D2
340
28C
0C8
094
398
2CB
31B
0B2
341
108
162
3F8
377
094
2F1
2EF
06C
2E1
05E
160
35C
12E
07E
0F0
38D
17B
0F1
17B
367
316
384
0C8
3F2
3F0
15A
300
2D6
0AA
04E
310
16B
125
05F
090
097
138
366
37E
3A6
094
299
398
0F1
33D
0B4
044
0C4
2F9
10C
296
0B6
077
3DB
02B
01A
0FD
0CF
153
079
316
34A
322
0B8
296
113
054
17A
3BF
36E
0A4
3D1
178
35F
005
28E
3F5
078
0AD
2D9
07B
34B
3CF
359
28E
2DC
004
0EF
39D
294
07E
0E3
04A
2C7
06E
069
3A8
09C
2E6
2DC
3EC
16C
07C
0EA
11E
03F
399
05B
13B
0D5
337
3D0
344
30C
33F
2FF
0CE
139
078
0F9
0D1
13D
3DE
003
01C
2F1
038
0B2
0C1
16B
0BA
327
3D9
036
116
0D5
093
0F6
3B4
378
08E
092
104
3F0
00B
011
12A
082
344
2D7
075
3FC
15A
37F
04D
3E0
36F
0C0
331
061
008
13C
0FE
14B
3F5
32A
38A
0A5
0E2
320
2D2
16B
3F1
0A7
2BD
062
03C
120
34E
030
02D
011
3B2
0AB
34D
3AC
2CF
04D
3D0
2D1
042
11C
362
05B
2C6
3F8
290
32A
0F7
035
175
29D
302
03D
2D2
3DD
09A
041
318
161
161
3CE
0F8
065
15D
11F
177
364
3EF
358
040
005
348
2E1
293
2A8
148
3FF
16F
329
3C2
040
34D
36F
11D
02E
153
00D
0C1
03A
04E
2B4
095
060
040
2A6
290
116
09E
062
129
38F
017
313
027
105
34F
348
2C9
147
3E0
023
3A9
0C9
3F5
3E4
0C7
3B3
30B
0EE
00F
3DB
071
360
0CD
30A
12E
3F9
3C1
3AD
2A7
0FD
0DD
3A1
007
091
33B
051
34E
364
349
121
15E
2EC
2DD
2BC
3F7
14E
3D1
330
287
12C
17B
0C9
2B3
144
097
2E5
348
3F9
3F4
000
044
062
2AB
17B
30C
394
3FD
064
167
044
149
362
019
35F
0D2
0A1
34E
31E
376
08E
3BE
04D
070
00F
3D9
2A2
346
0D1
053
023
0B2
01F
348
104
060
017
16B
2C3
334
134
172
176
3EA
166
130
2A1
3EF
38A
2E6
38F
3A3
3C9
17A
114
3AF
36A
297
346
3D9
0EF
02F
2E2
168
104
07A
002
058
350
040
0B0
0BD
02C
2E1
0DD
3F1
125
369
10F
3E6
0D2
171
094
08F
06F
3C8
15A
3BD
0B1
0DC
0C3
3EB
10A
072
049
352
170
166
12F
10E
390
0A6
2EB
009
2A2
083
336
38B
34A
3D0
2DE
141
3C4
122
118
11D
36D
3AF
29B
0B8
0E0
150
334
321
0DB
13A
139
05F
012
3EA
169
298
0B3
29D
086
32E
30E
386
103
2DB
320
3BE
315
0D1
3D9
3E5
363
156
394
0C3
3BD
107
0FE
3D6
28E
0A6
3EB
31C
3F9
11D
2D2
097
0C5
333
008
073
2DB
10E
12B
02F
2D6
0BF
356
2DD
302
2E8
335
3DD
043
08F
005
389
013
3FC
2CE
304
142
316
2EF
2A4
290
3DF
3C4
3F5
28F
2A2
294
2CE
3CF
38E
086
07E
2A2
358
3BE
3D1
04A
155
147
30B
3F4
336
035
38A
3FB
3CE
3A8
0EA
169
099
137
09F
17B
2FF
2FE
0C5
0DA
3CF
309
13E
39A
296
169
0DD
344
384
3E7
05A
2EB
358
08C
369
043
35C
349
15D
0DD
3BB
087
06B
151
155
04C
139
08D
163
158
340
348
2A3
29B
37E
0CA
01C
291
3F5
0BD
38B
2E9
052
0E2
2C7
0DC
31F
148
148
2C7
3AB
116
144
03B
168
28D
2FD
0C9
126
2B2
2BB
371
0CE
285
30F
373
3D8
2E0
3E6
28B
148
2AA
0D0
3B5
0B8
292
030
11D
134
34A
314
359
0E6
3DB
014
37F
30D
2C2
0AD
07A
128
326
347
39C
3AF
2EC
121
351
319
3EF
352
315
107
154
0F2
14C
3C1
29F
2B5
0B9
0E0
395
09A
37D
02C
121
03A
12D
30A
347
29D
292
301
341
10B
051
0A0
333
3C7
17B
32A
29D
15F
102
2C3
28F
29D
2EF
3A6
383
2F2
174
017
2B7
2A9
3C7
11A
027
3B3
0DA
2D1
0F0
022
28D
36D
15E
3A8
029
09E
2FF
174
37E
0E5
05D
2FB
101
290
2B0
15B
309
311
3AF
333
171
3ED
3DF
043
3F1
115
359
000
0CA
2CD
0FC
2EE
130
04A
375
309
2E1
3A4
082
288
2D5
2B2
2B6
3FB
3AD
2DD
34B
091
16F
11C
2DD
2F1
35F
2FA
02B
2A5
37F
380
3E5
09B
3B3
3BA
354
3A7
063
29C
170
016
304
023
31C
094
0CB
0EE
2A1
37F
0D0
2DF
2EB
347
389
3E0
01D
3E5
33C
107
3BF
0FA
0AF
0F0
15E
17A
017
2B7
38A
153
392
2F7
146
00B
3D5
2FF
373
173
34A
3A0
31B
3B3
31E
0A5
2BE
2F9
28D
2BF
0F2
2A2
040
002
016
0AB
2A7
123
293
2A6
116
3D1
3E4
34C
154
0CB
399
2A1
33D
2CD
06F
344
0AF
0B8
059
15C
0CC
3CA
380
2BC
16B
2CC
162
133
08A
01F
12E
137
0D6
2BB
16D
12A
3E2
32A
3D7
125
380
090
094
2CB
36D
3EF
2DA
3B8
2C4
0D4
364
3A1
394
338
36C
0DF
094
031
072
134
33C
0CC
01F
2E3
162
3D7
0E8
3FA
105
28F
3F1
308
291
334
09B
079
0EC
036
13B
368
074
0A5
106
30E
307
0C4
35D
13F
0D3
3B0
331
10C
14A
35B
2D9
102
3A3
2EE
04F
0A6
073
2FF
008
3A8
2BE
171
3F9
126
16B
0A9
2D0
077
2AA
00B
2BE
116
06F
375
314
15B
34C
137
0C3
340
03E
313
343
103
29F
0A2
096
290
0BF
0C6
34A
036
0CB
382
398
0B9
13A
06D
0D8
388
094
118
37B
394
3AE
374
04C
069
177
030
36E
003
376
060
3B0
2D2
378
013
3F8
2F0
382
171
06E
035
368
3A0
014
3BE
160
389
16D
38A
153
018
317
3E4
144
383
3DA
3C9
2F8
345
150
08E
077
024
29E
291
12F
0AD
15E
0DE
0BC
13C
2F8
3F2
0B4
0D9
34F
077
362
0A3
377
0CB
059
003
320
0FD
35F
3B7
29D
098
320
161
30C
03E
36F
3EA
141
303
065
0FD
163
381
2C8
35B
103
158
15F
2F7
3F8
38A
057
36F
09E
028
124
179
01C
158
3F1
2D2
3A8
01C
177
088
309
3FB
29E
143
2CE
14A
3E7
08B
012
16C
366
094
3E5
01D
283
001
292
391
2E6
0B2
300
28F
01B
0D5
04B
105
2BD
0C8
284
387
331
29D
025
04D
165
0A5
303
307
288
126
13B
0FE
355
2CB
2FC
147
006
102
334
2C5
3BE
355
2B3
2D6
034
28A
156
3B7
013
2AB
061
2C9
367
2AA
3BD
0CF
11E
36F
2EC
045
39E
0B7
10E
110
396
014
2F3
2E8
152
114
304
0A6
149
32D
119
345
042
2BA
2AA
099
031
322
05B
031
178
303
328
0DB
3C1
2EC
0A1
3C0
040
146
3B1
3FD
399
2AC
2AC
0C8
319
036
3F4
3F0
163
2D5
0A0
121
2E9
39B
2C6
034
118
3FE
2F2
2CD
2F2
03B
37E
32E
044
006
0C1
130
3AC
02F
034
170
3E0
0C7
2D3
2FF
0DD
3BC
34C
0F6
3D1
123
09F
00D
047
08F
054
28A
3D3
15C
0BB
395
15D
044
3BA
057
2F7
0F1
3CF
374
35E
017
383
0F4
3C9
0C9
345
145
178
297
2B6
05A
101
09C
2F3
29B
07B
2A9
3D0
000
036
344
2AD
111
008
089
3C4
2C2
132
387
03B
116
099
0AF
311
00F
2EB
293
3A2
113
3B8
2A6
3E6
02A
0C8
056
30D
0D9
06B
33F
06E
049
0B5
12B
133
2DC
392
3F3
01D
0D9
0CF
2A5
057
325
0FF
050
07F
057
00E
366
30B
0C3
133
179
335
3C2
01D
0D9
387
131
072
15B
006
0B0
285
02C
3D8
076
15A
0A4
3F2
2E2
2B0
077
284
0E9
3ED
32E
116
3D1
3DC
01F
130
2D8
2F0
085
36A
28C
100
11D
04A
119
0CB
340
32F
315
29C
392
386
3A8
342
2B6
02D
3F0
101
38D
136
086
038
3E7
110
0F2
032
322
34D
02F
0A2
16E
323
12A
0F4
0ED
384
069
2AF
29C
2A1
101
2FD
10D
3E6
13D
0AE
065
342
0FD
145
0EB
338
3C9
178
2CB
104
31C
0D3
2DA
34B
169
2CC
3A2
3E6
3F8
3D4
169
0F1
03A
0F6
3F8
2A2
11C
3A9
32A
3EB
306
144
32C
2F0
39F
120
2CD
0C8
3FF
08B
315
0F7
096
350
2E3
140
2FF
085
2AC
00A
3A4
2A0
160
39D
3DA
340
2B6
16A
018
00A
026
0CA
020
0F3
115
38F
123
355
2B8
2A0
10F
05A
39F
352
3B3
107
0CE
09C
304
31D
0F5
38C
094
126
026
0B2
03D
0B1
06E
09E
3FF
3DB
30E
0F0
380
106
144
030
2C6
0E2
068
337
098
141
06C
05A
2A7
3DD
0CE
319
0CD
3D2
321
012
09B
318
293
2AD
126
3B1
006
017
327
36C
301
0B1
0E5
159
0D8
323
318
3F1
0FF
068
36D
3FE
322
2CB
3E6
3C8
177
0A5
2FE
02F
2BD
0E6
10F
12E
325
37F
303
3DA
321
2F0
03F
31C
09B
08C
38D
32A
3A6
3DE
3A0
0B5
0AB
320
2D4
29F
373
31E
331
2D1
16F
176
08A
2E2
036
3F5
2F2
296
3A4
3A0
379
025
327
05E
0A5
149
346
293
297
317
35A
28D
0C9
35F
2CF
348
38C
06D
2ED
3E3
30A
37C
07E
0B8
29F
13B
01D
11E
140
2A9
0F2
3EE
3B6
392
0C7
088
0B3
299
3F4
0D9
088
332
3E4
149
035
2D8
2EC
39D
367
2D0
3B2
048
061
0BD
3A9
083
056
06F
2EB
0DC
01A
00A
333
10D
0A8
0A9
348
384
033
07F
2F2
30F
3C6
0BD
384
295
292
339
024
2C4
3BB
0C3
2FE
046
0B1
144
31B
042
2DF
139
3AF
379
3D2
035
39F
361
2EA
347
0EB
33D
309
060
049
0B7
38D
2DF
32B
3C0
2AF
351
159
107
3ED
361
3EA
03C
309
0E6
113
002
2FD
001
150
040
3ED
0F2
34B
383
337
0A6
10A
3CD
3B3
28B
0C8
0F4
093
04B
107
12C
379
3BB
34A
08E
3F9
118
295
32F
3F2
0F1
02A
0A0
362
159
3FD
3EB
347
12C
34D
161
07A
3B9
079
303
31F
3C3
096
107
070
034
0DF
05E
2C6
399
153
0E1
2FF
125
068
089
00D
129
00D
2B9
071
372
3ED
111
0DF
172
03E
2EA
391
32D
39F
016
330
0A3
3E2
00A
37C
354
021
083
39D
027
127
068
2B4
347
0A1
304
149
365
2CE
3AE
2A6
391
2BA
38A
2E0
39E
073
389
31C
3F4
0A2
395
315
2F4
2E2
059
00D
3F9
02E
001
0FA
2A9
127
348
0F9
11F
3C1
0D7
0FD
05E
297
325
38F
29F
2BE
12E
3C7
288
09C
048
027
35F
14C
0F2
3F6
154
28E
2BB
03E
09B
16E
0A1
0EB
307
123
152
001
034
0C2
29F
0EB
16E
3E5
2F5
2BC
00D
386
0F3
030
2EC
37F
356
2E9
306
114
02D
3CA
286
3AA
0BD
306
3C1
030
366
3C1
17C
3EF
2B6
15C
0BB
047
16F
328
091
2C0
395
0C8
0D5
2B4
08C
04D
381
00F
288
2A8
39F
290
3B5
3DC
13A
09F
00E
0BD
05B
0D2
05F
12D
3CE
13E
0FF
2A4
138
039
369
3AD
3CE
15A
00D
0C9
29A
0F1
0A1
0B2
10B
0DF
36F
089
345
2FA
0D9
2DE
00C
0D8
350
106
3A6
3F1
3FE
2EC
30A
076
338
046
0A5
0A3
331
388
171
059
033
305
322
3F4
3AC
01E
00F
077
3AD
349
12D
10F
3C3
3F0
2F4
080
317
07A
376
004
28F
307
158
0BE
136
375
38E
296
0A5
294
159
13A
323
139
115
00C
36C
2B8
2E2
0BA
155
079
09B
08C
035
0C7
323
0BB
30C
01F
3BF
005
0B9
349
013
3CC
069
0A1
341
06C
17B
06D
3C6
34B
0D8
2F6
0C4
30E
3E1
2DF
177
2A1
3F8
0E1
026
2F4
11A
379
3E0
39A
0E0
047
360
2F3
0C2
2D8
34D
3A0
374
053
380
132
014
0CC
2F2
0EE
391
0A4
30E
2C9
28C
357
2D4
3C9
3F8
2FF
285
16C
360
11B
15F
306
0C3
377
3D4
09B
11C
33D
019
3C8
037
2B4
329
06D
2DF
0FE
083
0E3
2FA
300
163
139
114
17B
132
30C
07D
0A0
3F3
3AE
3D7
03C
39A
02F
2C5
08B
3B3
3CC
3CA
34D
062
13D
347
2B2
164
078
10D
3D3
15C
3DD
01B
146
379
12D
3CD
117
141
334
2E5
053
3BC
2E0
124
15E
053
39B
0A5
025
3C0
3B7
333
3B1
02B
2FB
3F5
0CD
004
33A
28E
372
072
3D0
349
0CD
135
2DD
064
038
039
33C
17B
2B3
2E5
354
337
166
13A
3DF
343
148
035
38E
0E6
2F3
2B1
073
163
16B
2E2
348
38B
0B7
099
3D9
315
005
36E
3B5
2C0
006
024
003
06D
0A3
11B
149
056
08E
2CC
059
066
366
0FB
03D
29E
390
386
2DB
2B3
0F1
12D
2DF
2EA
13D
009
17A
07D
051
3D9
12B
302
120
021
100
03C
33B
297
3E5
178
06E
09A
06C
3AC
0F9
3F9
3AA
0F6
12D
03A
133
37F
160
152
333
2ED
13D
390
30E
3FC
3FC
3E0
325
01D
2EE
021
04C
047
36E
3DE
320
371
390
13D
3DB
3ED
2A1
0C3
3A5
3FC
3FF
29D
33B
00E
145
3E2
2D7
169
3BF
016
3A3
3A4
30B
37D
0A3
0FB
12F
037
2C8
2B7
2CD
287
170
37A
2D0
292
2A1
2E6
396
0E0
008
36F
145
3BB
3ED
2ED
317
064
107
0FF
28F
382
284
01A
078
103
005
3D2
0A0
37A
12D
35D
10C
025
075
0EB
09F
371
3A9
069
0A9
104
0D6
33F
0CF
2DB
05C
3B8
3EA
071
00C
373
3B4
07F
061
354
3F1
167
134
3AF
089
3BF
067
320
3AA
08A
2A7
29D
28A
144
09B
2CF
3C4
387
0BF
3D4
3A5
30D
2DB
300
3F2
103
0D2
2BF
337
08C
00D
0F9
106
077
3D7
0A8
3C8
292
3DD
2CD
11B
083
2E3
37C
39B
171
3DC
332
2D1
3CD
352
125
362
3A4
38E
154
054
290
081
28E
387
024
003
2AF
29C
041
28A
2F5
373
003
311
34C
2D4
05F
3FE
048
0D0
394
0A9
144
2C6
3C9
2A6
081
15B
144
14C
2CA
371
291
370
091
00B
125
013
169
103
12B
288
36C
0B9
054
0F7
090
3F6
37B
114
0A8
3CF
305
129
0D2
291
048
378
093
330
0EC
3D8
322
344
07B
16C
017
371
032
39A
36D
0C5
35A
087
0E5
0EB
34A
2D8
2AD
0A8
035
293
0AA
3B1
0FC
3D3
320
2CE
16F
293
2FE
085
082
179
3DA
0A4
0FE
0B9
05F
011
375
14C
0D9
3F6
0ED
065
3E1
133
01E
302
16C
2FD
381
32B
288
087
32A
0EC
10C
2E4
326
29D
2F8
38C
044
28A
2CC
0A4
0AB
3A6
137
0D1
2FE
135
36E
002
0E1
0AC
01E
318
351
096
3BB
2C8
031
0C8
13F
098
2D6
3C2
004
0A9
2F0
039
05E
292
2D6
042
10E
0F9
178
11D
007
30D
3D6
3D2
085
3F8
312
340
0D4
027
3B4
15F
289
058
3A5
2F4
179
3D1
090
0BD
2CD
173
12C
384
391
0CD
34C
009
10A
0E1
36F
2E5
39A
3BD
07E
3D1
154
30F
2C7
0AF
0DC
34E
03F
014
097
0CE
3B1
31F
3A4
092
073
290
0CD
299
3D3
338
3AA
05A
145
156
176
3F2
3C2
335
2C2
384
14E
299
325
340
37B
053
2BE
15F
06F
078
0C6
2A9
0CC
2D9
367
128
0F7
14D
079
011
095
0C5
3DB
325
088
310
11E
2F7
037
147
05B
389
142
390
377
042
105
3DD
154
000
04B
2D6
303
0D5
2BF
2CF
0A0
0F6
124
289
108
0D8
0D5
0E9
384
0EF
32A
0AA
29C
338
356
069
12C
2A0
32A
12A
0E6
32B
093
119
3DC
350
119
2BE
0E5
137
159
364
0EC
2C0
2C2
35E
30F
2BB
10F
16B
11F
03C
01F
0DC
367
0A9
3B4
027
389
124
3B9
06B
2FB
3C0
374
05F
2D4
17A
0F6
0FF
37A
0D5
022
35F
366
033
377
061
31E
079
015
06D
312
392
2C0
3B5
14C
004
121
286
062
298
392
350
005
3C1
055
35E
105
15E
018
335
301
2D9
336
2CD
35D
34F
01E
2D6
0EE
09D
0AB
12A
3C4
2C9
004
28C
039
069
2AF
02A
0F5
300
037
3E2
01B
089
0EF
2B6
079
00C
0BF
0C1
336
110
39D
109
299
32E
305
089
117
2CB
34E
09E
125
0A2
396
09E
3E4
2D7
30D
0CA
2BC
2C7
2D1
2DE
022
109
35F
14C
0C6
157
05C
13C
3BF
12B
03D
14C
047
044
07D
0D7
084
318
102
08F
2C8
37E
04F
057
022
06D
3C4
058
3F2
3B5
14F
0F3
390
133
3F9
0A6
3EA
043
342
09C
329
0EE
0DB
091
08B
307
389
129
13C
3BB
38E
01B
0E4
041
2FF
2B9
174
290
331
014
06B
3A1
3C0
142
0D1
309
118
107
301
3E7
04D
038
004
3CA
335
3CB
38F
146
0EB
028
382
3F6
3D5
14A
2AE
306
360
315
2E6
376
348
075
393
031
2EF
0D2
34F
34A
32B
05F
3A1
3E3
39C
3BB
2EA
078
006
3D3
08C
0CE
2CB
034
28F
3FA
0FA
0EF
2E2
348
128
2FD
349
12E
147
0FA
056
2E6
03E
01E
2BB
169
382
02C
01B
035
34F
352
081
002
2AD
376
156
00A
3C9
34C
09B
383
129
16D
3EA
39D
123
28C
0F9
2A8
02E
0C1
3DE
2A6
0FF
12E
296
324
3EC
37B
34A
07E
3DE
291
35E
01D
071
115
3B3
06F
3F8
135
0C5
011
304
2EC
134
3A5
383
13D
02A
3D9
09F
315
382
09D
2E3
0D2
2B7
317
16D
0FB
0BD
2A8
046
2BC
003
104
3FF
00A
13A
0D5
173
089
388
107
3FB
0C3
3AF
3FA
09D
112
299
089
3EA
3B0
110
2EA
371
14C
369
093
041
07A
36E
35B
163
04C
115
320
077
29A
396
10F
08E
16C
154
125
331
17B
000
324
04B
09F
045
01B
31B
138
3BE
049
28F
3EF
2A1
083
16F
348
2CA
097
0B4
316
130
0C1
34B
000
35F
3FB
061
3C8
3E8
093
152
102
176
061
301
103
14C
165
36F
320
142
2A6
3CF
35F
374
01B
108
317
163
2F9
354
021
319
127
3A9
153
16D
012
2CE
3DC
35B
310
3E7
046
135
3FA
08A
044
2BE
0E6
2AC
332
2DB
043
08F
39B
156
130
055
11E
031
166
2AA
177
11E
31A
015
3D2
07A
0D4
2B4
3A8
09E
076
10D
3F1
154
3FE
176
349
063
069
3B5
2FA
35B
386
0B6
34A
2FB
0DD
2FB
3E9
32E
2B1
3A9
11E
3EA
2AE
0F5
044
132
359
3A0
143
3AC
3D4
0EB
173
3C4
2CC
139
0B5
2BD
0FE
395
03F
37F
091
0DC
096
03B
3B7
11B
2C1
0BF
3D5
396
381
2DF
0A9
06E
087
012
2ED
370
2FF
369
093
32E
286
170
2CE
174
35A
0AF
2B5
289
169
304
076
015
072
0D8
3B4
2D2
2A3
0C7
34D
099
124
366
3AE
0F8
07A
0AD
00D
297
345
36A
286
29B
07F
0BC
162
0E2
339
12C
045
30E
303
29B
38E
2AF
3DD
38E
337
0EC
0C1
2F7
3E9
3E7
038
2F3
3FD
116
07F
376
303
116
0F2
0D1
3B0
2AB
305
2B0
120
32B
006
3B5
0D8
387
363
3C7
169
3B1
10B
0CA
14E
010
12C
2E9
10B
11A
32A
3ED
031
2CC
057
295
02E
376
3C6
088
33E
3EA
14E
15E
2D3
31E
300
3B1
2E1
3DD
033
327
128
129
09E
09C
2E6
10B
361
102
0F5
334
085
094
088
0DB
07F
04E
31E
175
095
0CB
351
011
349
3D6
361
0C6
3BB
164
36C
2FB
288
0A9
035
28D
2FF
0DF
2A9
39A
3C2
32C
14F
042
34F
015
3A0
109
34B
14E
2BB
3DF
103
174
397
37B
047
138
0DE
060
3B2
0F9
351
041
3A1
3F5
394
3CC
15F
31D
3AD
089
2C4
090
174
09F
14D
2D9
37B
3BA
2ED
150
00D
0A5
05F
2F9
0E3
068
175
2DF
071
103
3AA
369
3CD
15F
177
323
009
00F
388
06C
294
371
04B
3B4
383
2DC
165
3BD
025
074
3CF
12A
179
056
0ED
153
3ED
149
3CF
039
3AF
320
31A
349
014
086
34B
2E7
303
047
304
2C5
161
32A
2F0
329
00B
04A
043
0EC
354
392
052
39A
349
2B0
377
02C
33A
3EE
34A
30D
2BD
0CC
31A
369
150
02E
395
3BC
05E
087
2BC
114
08A
381
2E4
30D
04F
33A
3F9
3C1
2F4
296
087
086
2F2
2FA
157
37E
0FE
019
0FF
3EE
3BA
01F
2E1
015
2DF
36D
357
3B7
17B
0D6
04B
092
023
33F
016
13A
01F
305
3A7
05F
2A7
027
122
354
365
0EC
2AC
109
36E
0FA
38A
2D9
32C
0EC
380
090
102
356
3CA
16D
13C
077
39D
308
2A7
3F7
28D
153
313
10B
2CC
2B1
36E
33A
3D8
2E7
051
2F9
39B
3FD
07E
3E3
2E9
36E
066
101
2C0
057
33C
173
3CA
3FE
30D
2A0
367
2F4
332
094
39A
063
295
167
317
0CC
078
166
08F
2B0
171
0CC
097
013
0AB
11D
177
090
3E9
356
0FE
0B8
28F
394
136
2EF
288
39E
179
16D
2F1
07D
3E1
37F
387
318
374
356
16B
164
32B
085
026
012
01A
33C
046
3C4
3E3
2C6
123
067
320
006
153
012
2A8
0F6
30D
073
106
3AE
151
32A
121
2B7
3CD
339
3C1
379
06F
077
319
08A
3BC
12E
37D
0FC
170
004
0F0
34B
2D0
31C
053
025
021
33D
036
04A
125
3C5
3F2
34A
02F
316
03A
097
165
2EA
05F
3F9
0AF
296
043
322
0AE
0F9
08C
04D
313
089
051
2F5
2C5
17B
294
063
3CE
357
3A1
0B8
2E8
0F6
082
2C5
163
137
3F6
016
0C0
05D
3C0
0A7
046
14E
022
348
097
10D
085
36F
16C
32F
03C
29C
178
0B4
3AA
2D6
394
053
110
310
0DC
15F
2C5
14E
03A
13C
0A8
3D9
0AF
17A
3EE
0FD
0DF
2A0
059
0F9
388
392
113
2FF
2B0
351
006
00E
09F
2E2
2F3
357
3A1
0E1
39A
10C
0FA
284
0AE
348
04F
097
34D
3A5
30B
068
012
06B
3D0
2DF
143
38F
00C
177
07D
3C7
0E6
3BF
36E
2C7
139
28F
3A8
2B5
022
0B9
13A
036
326
0BD
09D
2B7
307
2F7
2A6
3FB
11A
295
3B8
0D8
30E
301
3D2
00F
0B5
3BC
003
011
343
3BA
109
064
071
3D8
09B
15C
396
086
088
2A6
111
3C0
0CC
0B6
378
050
2AD
31E
029
32F
148
299
309
2A9
028
0E0
3E6
3C4
0AE
01F
3E6
3AD
286
3DB
32F
3E5
390
354
099
2FA
3D2
0DB
119
3FC
089
08B
2AA
284
07D
38F
383
134
297
0E4
3A3
11C
2FC
3E4
0FD
2E5
009
063
30C
3B2
0C3
123
151
059
054
01B
08F
0B1
3EF
0E8
3A6
35D
073
0E1
0CC
2A8
02F
0B3
004
384
01D
065
021
3EA
0F0
31D
116
315
03A
3B7
11F
127
127
3EC
12C
37E
307
29B
110
155
080
10F
11F
3B2
0E0
2D2
3CF
177
030
137
04A
14F
036
38A
114
0BB
0AC
0E0
0EE
099
0FC
0E6
308
288
040
2C4
29D
159
156
355
2BD
143
319
04E
126
3E7
30D
2C7
2FE
2FD
29E
337
0E7
3C0
041
331
38E
022
2B0
0F0
057
2CB
29F
033
309
29D
2A0
039
2EF
078
396
0BB
2A4
02E
2CC
362
099
08F
00B
127
142
2AC
009
36F
14C
326
042
128
296
0BC
08C
395
383
16C
039
3B1
3FA
3F5
151
018
051
386
2A7
2CE
359
145
340
05D
02D
03D
00D
027
03F
0E8
3E2
029
0D4
371
334
2AB
2FA
02A
040
32A
13D
121
114
3D1
0C8
2E3
336
0F0
09D
3DF
3D2
11C
0BA
3DF
3A0
303
057
28B
034
05B
3CF
306
39C
3D4
07C
161
0A7
0CA
112
3FC
001
3B3
14A
2AA
0DA
37E
0CE
29A
155
31F
2F7
38E
3ED
0B4
031
161
390
0B2
08F
333
04B
0F3
335
352
292
0E7
028
04E
32D
2A4
3F2
078
3DE
026
2FE
117
39D
37B
17A
11E
03D
2E5
072
0C4
2D6
2E5
293
309
2ED
3D4
01F
12C
342
082
2C2
373
020
392
018
3EA
152
0A1
359
33E
3FE
02C
087
31F
13E
2CD
059
15D
3FF
2AB
2FA
2BC
030
2F4
3B2
17B
306
340
133
0B3
3FE
357
381
121
3F3
139
3A2
350
03D
2A1
164
3A9
36F
06C
313
381
07A
01A
0CD
293
3AA
34B
171
0CA
114
162
3CE
119
124
2BA
369
179
3EF
036
2F6
3CF
317
2E8
0D5
3E8
0F4
0DE
001
0CB
08A
35A
2BE
38C
306
2ED
069
3A3
02F
0A8
31A
004
315
169
38B
10D
06E
2BF
03E
391
009
32A
129
296
041
116
2C6
36D
08D
305
28D
06A
0EF
0F1
331
341
3C3
0E0
3C7
11F
0FA
2D3
396
02F
3BC
36F
0D9
311
090
3A7
31D
0FE
3EA
0C1
07E
30B
126
09D
029
01E
039
140
323
331
34B
163
2DB
172
0B7
2FC
0E4
349
00D
0D5
02B
3A1
2FE
033
3AD
004
118
0BD
11B
2EF
3B4
2FC
161
2CA
0F3
08A
393
046
098
3D8
365
06F
29C
31C
3D9
372
3D4
0F8
391
0EB
077
04F
393
333
11A
2BD
050
006
3EA
158
045
3E1
013
315
068
091
0E8
369
3D4
001
3B7
3F8
3A6
097
31F
0D1
09B
2EF
2C5
350
350
095
33E
0D2
14E
0F6
032
07E
073
0A0
3BF
2E9
0A6
372
0C6
32C
3EF
0D3
33C
36B
362
162
28D
2D6
106
025
2FE
3BB
391
064
3D3
05A
2CF
0E1
395
39E
011
3B1
03A
033
174
28C
16E
2CE
0DD
0D1
00A
34F
055
35B
0D5
2A7
3D0
14B
3CB
3D1
019
319
121
388
3B6
103
387
0E5
3B6
04F
0F8
0DF
398
003
38D
2B2
0C2
339
0DF
0B5
0EB
38F
395
298
0E9
294
390
2ED
3A8
320
16B
119
089
015
0C4
14F
292
3A0
39B
3D3
30B
015
0E1
3BB
0ED
111
132
2DD
00F
3AB
0EC
2D5
0AE
178
2ED
2FD
364
171
385
2B9
0D5
2A1
037
106
318
2A0
120
3AA
171
0E5
3E6
328
00B
017
3CC
3E3
297
0F3
0BC
328
063
087
0DA
068
14C
34E
135
088
2CC
17A
29C
071
13F
2AB
008
2BE
327
2D9
11F
2DA
009
075
121
37E
351
374
0DD
0AA
0D7
285
3F0
026
33C
168
39A
2D6
2EA
320
34B
0AD
0FB
05F
0D1
2E5
122
2BC
3F7
05F
022
0DD
324
368
120
2A5
146
3C8
2CD
3EA
0F5
37B
04E
146
06B
287
0C2
3CF
066
11F
0E0
178
3E8
3EC
07A
3DF
2A7
3A0
128
14E
37F
300
127
165
0AE
15C
08B
3C6
0C3
0E7
125
094
093
2B1
13F
0CC
3D1
3A9
025
392
0F8
0B2
0AA
0DA
392
3DA
149
126
176
0D8
3D6
039
0B7
2D1
084
3BC
0BA
37A
096
31B
2E9
118
320
11B
019
31A
094
049
31D
148
0E0
2BF
2E3
3C4
31A
34A
388
177
360
3D6
023
013
045
0E6
054
009
0E6
136
12B
3A4
308
334
08D
136
352
3DD
363
009
06C
348
30A
327
36B
2B2
11F
064
0CF
095
003
10D
131
368
101
0F0
29B
046
2B5
3DF
17A
17A
3D5
343
05C
106
01A
175
0D7
3C4
34D
28B
3AE
304
0EE
08D
027
0F6
0C7
2A1
06F
041
3A8
062
09A
31D
118
3A3
28A
316
102
284
30B
132
38A
06F
17B
35F
32E
0F9
07E
2FB
2CF
3E8
00F
165
06C
145
064
02B
0FF
3D8
133
13B
09E
346
2DF
008
397
326
2AB
101
0C7
32E
35D
2A1
2E9
306
0F7
0E1
167
2B4
018
083
336
29D
34B
2EF
3EE
100
168
158
0BE
007
3FF
2E4
3F5
03A
174
299
117
3FD
11F
034
3EE
327
0B0
0E4
044
100
0C0
337
31C
3C9
115
289
3A2
0F2
0A8
35B
127
055
371
2D1
377
03C
3A8
3DC
05D
3EE
02D
388
0BF
2AF
2D4
28C
2C3
072
289
381
36A
3C3
141
086
0A6
2EF
316
389
295
287
0B2
012
0B2
3B4
2BE
063
116
3FB
070
003
3A2
00C
3E2
3EC
115
2ED
0CD
02D
009
046
07D
0F5
09B
2B4
354
04B
382
15D
030
163
2C3
3BF
2F0
094
37A
02F
0BC
15E
2B6
380
04B
0E7
136
30E
34B
0A1
2F0
09E
3A1
3C8
2A5
165
364
167
0AE
2D9
308
36E
35F
0F0
12F
05F
000
0A4
176
3F8
2E9
16F
0EC
060
030
36B
077
327
0A5
2A2
369
0CD
104
2D1
052
16F
2A4
324
02C
35F
299
03A
360
15B
376
078
2E7
10D
288
380
049
14D
2BD
286
04C
3D5
2E0
302
3B1
0BC
336
3A5
015
2DD
2DE
3A7
37A
117
32C
36E
105
3A5
354
124
353
3C6
329
0E3
3BD
179
2C0
06A
38D
003
3CF
008
034
172
321
313
35B
310
034
2D4
2F8
031
2A2
2FF
01F
31F
3D5
0FA
044
087
3F9
01F
29E
17B
0BA
34C
376
2E3
335
304
06F
029
136
36C
085
318
3E4
3C6
326
2F8
2D6
3C9
046
29A
305
092
14C
028
0B2
15A
13B
36A
009
01C
159
28A
3C7
3C3
150
0BC
2AC
086
322
0A7
34B
2C4
397
05C
31C
290
11F
03C
305
2CA
0C4
0BD
134
30D
2E4
04E
3D9
067
3A8
30C
2EF
2E8
2F5
2F9
063
3D6
073
170
37E
12D
2AC
2A6
001
0B0
380
093
0B7
39B
092
2B8
0E1
0F8
10F
107
057
35C
2AE
2CC
3F6
052
32C
298
090
0BA
3A4
3CC
09D
174
124
32F
110
177
152
39D
3BC
3D7
37A
2D5
081
08A
0D9
017
0FE
0D2
37B
0A8
2C1
0BF
3C2
01E
3D1
306
2E1
0A7
2B6
2D3
2D2
345
2F3
029
170
0B2
2AB
2AD
37E
16F
28C
043
171
0BD
13E
364
3E2
30B
2C1
338
125
348
0BD
106
385
2E9
0C8
174
05B
356
347
05C
108
2BD
094
2ED
378
330
2AC
3AA
3A4
018
017
07F
0D6
071
2C9
00A
393
088
0F2
334
163
087
3F1
0E3
068
10C
0D6
177
088
34E
287
174
372
2F0
0C5
34D
368
01F
0BA
30E
10A
033
11F
09E
3D7
0D9
3F8
355
136
161
300
073
3FC
339
38E
04F
138
0A6
0AB
29B
079
36D
2B4
2D2
02C
0D6
022
3C3
0DE
073
12E
17A
096
079
044
12B
090
0F1
047
16C
00B
2CC
3FE
085
343
28F
0CF
368
051
099
0DC
07B
0E3
32B
2D3
0DA
2BA
0E1
2D1
11F
110
133
316
37A
08D
381
2E9
326
327
28F
390
3DE
13A
0D2
114
133
124
0FF
392
2DC
100
16E
303
382
087
174
293
011
153
079
011
3AA
064
2D3
161
033
168
112
2D0
121
089
0A1
30B
165
0E2
3AB
01C
0A4
3E3
15C
0E4
13F
111
138
383
3BC
37F
137
3D8
2B6
113
12E
38C
128
2EE
30E
173
008
3C0
2AC
38A
087
08D
073
026
304
2BA
3CA
0DA
3A4
364
30C
2A5
2C7
3EC
115
163
023
141
16C
055
17A
171
33E
0D2
28D
027
0A7
094
2EE
164
386
126
289
0BF
3B2
092
2A6
176
3EE
293
053
0FF
2A6
37B
033
10E
104
009
3BD
39E
350
03E
06F
31D
025
02C
05F
133
32F
39E
0C7
351
11B
343
298
0AA
051
3F2
067
0E3
06B
287
169
0BD
037
134
304
3D6
105
108
34A
105
32D
394
04B
35D
0C6
36B
351
3BF
033
045
16D
110
35E
006
36D
143
0AD
15E
054
0D4
03E
139
161
37E
006
37C
0AD
00B
2DF
177
35C
336
008
0F9
3D7
0E2
127
0C6
3CD
0C5
102
306
093
38A
29E
2A7
135
324
343
0EC
164
033
060
008
0A5
372
094
32C
107
372
136
0AA
31A
13F
066
0F9
0D8
168
3F5
2D9
0CF
07C
0A8
3BC
0A5
3F4
0A1
298
3D2
0C5
0B8
3A1
3A2
2CC
08A
3CD
153
38B
3E1
294
0F9
296
2E7
2A3
0E3
077
0D9
2C1
349
024
0B9
168
2B8
056
0E2
2CD
087
01C
366
078
322
141
15E
3A2
047
28F
09D
0D4
392
0D7
13F
3E3
11B
30F
2A5
2A5
13D
3E1
324
2B1
382
170
042
0A9
2CF
0B9
29D
087
308
362
28E
10F
3C5
3F0
141
0FD
006
382
284
081
043
35C
166
072
3B4
3CC
03D
042
29A
3EF
31D
2A1
0B7
2B1
098
2AA
38C
15A
042
2C7
0AB
16D
31E
284
3DF
39C
39E
01C
0E5
2D2
13D
0EC
007
3F9
129
0A8
0EF
371
04C
15C
2B5
31D
0A1
2FB
3A7
0B0
0AD
365
119
2ED
129
352
00B
2C3
0CB
0EA
308
14D
0FD
0EA
339
286
154
36D
14F
38B
174
154
0CC
2DB
028
155
00C
106
3D8
168
313
063
29C
121
345
3A8
3C0
060
0DA
384
025
2A1
16A
06D
15E
030
035
12C
2BD
0B5
375
384
2C9
363
001
0B9
36B
01B
004
3D9
2FD
2A9
39A
335
11D
079
3A6
10E
3B8
13A
392
0FD
2DF
2D1
019
109
100
0F6
106
2F6
0F2
04E
0A2
03D
079
31B
3B3
3AE
141
354
356
115
348
0D0
31B
284
2ED
11F
0A1
369
125
012
2E7
30A
37C
2B9
13F
113
383
119
3D7
11B
34B
2C3
390
077
2DA
308
3B2
396
307
2D2
132
0F1
332
09E
2A8
144
2E0
2E7
386
168
2E9
145
15B
32C
3A3
080
12A
0E1
0D6
052
066
0CA
3B1
024
349
2A1
162
075
0AA
045
31D
2CD
3B7
04D
2E9
3EF
160
176
08A
286
04A
33F
373
053
122
047
0A4
3C3
3D5
38B
3D1
156
173
39C
36A
0EB
046
2C5
399
2E9
15B
092
3ED
0E5
2A0
10C
06C
15A
03B
336
09A
3FC
09A
07A
00C
367
333
110
3BE
352
3A2
0DC
307
0E1
2D1
123
01C
153
3C5
158
392
063
2A8
37E
153
389
112
0F5
0CF
2CE
115
3A4
12F
32F
351
01C
3F8
29E
2E2
0B2
062
39F
0BE
11B
32A
3A2
33E
00B
294
0C2
370
327
39A
133
082
31F
35C
00B
326
28B
0AF
100
2A4
2A2
2CF
32A
39A
025
291
315
3DD
3FB
317
299
3F6
342
030
324
328
38F
08F
295
3F4
16A
364
050
380
0C7
39D
30C
172
341
3C9
34F
0A9
049
2B1
307
3CE
3CD
3CF
111
094
3EF
2CF
3D9
3DE
2D0
081
0A2
338
146
3EB
11D
027
2DA
3AC
01C
14D
04D
3AD
07B
00B
024
0B5
08D
285
2DA
11E
366
374
2D2
3F9
387
3BE
355
013
175
040
0F9
3B6
124
137
071
293
2C6
0D9
0E1
286
398
28A
333
07A
3DD
0C5
3E7
07D
28F
3E1
367
008
3F1
005
352
2F2
379
2D7
3C5
13B
3BA
384
2AE
289
080
3F5
013
35A
109
2EE
3F6
04F
05C
28E
12E
36E
38B
037
076
3CA
2DA
15E
043
0B4
060
2DC
32F
3A4
36B
32C
2BA
3E0
00D
330
2A1
0C9
2B9
311
325
140
07F
053
12A
3E7
39F
31C
2BB
167
147
144
3FA
3B2
0A8
0C2
3C1
306
09B
15D
2E2
2AE
3B9
01F
176
155
3E6
092
395
016
28F
04E
098
319
368
14E
3B9
042
012
38F
16C
2CA
15A
2F7
021
31F
0CF
31C
398
022
020
3E4
039
092
126
3CF
3EA
3B5
02B
2AE
16D
316
148
007
07A
2BB
01B
06E
399
2BC
31C
318
34B
0A3
3CB
121
3BB
3E9
288
332
28F
2A5
03A
17B
06A
0A2
3E1
061
065
33E
3DB
298
369
14E
3F0
08E
3B7
045
33F
12B
2D9
314
348
3D2
289
34B
3E0
12E
128
0FD
10B
3E8
04A
02F
3C9
03B
14D
2E4
0A2
043
2F1
03E
131
31C
048
121
286
106
14A
301
2F8
34C
088
0AF
078
321
007
35E
2AF
171
299
332
3F3
2A4
070
090
333
2BE
2BB
3C3
0E2
014
3B5
0DA
321
05B
2F5
290
006
0F0
12A
0E5
29A
3CD
358
014
0A0
2EE
2C0
359
026
136
3CA
34C
385
09F
0AE
3D3
00A
392
3F1
324
3AD
3F5
2C0
036
287
3FA
0B5
3AF
2A5
3E6
3C0
0A5
07B
345
0EB
2BB
0B1
100
008
174
31C
0AF
3DC
073
0C8
03A
05F
043
36F
0B0
0BE
3B7
130
3A5
0A1
367
3A6
336
02F
0D0
030
045
295
07C
3B0
148
332
3E0
2EF
372
364
15A
0B5
2E8
15C
09E
2FA
381
03D
065
28A
378
2FC
159
0ED
3C8
317
108
3BC
16E
38C
375
026
2D5
350
0F7
14D
019
124
007
162
0CE
0A6
315
055
096
105
338
305
36B
14A
03D
3BF
327
3AC
053
0F8
32B
02D
31C
395
319
148
03A
01C
2BA
38A
2F7
17B
36E
351
134
39A
0A6
051
0A6
0E5
10E
2C7
2F6
03A
336
3F0
3E7
3A2
2A8
3A7
3F5
02F
125
2D0
31C
06F
29C
305
020
068
034
08A
2F7
02B
2CD
357
348
135
303
031
2C1
0D1
357
020
10D
105
13F
399
147
0C2
2DD
176
147
0BF
2AA
08F
12C
0F4
3FD
10E
09B
0EB
38B
38E
2E1
162
385
2E1
114
3D9
346
0E8
08D
2BA
0EB
2D2
166
012
3D2
3C3
2D0
2D3
13A
055
02A
11F
2BE
3EE
044
3BD
160
021
0B4
318
3D8
02C
0C3
044
29A
38C
3AE
2E8
3C0
02E
383
357
0D8
33C
3A0
3E7
3B8
037
32C
3E8
030
06C
2B4
398
2D5
024
354
089
326
2FF
36D
034
35B
054
3B5
081
0CA
2E8
315
0A3
09B
04E
047
028
11C
113
179
3BA
2B6
028
061
06C
29A
14D
3DB
0F7
315
111
2FD
16D
0B2
3E4
35E
2F6
041
3B7
098
39E
104
088
2DD
36E
03A
12A
116
306
366
2DF
3CE
166
2C3
039
0BB
3A5
29C
033
003
094
38C
332
318
3CF
0DD
13D
0DE
13C
154
0B2
320
2D0
2E7
287
01E
2A3
15D
327
0B6
347
073
00E
3B1
08D
05D
0DA
164
3BA
387
078
29B
008
118
101
3A4
097
023
32F
061
00F
3F2
003
021
2A0
2C9
34F
009
176
017
393
2FF
169
36D
0A0
3D0
0A8
317
16A
035
011
022
2BD
2FF
2C2
2FB
135
12B
0F5
01B
02C
2AA
3FD
2B3
3D4
39C
33D
340
12C
0DC
064
3D3
09D
362
090
3CF
340
39B
011
374
299
0AB
178
0A3
0FD
2FA
367
001
2E3
3A6
047
11B
385
046
3F6
2AA
014
286
36D
12B
347
3BF
3A4
117
299
12D
00E
317
3CA
3AD
0E9
2F6
2F7
3DE
36B
0DB
32A
38E
3EC
380
0AA
3E7
2F8
334
2C0
0B4
323
12E
148
153
3BC
000
056
2A0
0DD
2EE
0B5
0B9
3CD
15D
032
3AB
122
31F
049
0E9
3C1
2A8
3A8
3EF
142
2E4
0D3
163
059
06E
059
174
3E6
3EA
139
0AC
34B
134
300
0FA
0DF
05D
2D4
05C
3E5
151
0A3
318
050
10B
0E5
2A4
2BE
2C6
352
024
3DE
161
0AA
00C
3AA
110
39F
2C8
380
16E
09F
09B
14A
39F
35B
366
058
2AC
04A
3FE
2A4
308
128
129
345
2AE
117
3B5
057
3CC
2AF
13E
106
2F2
09E
159
33E
027
03E
08B
0A5
111
336
30D
0BB
047
03E
2C9
3AA
13E
169
01B
35C
32F
0A0
03B
0E3
3BB
2A8
11A
100
3A2
356
155
341
007
15E
039
283
09E
013
054
29C
31B
39B
16B
01E
2EA
100
31A
2E0
02D
03A
2C4
17C
0A5
299
391
060
2DC
329
2C7
09E
2F7
3ED
015
099
027
069
31A
305
178
313
298
350
14E
31F
172
316
052
3EE
2F9
0A7
2EE
35E
2DC
138
06E
2CD
3EB
10A
0AA
3B5
0E1
3B2
2A2
31C
131
398
02A
10F
093
0AA
0B6
3AE
01D
3B4
05C
37F
06B
107
139
13D
026
0D9
2F6
149
056
0D7
298
2F9
02B
2B3
2E3
323
0D3
3C9
148
31A
3E7
296
14F
0AE
0EA
0F9
0C9
3AE
143
35E
085
308
078
3A9
390
06D
0DA
135
0C9
03D
0DE
342
01D
02D
0AA
158
2AD
011
322
01F
093
375
0D7
14F
396
103
04D
064
0FD
00D
2B8
2B6
39F
01F
067
339
014
3CD
3AE
346
0FD
2A5
339
3C3
39A
35D
0B7
073
076
2E8
079
33D
01C
0B0
0AD
28C
325
05F
103
051
133
052
3FB
322
299
287
359
033
2BC
080
2E6
128
004
092
3C9
01C
2EA
32A
095
2F2
162
0E2
369
0F5
13A
3FD
350
0BA
3C1
0E4
326
37A
370
2EE
171
0FE
3C7
29F
354
0D0
043
3DD
0FF
2EF
08E
097
09A
287
14F
0F6
0E3
3C6
0A2
078
12D
3D0
3A8
3C1
2B8
08D
00A
0F1
355
048
318
0BA
32C
382
00E
0DF
399
083
33D
023
001
08D
073
3D5
0E0
0A5
0D5
057
174
38A
35C
155
123
3CE
35F
064
341
0EA
0CB
06C
308
318
366
022
029
398
130
0A2
371
152
2C4
10D
321
024
3B0
0BB
038
03D
143
0B1
0D5
070
058
3BF
177
0BE
292
0FC
3A7
346
07A
3E0
2F0
09B
149
397
17A
148
11C
136
350
31E
3F2
31C
2AE
081
058
17A
2E8
12D
028
13E
050
292
17C
35E
077
303
15D
159
061
07A
381
138
10F
05D
14F
2D1
023
054
0B6
2F4
0FE
311
034
142
02C
2C2
0B7
0A2
10B
0D7
02D
074
301
341
296
31E
110
3CB
08B
0FC
173
174
327
35D
099
2DF
06C
0E0
045
2AC
051
3F8
012
093
14E
098
2E0
31F
3C2
334
2EB
2BF
0AE
2A5
07E
14F
129
2C6
020
3AB
136
072
3E5
118
0F5
378
293
398
2E4
0CF
10E
32E
0D4
011
0A9
38A
158
115
05E
0C4
056
2EC
354
042
104
07D
16A
322
041
0BC
019
149
141
2EE
11C
0E0
000
0FA
0C6
332
05A
0D6
0A0
293
330
380
0B6
0F8
329
101
2F8
2A6
316
10B
396
15E
15B
0C8
059
155
146
3A5
3AB
033
08C
3F7
322
0F1
294
29E
0EF
178
3ED
2E5
16E
0E8
0BC
0BA
317
3BC
2A9
149
166
3D3
028
373
2DF
081
14E
390
137
159
0E0
160
3DD
007
0BF
300
2ED
003
08D
0DE
35D
3F2
291
09E
3D1
0CD
0D2
2F3
08A
299
133
295
08A
2AE
01F
071
3AC
175
2BE
059
3D3
354
0EE
290
37F
03C
2C3
300
3B4
008
0E1
32C
03D
08B
36B
286
3FB
373
0AC
39A
284
142
378
295
3CC
39D
2BA
3FD
069
097
349
09E
082
156
16D
057
305
03A
33E
2EA
173
16F
3DA
0F6
06E
2AF
2CE
0BF
164
057
149
04E
117
3F3
285
3C0
3B6
0A9
388
315
342
0F3
3A2
121
011
2B8
11B
3C1
366
3A2
0CA
094
375
13E
2B4
3F1
37E
13E
0BC
306
0E6
039
28E
09E
04C
0AD
347
3B0
386
118
140
36C
355
3A9
045
386
2DB
0CD
380
3EA
2F2
014
0EF
2D8
03F
086
3F3
14F
355
340
37B
3A7
2BC
0D3
36F
0B4
023
380
160
2E1
294
3DA
146
371
357
33F
09B
3A2
01C
3BF
3AB
04F
317
2B7
287
0CB
301
382
0D7
2A7
14E
3CB
289
058
3F4
3C4
02B
042
0B5
32A
337
29A
0A2
0A8
067
29E
2C5
012
0D9
127
2CB
009
33E
3FB
101
105
2EB
057
0E3
33B
082
2D6
158
16B
0D9
3A7
2B7
3DF
322
096
36B
3A2
055
0FA
080
0BC
3FF
3E6
2B4
3E5
377
305
04C
383
0FF
153
28D
370
323
138
0F1
3FC
0AA
011
367
33F
08E
2A7
076
12C
35F
018
368
351
168
111
34C
090
3B3
3A2
0FA
035
3ED
14A
144
0B0
35C
124
380
140
37E
062
11F
127
0A1
286
0E0
0F7
06C
344
0BD
0DF
013
142
068
36D
02E
0FA
11C
0CC
14B
151
29C
13B
07B
0D5
015
11D
16C
2AF
126
085
3B5
3DC
391
028
031
398
084
05A
08B
3D9
0C4
0EC
3FA
0F2
13B
385
15A
39E
0EE
072
165
292
355
177
2B1
062
150
3E5
3AB
32A
13A
0D0
073
3D8
293
3FA
004
314
2B6
2A2
2B5
091
2CA
3E1
0E0
289
0FD
170
286
04C
03D
0C8
304
2B4
0C3
098
3BE
062
170
392
37F
2C8
029
2FE
14E
330
351
388
13C
094
291
317
156
02B
142
14D
2B7
2EE
285
15D
147
0F1
0F9
033
058
3BB
28D
3E4
2EE
2FF
3DD
02A
162
148
2D5
118
3BE
360
384
118
031
05F
2A1
2F1
057
16F
2BB
0D4
079
29A
36F
176
2A2
05A
127
04E
15A
3B9
093
2D7
307
13A
35B
37A
17B
297
04A
11F
165
367
369
10F
298
0F5
13E
0FE
2DF
12E
331
156
2A0
0D8
041
32C
3C4
310
39A
160
3D8
3AC
38A
038
39D
01A
030
2E0
34C
29B
2F4
321
3C5
020
360
2F5
125
084
349
3CC
0B8
2B3
0B2
389
3E9
07C
3E7
141
12A
052
168
2EA
032
32B
029
381
0BF
11E
0A7
076
013
28A
3A0
0CB
3FF
078
393
2B6
05A
37B
01C
149
30D
046
12D
3AF
2B7
2E3
3AB
3CB
039
14E
349
098
323
0E3
01B
342
2A3
0E5
318
04F
3F9
2CD
2CE
296
0D3
082
2AD
103
2C4
287
394
3D2
388
3CA
086
03C
02F
069
0CD
06A
2FD
2E9
170
0CE
2B9
147
0D0
15B
14A
297
387
021
008
152
105
2CF
0A1
116
057
0D6
331
365
2F3
3AE
3FC
2E2
014
2BC
0FF
09E
068
394
35A
2C7
146
3B3
371
39F
02A
012
31D
2A5
32D
131
045
3B0
34C
3DA
295
2FF
288
2CF
07E
2A5
3C7
298
353
2D0
3E6
3FA
168
112
14C
3ED
08A
348
2C9
3D6
2EC
175
3B6
065
0A0
102
0E2
046
021
0EE
087
304
399
38E
3EE
332
179
053
336
01B
146
020
08A
34C
3F6
368
2C9
034
32D
3CC
114
00C
3D0
10E
16F
050
2B8
293
369
159
0B3
2BA
28E
06C
0B8
0F0
39F
0BF
0C9
2A9
114
2D4
321
12E
056
02F
12A
3FF
014
05F
04C
081
2D6
059
10A
3F4
3B4
024
2F5
366
352
375
2D6
2FE
2EE
337
2F0
0F2
02E
0FA
36F
071
0F0
0C1
179
0BF
111
03F
0E0
322
16D
28E
285
32A
026
3A0
102
3B4
06C
355
32E
109
357
00C
3D5
037
150
28B
04C
107
32F
355
12B
061
3DF
306
0CB
3B3
34E
162
02F
069
306
0CE
3CB
295
3CF
345
34E
397
312
09F
08F
051
386
315
07F
0AE
146
110
14B
11A
3E4
15B
13A
0C3
36F
119
2E3
2E5
373
340
11F
0CB
09A
0F2
072
14A
2B0
2FA
0E8
177
3FA
11C
141
3A2
30C
060
2DB
07F
2F5
393
3FE
17A
033
0B0
397
179
12D
0AC
321
2BF
179
2E5
28C
3BE
152
2B9
3FA
2D9
38D
3ED
0BE
15D
2AD
323
0B1
0CC
3E7
09D
285
13F
3CE
298
29B
3C7
37E
302
096
02C
0EF
324
3AF
035
2E2
28A
01A
055
35B
01A
3C9
0A4
176
08A
330
28A
12C
2DE
028
3A3
3B0
0AC
0AF
2D7
060
14C
3A7
005
078
172
2A0
284
14F
02A
29A
3CD
2F6
344
331
178
28C
17A
142
3C4
3F9
03C
038
006
022
2B1
153
36A
097
0C6
12C
04C
142
0B8
2DA
365
15D
0C9
2E2
2FC
3B6
024
043
310
034
3F8
03F
09B
392
2C5
095
10F
288
3B2
0A5
351
3DC
057
109
374
3D3
05E
2D2
3FE
3B9
2F0
3F3
3F2
36E
39A
08B
05E
006
0F8
07E
3B9
02E
2B3
2B5
14F
000
331
2AE
379
2A3
3D1
3E8
38B
074
287
045
15D
2E2
3BF
2E8
0F1
3C7
286
01D
391
12E
2B9
304
2F6
0B4
34A
006
15E
33E
050
289
320
0A3
2A7
012
065
06A
133
161
2A7
298
368
3FB
06B
374
06D
3D2
14A
3DA
390
014
2E4
153
156
296
100
071
0AB
3B3
156
16E
3F6
046
108
097
147
3FC
03D
12C
3DF
3DC
0A9
32A
08F
02D
042
15A
0AA
303
296
394
059
130
375
2D6
31D
34B
33B
2B0
007
0EB
109
355
052
08C
016
2FC
397
34A
149
3C2
16C
088
008
3F8
109
0EF
2A4
0BF
3B4
301
152
0CA
364
33A
121
12D
289
0AB
0C6
0A1
0BB
394
012
045
0C9
11E
06F
2FD
3D3
31D
14E
082
3DC
14E
03D
02B
06C
3A0
126
35C
078
136
384
286
359
038
0DD
109
009
174
3A6
34D
133
33C
004
332
35C
394
3E0
3E1
37D
0A9
310
28F
120
2DD
018
301
0E5
115
17B
0C4
2FD
02B
064
0B2
07B
36A
288
0FB
386
0B4
077
334
0C8
0FA
0EF
051
2B7
2A5
174
036
14D
3ED
022
388
308
169
2B8
2D8
162
0CB
05A
36B
120
28C
124
04E
12C
05D
2A5
3B0
2D1
171
10B
0CB
03A
3D1
37B
29B
3E8
0A1
0B8
0FF
021
355
341
00F
066
336
2E9
333
086
30E
127
291
10F
11B
37B
3B8
09C
168
39A
35F
0BF
291
36B
06E
2B5
3D3
075
34A
364
0D7
346
360
072
042
034
3F8
39D
37E
173
346
38C
3EE
00F
3EC
35E
064
307
2DE
091
3FF
0FF
2CF
395
3D5
092
3FB
04B
2B3
0E7
0C6
2E1
041
09E
2DE
0AD
167
07C
17B
0D1
3A3
3FC
000
346
039
0C0
32E
395
013
3B5
09B
15C
2AE
045
2A6
0D7
2D9
06F
3E6
004
35A
0B8
075
174
0DC
2C9
036
3DE
3D4
01E
058
0A7
010
2FE
01C
048
2C8
381
2D7
36A
02F
30F
10C
13C
35F
0AD
333
2F9
13F
2BC
051
14E
07D
116
067
3A1
2A8
17A
117
0CC
377
0D9
39F
0A4
376
365
3D4
154
085
0E3
2DD
2B4
03E
080
0E8
016
110
15F
078
091
3DB
322
0FE
300
125
2C0
04C
28A
145
3AA
177
09A
2A6
337
2AB
3C2
0B0
31D
2B6
065
2A4
2D7
02F
2CE
0C2
0EA
15D
123
162
0B1
088
094
0F6
3A4
33C
041
353
168
02A
107
0C6
13B
121
114
0DE
0A4
00C
139
2AF
10E
10A
2EF
0C5
2B6
0D0
090
03B
2AA
12B
30D
0D1
15B
112
2B7
3D6
2A1
028
094
3F6
340
122
0D8
0FB
072
136
311
307
09D
296
328
29E
143
0E2
157
129
0EE
0AD
05D
162
08D
2A3
0DA
2F5
0D4
33E
123
094
2C0
2FA
04F
0D6
049
137
153
060
170
288
29E
2EF
324
0D5
336
3A8
044
12D
2D2
301
0E4
3B4
330
143
0FC
0C0
2CE
37C
349
2F6
2D4
029
32C
080
0F5
3ED
3A3
382
321
3BA
0FC
169
361
0D5
2AE
175
29A
310
394
02E
33D
2A5
0E0
30A
3EE
353
3D9
3C2
2CB
09E
373
3E8
13D
018
10D
305
0EB
03F
302
391
2B8
381
3F0
0EC
0D1
137
3CE
13E
0D2
0A4
355
359
167
024
099
0D8
0A1
069
055
14C
162
34C
3D0
3C6
002
109
036
0D3
04B
142
053
0A5
29C
153
0D3
009
00A
3D3
295
120
001
159
123
130
0FC
09F
0E1
393
15E
37B
2C0
3AC
369
02A
143
3ED
02B
146
3E0
146
108
02D
04A
364
139
020
14F
050
148
377
0C4
3DD
35C
3AB
019
089
14D
3F1
3E8
2A1
11E
0FB
2DA
3C7
2AC
02E
311
2B4
3F7
086
314
169
158
09C
2D9
110
042
2F1
28C
376
05B
329
0D2
37F
16E
14A
3E3
106
3E9
055
146
2F0
177
119
2A7
0AC
0B1
038
05A
3B1
13F
07A
3B7
148
2A9
287
10D
2BB
3E7
3E4
373
11F
2A2
012
3A6
2ED
145
0E3
2E4
135
345
003
3AE
0A5
384
133
2C1
155
070
30E
3AC
0F0
3B3
124
287
3C2
31B
3C1
155
3B2
057
156
129
2EC
03A
306
2C6
12C
0A1
053
03B
3DE
022
03C
110
37E
053
2E9
0D2
025
3EE
317
352
347
0DA
05B
3EF
308
2E8
014
030
39F
114
12C
386
152
10F
2C4
006
132
11D
0DB
3B2
29E
39C
12A
142
0C7
36C
086
10A
309
118
373
29C
178
0C6
149
366
0BE
06A
2BF
036
09D
3C5
068
295
35E
377
394
2D9
16B
2CF
3A6
089
028
353
034
37F
380
059
09C
38B
005
3B3
355
0F6
00B
06B
108
086
0B0
154
39B
384
3FB
3A8
073
390
395
2D9
3EC
09C
129
08E
325
163
053
10E
00A
349
356
3F4
056
061
03C
083
058
33D
341
005
3D2
3BB
082
042
0A2
0E9
37E
3D1
09B
070
3FE
03D
017
285
179
2C3
029
038
04C
3CA
06B
32F
3DB
020
374
05D
0CC
3C5
2D1
078
097
340
2AF
39E
02A
2DF
367
382
3FA
3B9
09B
0D8
00D
36B
3FC
063
2D2
3DE
372
29E
334
076
3C4
0EF
309
2B6
152
0E4
15B
112
34B
2BB
132
060
328
02B
2EF
376
324
03B
3B1
3C1
13D
3E8
2CA
35A
3AC
02A
374
314
006
3D6
014
2B1
286
04B
139
07D
017
3F8
327
092
146
119
077
064
347
054
328
2CB
39B
3C7
0E2
2B8
30E
00A
152
089
3E2
0FE
10F
388
2A5
370
000
104
3AF
13B
03A
131
129
335
2F9
30E
2F3
110
356
15B
083
2A9
176
33E
368
330
07B
2C8
160
3E0
05C
05A
179
129
0A4
0A2
313
3EE
015
327
174
3D0
355
03B
3F5
0D6
29D
2B9
0E3
36D
022
149
074
05B
3AF
0A9
165
129
3DD
344
08A
324
2AD
293
356
3EF
062
166
371
0F2
0C2
347
013
110
118
384
0A2
09F
2A3
399
3FF
34A
11E
057
173
310
2DF
3B9
289
313
31E
2B5
3A5
15D
2AC
356
0CE
06A
08F
3BA
0EB
347
00D
029
0A0
0CA
346
084
0D7
32C
2B0
155
069
000
3E6
111
00F
108
057
397
134
315
150
2DB
3C2
05D
15E
3F1
177
0C5
34B
101
3A0
2F8
03E
0A0
02A
057
2E0
368
016
2CA
39F
330
000
34E
39A
00F
005
100
044
3C4
28F
371
0C8
2FF
03B
3A6
0CC
177
395
3D3
291
06C
3FC
2EF
0E9
09E
031
2B5
149
389
2D2
072
3BE
12A
290
2CD
11D
118
2DC
0E1
0CC
0F0
30E
178
11F
0EF
0D1
093
38D
174
08F
140
15B
09D
0E6
02A
08E
3C1
06E
343
10B
0BC
0DD
0A9
104
299
0B9
101
309
136
3B3
2E0
0B2
388
069
0C4
3FB
315
143
2F6
014
133
0A5
150
0D5
299
107
3E3
2AF
0AD
32E
2C0
0F0
0E5
09D
378
364
0EC
108
3E8
10F
153
050
098
38E
061
328
0CE
0EA
3C1
2B3
380
3F2
3D6
3F7
04D
2BC
301
101
0AD
36B
0EF
387
08F
3B6
3D1
0F9
2F8
163
284
33C
321
34C
388
370
28B
292
0B3
045
290
336
167
063
003
320
3D3
2AF
318
162
164
158
02D
004
2C5
364
00C
333
3B5
303
39C
114
32E
34F
3E8
3E3
0C3
2C5
3F2
041
0DA
3C2
0CE
399
371
0FA
07D
301
2AF
136
345
3F1
147
3C0
085
084
325
3F4
0C1
031
0D8
00C
2D0
3C6
0FF
099
034
01A
0F6
005
3E5
121
2BD
0C0
35C
2CB
2F7
364
3C8
0AC
106
28E
312
153
3DB
37E
364
3EF
11D
39D
11F
3F9
0BE
3F6
28A
2AC
045
02A
3FC
0C9
0ED
113
103
3C1
3BD
392
011
0BD
0B4
01C
36D
395
2B6
2B5
354
313
09A
0E4
12B
32D
089
2EB
080
390
113
323
311
333
100
0B5
156
2C5
15E
2C7
15D
32D
15A
105
110
345
101
29C
2CA
33B
2FE
0AA
3A2
070
01C
3C2
00D
31C
371
14B
2ED
2E6
064
3F5
35D
147
0E3
02F
2DE
04C
3D3
344
34C
334
2EE
05E
13F
132
32F
0DB
039
0C0
3E1
034
0CA
28C
302
32F
300
3A6
159
01E
3B1
0E2
123
3DD
2D6
106
2FB
041
151
384
2B4
323
05C
047
02F
178
2EF
3C7
3A8
06D
059
311
130
395
35D
07E
09A
107
120
0AA
0BA
307
373
15E
313
3D7
2C5
3AE
08D
0E7
01E
2EB
370
2D6
2A3
0C1
06B
122
064
0B5
289
2B4
313
130
0C0
06D
0E2
029
15F
0BE
0A3
2B9
0A0
080
39B
054
04B
35F
3B5
378
012
13F
138
37E
105
398
331
3EF
0C2
3A1
3F5
085
0BA
14D
33E
35F
071
0FE
297
389
0EF
0F2
3F8
3A0
2AC
010
106
37E
028
039
2C0
384
0FB
01F
11C
3B9
377
069
317
00D
155
3A2
3C5
085
0CE
3D2
0E7
09C
364
3D1
0F0
07E
2CA
38D
2A8
3AA
2A9
396
0FB
386
07C
2A4
349
0A2
13C
138
0FF
3DF
11D
320
13D
394
302
32D
37C
0C0
0DA
0C5
110
099
08F
0A8
2CB
3CA
149
0D1
326
368
3C6
2DE
0BC
360
324
0ED
131
02D
3F3
3C7
048
32E
2BA
006
2C1
0B5
3A9
037
34D
36D
0CF
2DB
360
3B5
29D
15F
001
055
30B
0D9
375
149
3B9
345
034
031
38F
3FC
2CA
16C
00B
00A
3BE
03E
3B5
0A1
2ED
3A5
174
309
0F1
12D
32E
0D5
055
36C
298
0CA
2CE
17A
124
39F
160
089
0E0
16D
176
08A
2C9
0A7
039
31F
31B
3F3
317
3BD
300
0FB
3D7
29B
3B9
0C3
399
339
077
3C4
303
172
0D8
2FF
317
35F
285
393
0D2
2EF
139
2E1
0ED
0BB
115
3DD
13A
053
0CD
055
32A
3EA
01B
28A
36B
0E0
089
032
0A3
2BE
07E
07F
2C1
2BF
2C8
2EF
39C
3D2
2F0
285
285
0B0
3C3
0D0
04D
3F1
10C
0AA
0F9
066
055
2AB
3D8
0DE
04B
147
2FC
166
2A4
109
15A
35C
304
3C3
3A3
3D3
296
3AC
33A
0E2
343
3EA
3B2
2F3
0A5
385
17B
347
3A2
153
3DA
02F
16A
3FD
13D
01A
292
3D2
3B3
096
342
36F
0D5
33C
2CB
0B4
0D0
3DB
101
134
02C
168
3E8
3C5
310
015
338
09D
37D
0FB
124
056
3A6
01B
3C4
134
3CB
3D2
135
35D
0BC
0F1
067
0EA
14D
31D
112
3C0
39C
351
0A3
2C2
12E
32A
006
3E8
132
10A
04B
05E
2D1
087
374
027
02C
01C
11F
373
3E4
34E
2ED
0CA
165
0DB
07B
30E
0DC
30A
00D
353
0A9
0AE
368
3C3
339
36A
081
16C
373
03B
343
3F0
2D1
0C6
0EB
11F
048
0A9
08F
34D
2AD
36E
331
3F9
39B
325
046
170
0FB
061
2C0
00F
10F
160
2B1
31B
2E7
0B0
30F
333
029
2C9
0CF
3BB
360
289
00F
0A4
3D5
035
08C
126
176
2CB
11C
2B8
021
09D
083
2B8
2EE
397
381
3AA
0CC
3E8
002
0CA
3CB
3AF
07E
00E
3BC
16C
30A
3EE
0D1
314
16A
29B
139
2C9
3FF
34B
3BC
3A2
0A5
363
390
35B
3A8
373
373
0FC
3CD
078
155
08F
0CE
145
140
2FD
353
294
303
132
2F8
164
2A2
16A
3E3
307
0DF
123
0CB
3B0
33C
129
392
178
2BD
365
101
2D8
097
06C
036
15D
0AD
295
2C6
096
3ED
17A
30F
34C
301
34B
00B
38D
062
3B1
290
3E4
141
2E6
3B1
136
30B
2CB
3F0
3E8
070
038
3E4
2DE
2D7
331
298
3C4
307
2DC
329
2B9
0CF
0E4
141
2DC
340
106
05B
301
0F1
0E9
106
08A
0EB
2B0
110
2E2
02E
018
116
332
3E6
2D5
13A
111
166
2E4
029
350
358
032
3FB
360
032
00D
30A
03F
13C
3B3
104
343
327
3B4
321
3B8
357
013
32C
02C
28C
3D8
02B
2F4
2E9
2BF
0D9
3F2
061
397
0EC
0DD
38E
06C
128
299
016
002
3AD
2DE
3BA
28B
01A
335
2F1
0B5
28E
159
0BF
3EB
2BA
0A2
0BD
288
2AA
056
134
3E4
0AD
342
2B2
161
2AF
07B
116
2AF
100
29F
0C7
068
032
15B
3BF
110
33A
0E9
081
381
3CA
115
0DD
14C
17B
0B5
00D
142
0C1
02B
305
027
171
3FA
053
0A9
0F5
3D7
38D
32D
2EE
045
171
3BA
101
350
358
03E
289
303
0C2
049
292
087
069
3E3
396
16E
2CE
2C3
3A3
157
3AA
353
125
008
2D6
2B9
2A9
3FA
0DB
29E
0A1
0FA
371
2BE
296
149
396
0C7
326
3D9
2A9
31C
2EE
06F
0C0
0E6
361
08F
068
2FA
306
2FF
30F
05B
090
390
07A
004
33D
0B6
3EC
0B8
00A
00B
12D
0F1
0A1
3A5
126
322
2BE
10B
002
31E
31A
3E5
144
2C6
0D2
2BA
043
145
13C
3F8
0A3
04A
29F
11A
0AB
134
2B6
286
354
15F
0E6
2B4
02A
02C
098
0E1
3FA
172
3A6
022
084
362
31F
0AB
05B
366
054
0DC
388
3DB
049
289
00C
041
067
379
0E4
078
30F
3A2
3AB
0E1
014
326
2F9
371
0C3
070
068
0A9
36A
030
179
15D
033
173
35B
0F1
088
3ED
095
0B0
3EB
179
04C
001
12C
006
088
00D
3C0
136
387
0C2
29E
06B
14E
35C
074
385
320
2ED
319
31C
06B
0D2
05C
149
2A7
3B2
027
392
386
38E
0CA
2D7
08C
11E
0C1
311
17B
003
087
312
3EC
2DB
0A9
29E
12D
0BB
147
339
2E6
0D1
01F
002
172
02C
3CE
0AE
11F
031
0AA
377
287
3EE
3DD
313
016
168
3F8
0A4
100
2DC
3E7
38C
35C
0F4
28F
336
345
31D
118
027
32B
13D
3D1
12A
331
2DC
322
03A
2C1
3DF
0AD
008
0C5
135
00C
105
3B9
319
01A
3B0
0A5
110
00B
2D9
159
03C
3DD
3D7
3EE
105
0D5
067
02D
390
09E
3D4
392
2EA
298
02D
08C
028
145
2E7
0E3
0F8
39A
0D3
3A6
2D2
3D7
3C5
284
2D6
33A
04C
3D9
118
090
032
0B6
023
2E8
129
16B
0BA
087
070
00C
2C5
31F
28D
03A
0D3
3A7
11C
336
10E
012
081
022
00C
09D
2D4
2F8
3A3
38E
28C
336
2AD
334
3D7
2C6
3DB
3FC
34F
30C
02F
105
111
0D3
04B
132
0B0
123
159
2C5
356
09D
0DB
06C
3E8
013
125
076
380
29D
294
373
2C1
337
388
0DC
0EA
2A2
146
050
062
144
115
01B
00F
176
108
03A
16F
12A
053
37C
3CD
2D6
327
2BE
3CA
2C1
166
2AA
359
0EE
3F7
2AE
003
354
375
00E
2EE
30B
0B4
328
3C0
34F
0D5
0B5
02E
356
02A
2D6
123
07D
378
02B
3CA
102
073
084
2ED
296
14D
13C
387
0AF
375
156
2DB
01F
319
0DE
12F
33C
32A
0A3
0D0
2F9
0E7
100
2F1
123
0D0
34A
37D
0D7
093
2AE
3C0
078
320
0D5
2DF
2CB
173
385
130
343
3A2
3F1
0BD
15B
2F3
2DA
3DE
0B8
3B8
152
2AF
0E9
0DE
2C5
397
2A4
0B2
11D
369
0EB
3D8
0BF
376
3B0
079
015
328
302
045
39D
2A5
0B6
2A6
2B0
179
0B8
0F6
2D6
16C
2FE
2AA
3DD
04A
2C8
0DF
004
09D
34D
01F
2A6
0AF
16D
3FD
12B
174
348
153
0F6
2DC
09A
2FB
2A6
005
2A9
3EE
006
088
04A
2D9
2BB
119
064
105
3D3
335
3A8
39E
3C2
317
36E
0F2
0D6
2E9
349
16C
0F2
150
3F9
3B2
05D
2D4
0F2
101
167
0F5
359
38E
0F5
34D
142
116
3C1
0F5
0AF
054
325
365
363
33A
143
058
05D
332
0AE
379
018
10F
3A8
3C9
2BB
2C4
037
326
304
381
152
362
06B
032
0FB
2E7
3F7
038
38C
131
027
057
29D
2AE
2FF
11A
38C
050
122
070
0A8
2BE
308
304
0D7
113
310
298
052
031
3F4
05B
0DD
0C3
128
08E
327
105
3E4
3CA
026
168
2B4
3E1
044
011
33F
2B2
0A8
345
379
10E
337
025
0D3
3C7
110
349
328
2F4
059
364
01E
3FB
30D
2FC
13F
33F
0A3
2D4
33D
099
07B
081
097
10F
33E
05D
02E
014
04E
3DC
2B9
0EC
105
0A8
162
0DD
309
33A
396
0FE
138
177
347
3FC
0CE
09D
0DD
082
383
3A0
295
354
096
348
3BA
317
303
380
013
3B1
37E
13F
2EB
0D6
037
2C8
36A
3ED
2D8
0AA
0E7
2FD
055
378
3FE
011
357
366
39C
07A
2C7
108
11A
103
0F8
3C8
004
046
0C2
0F7
2AE
326
066
314
011
359
117
0E3
33F
3B9
002
07E
2FD
2CD
107
179
091
369
2A1
2B5
39C
3B3
384
097
140
2C9
0B3
2EB
318
09C
2FB
286
3D1
073
32B
3E5
0B2
082
144
2FD
0D7
3D8
036
322
105
146
392
038
043
02B
37E
123
014
2E4
0EC
3EA
384
153
382
0ED
14E
3DE
344
14A
3AE
3CF
0FE
0A4
2B2
015
041
324
056
366
3C1
101
177
0D9
0BD
384
2DD
3E3
0A3
0D6
2E0
2D2
33C
387
3FF
131
343
057
34C
0F2
36F
3BC
3AD
39F
305
289
0B1
051
0A5
157
35E
3F1
0E1
33A
293
394
16F
2C7
3F7
06A
298
3A1
3B8
317
365
356
00E
3D8
332
2E2
349
298
3E5
3BA
156
324
2C5
380
078
0D1
133
382
07D
042
083
16D
2D0
347
306
392
375
2D0
30C
3FC
2CB
342
0B1
14A
2F4
3D3
02A
31C
39C
144
0AE
3B0
2FE
370
06E
0EC
006
01F
2DE
075
076
332
30C
305
094
376
309
144
116
101
32C
34A
0E1
2D3
2C9
2F7
2D0
30D
353
34D
00E
118
2DE
0A4
284
11A
3DA
3C4
146
3CE
112
2D9
2E8
0F9
087
017
01F
3FB
2DA
2BA
361
36F
399
3D9
34E
062
299
162
12D
0A9
0CB
022
04A
139
04F
05A
338
2A8
2EA
38D
16B
2E3
0AA
050
046
12E
0F8
116
293
2C9
306
2B1
358
0A6
3D9
165
36D
0EE
30C
080
3BB
3AF
174
289
3BF
383
12B
390
389
101
159
089
024
041
3F8
057
286
368
171
328
306
094
099
0EE
028
160
288
149
35E
08E
3AE
3DC
32C
0C4
2D6
2A2
07D
30E
2D5
11C
15E
370
301
110
09B
00A
3C4
11E
0F7
3BD
095
321
014
0E6
34E
34E
050
309
105
31D
322
365
2D5
3A1
0DA
326
307
3E6
396
2DC
393
0E0
0FD
0FD
107
2E6
304
0C6
2C5
07B
295
025
322
28C
2FB
384
356
0E7
00E
314
09C
003
097
3FA
04C
11C
0AC
02E
14D
09E
394
064
341
092
068
002
076
398
0D9
074
349
3D8
2A2
11E
11E
31E
356
325
3F5
0DC
12B
2F4
07C
288
072
0C2
007
02B
163
2F8
395
0EF
301
00A
050
147
103
2ED
2D0
39D
293
298
352
2C7
3F0
030
33D
106
315
28D
00D
103
2A7
073
2B1
02B
359
3A5
038
346
29A
3C6
064
3C2
176
0BD
30E
335
3C3
006
37D
0C4
3DD
0BF
3D9
338
038
3A3
117
3F4
06F
3EC
09D
131
34D
146
098
09B
0EC
14B
372
37B
0A3
0BE
054
08D
00F
0FD
2C7
166
2E2
340
36E
050
149
076
2CF
044
015
3A3
36F
2A8
051
159
170
0E3
0F2
3DF
2FC
2F8
3C4
02C
156
0D8
36A
024
048
045
053
10C
3C6
303
2BF
105
0B2
3A1
01F
384
14E
007
2F7
03A
177
3E9
12B
0EE
2C6
15C
2AC
04B
06B
3FE
2DC
149
2B9
0F8
084
2E0
00E
37D
071
285
3AA
2F9
094
288
378
10C
3FD
395
0EE
313
152
352
097
3FF
2C8
30F
2D2
2C3
391
061
05C
0DE
296
2D7
30D
09B
0EC
2B6
09B
3AA
3E3
286
158
0F3
0E3
2DD
2D2
161
046
291
381
0AB
0C8
2DA
366
2FB
2DF
0CB
2E4
2D8
2F8
154
2EB
341
2D2
3A3
0A0
3D0
0A6
2F7
027
144
39B
0AD
0C4
0B6
2D8
2EB
28E
0F5
306
385
141
3EA
112
0A5
3F9
11D
347
30D
3A1
003
0E8
16A
048
0A4
3B4
3B7
06D
341
388
305
0DB
035
0CF
39F
317
057
14C
12D
2B7
049
04F
332
06A
30A
291
2AA
3E1
113
2EF
34C
2E8
0C5
079
13A
361
02B
391
3D1
3AD
06D
2F9
379
061
377
06E
3FE
2FC
0B2
014
146
011
01A
029
3F4
335
2E9
350
39A
2E9
175
339
3E3
2FE
30A
28E
0CA
049
16E
060
00C
379
365
32E
2CA
0DA
159
2FA
01C
0EC
3D5
2CF
309
366
3FC
02A
108
0C2
076
2A7
13D
34B
0A1
039
00E
0B1
31C
178
033
171
124
044
34B
300
0DF
083
2A5
073
0F9
39B
02D
2D4
13E
3FF
2F7
371
048
289
35C
0FF
336
113
2BF
398
145
295
3C5
162
11B
022
0A7
081
2FE
310
14B
0D5
014
04E
371
330
11D
121
0F5
288
041
2EB
044
034
020
345
2AF
07D
019
2E5
154
2C0
11A
3E3
066
298
2B7
2D9
172
38D
2B9
0DF
138
02B
070
0E3
04D
15E
3CC
304
06D
3B6
179
112
020
355
0D6
0F7
070
095
33F
0F0
342
032
3FB
0D2
2D7
38E
0B0
350
286
0AD
115
288
09E
024
073
047
0A2
169
05D
0C8
36E
139
306
074
045
073
355
331
2C8
38C
3B9
3B8
2B6
2B7
2FB
39B
007
143
35A
074
2FE
3D0
2F4
104
3DC
16D
038
064
3D7
145
06B
089
07A
15E
2DB
118
2F5
018
38D
12B
309
08B
335
35C
305
387
0CE
2B5
043
079
330
3B7
0E3
3DC
329
151
314
0C0
34A
116
2EE
3C5
133
2FD
0FA
319
021
15D
136
2D0
367
345
3F7
3BA
38E
011
035
0B5
103
399
12F
0CF
10C
3D9
0E5
163
312
344
31A
2A5
119
16D
005
077
384
356
3F3
318
32B
30C
13F
353
391
2E5
004
3C5
028
321
2DB
119
2A7
027
16D
3B5
300
128
296
149
3A8
059
021
3C9
0A6
2A5
0C6
15D
0FF
16E
333
172
3EF
340
3B6
177
2C1
2F9
330
3BF
106
3E8
35C
01F
16E
152
10B
006
11C
17B
06F
3CF
3E7
3E8
3B1
2B2
064
0C3
2F9
382
11D
3CA
28D
01D
2FB
123
379
2A0
01E
100
100
290
175
29D
021
131
130
31A
070
13B
318
147
0B0
078
331
0B3
385
112
007
3F8
36E
08D
15E
320
39C
3FB
038
2EE
3C4
0E7
14A
3D9
072
13C
069
33B
3E4
3A7
359
117
12F
04B
087
025
0F4
293
0A4
075
177
0A7
0E7
3DC
2EA
3F8
33C
308
3AF
3C8
345
07F
3E6
0F9
15E
2C0
2D5
3AC
34E
2DF
14F
309
07E
128
392
3DE
2C0
15F
07D
305
296
15B
3E4
3FD
288
398
29B
348
343
358
3A7
0C2
326
2F3
0CF
2EC
087
15B
061
146
0D0
0E1
161
373
386
2E4
39E
3C2
158
121
2AD
288
3E8
0B9
0DB
0E7
0D9
380
052
0A1
159
34C
371
06D
336
040
13F
364
0D1
383
0E5
321
13B
10A
319
110
12E
113
16C
0FD
2FB
2E3
0F8
00D
0D5
33C
165
3B3
3EB
08C
09B
176
3BB
004
3CD
33B
151
36D
2B0
292
0CB
3D7
102
342
326
2C0
0AC
3F2
142
376
3CF
121
0E8
294
368
3B4
3DB
0E9
170
2F2
122
0BD
0E6
0D9
053
37D
2CF
2F5
384
3EA
129
335
128
320
29A
379
3EA
059
111
35E
112
03B
2BE
32B
13A
0A7
2EE
16F
082
018
09B
337
156
16F
354
2F6
09C
2C3
35C
326
0F2
07E
044
0CC
0AF
096
2FA
2FA
15F
297
363
08C
012
090
37B
126
0A3
096
019
046
373
103
041
2D6
289
2C4
2DE
348
2D8
28F
07E
2E1
06B
3F8
0F3
32E
178
09D
04C
0BF
026
37F
0C7
3A4
174
336
0E4
173
2A5
05D
173
3CA
3FE
135
380
335
336
006
14A
0E0
2E1
15A
076
3E5
138
0CE
3E1
008
165
108
076
07F
336
156
08E
0B5
01C
173
0B0
2B6
296
3E6
3C2
120
38E
03C
2AA
370
0CB
0DD
3C0
2CC
34B
37C
3F5
2FC
2D3
303
021
28E
368
0FF
0FD
0B3
3C1
005
16A
348
147
162
006
107
333
35E
16D
02E
2F0
303
0F5
2AB
139
383
33A
166
146
313
138
28A
078
124
099
0CF
08A
3BA
378
3F3
04E
14A
018
0E7
0FD
159
075
0C3
062
307
00B
306
29F
38A
373
073
141
07D
2DE
283
054
0B0
177
3BC
0C3
029
3C2
01E
019
2AC
052
2D0
148
2AB
2FC
391
0A3
385
0B5
3CD
2F4
09A
3BF
153
2A7
369
34E
2BC
37D
358
02C
140
0F8
2BB
2C1
11B
101
33B
10D
051
3F5
161
2F9
343
336
0D3
374
3D6
157
305
3D6
104
012
0E0
160
2DB
376
051
14A
138
3F7
00B
06E
020
07B
106
35D
026
105
334
05D
3CE
288
0AA
345
058
28B
284
293
006
298
026
00E
021
029
170
2FD
35F
14F
172
33F
14B
135
09D
3ED
0DA
065
0AF
0FC
0D2
3CE
34B
05E
12E
0E2
3A3
0CF
0CA
2C1
06A
029
02B
3AF
082
2B0
3F7
0D3
2D2
0B0
0E0
05C
2D5
308
07A
2EE
0FC
0A7
324
0D4
286
043
0AC
286
11B
0F8
142
06B
2F2
3B7
398
301
14A
39C
3C2
3B5
007
086
34A
170
2FE
2B7
15D
373
324
05F
2BB
128
3F9
373
375
2FA
36F
3A5
121
396
3FA
37C
315
17A
082
15C
13E
043
351
368
167
17A
30E
2F5
043
05D
3FD
2A4
2E2
055
0B8
056
0FA
3AD
07F
2E6
3E9
31D
32C
3C9
0CE
0AF
0DD
0F3
0E3
2FA
3C6
29E
310
06F
30E
074
3B6
01F
0A9
119
08F
12D
332
339
304
032
36C
010
2CB
3AD
3DA
290
3E2
032
3F2
06E
13B
123
3A7
074
2EB
0AF
0E5
09B
2C4
324
2AE
153
071
2A5
0EA
129
0E9
2F6
01D
06E
2B8
3F3
092
3CC
3C4
2FC
15A
289
336
2B6
135
33A
2E0
2F9
296
28E
131
2CA
15B
31F
344
2AF
38C
3E6
2B5
066
119
369
05F
3CF
0E5
39D
07C
111
328
102
05B
2A0
091
2D4
3B9
2BA
33F
32A
3D3
018
16F
2D7
2E1
348
307
11E
331
08E
2AA
02B
04D
3E3
2EE
2A2
047
386
133
0D1
302
0DB
178
10D
01F
2C8
342
03E
04C
3C8
0CC
2C3
3E6
095
3B5
324
142
04A
0F0
072
05A
032
37B
07F
168
075
2CD
2E8
043
04B
327
03F
052
2BB
056
16E
093
112
109
0DB
0BA
351
3DC
02E
07D
142
07E
0F6
2A2
354
324
2D7
2BE
3BD
3D0
09A
3B4
157
3DD
3F8
11F
0B4
2A4
370
2F9
3BB
367
14B
125
03E
138
0F1
3A0
356
38B
30D
3C2
384
150
0E2
362
352
12B
3A1
0AC
383
05E
17A
2F1
39C
06B
304
32A
088
0F7
2A3
149
3EE
04B
13D
111
2E4
353
3DC
076
386
3D6
092
164
17B
2B7
150
2AB
34D
3B9
006
341
027
032
01C
00E
00A
03C
38B
107
3FD
2D1
160
017
28D
398
06C
2E4
083
397
3EC
0B9
3D0
030
0E9
06D
0E9
2C6
0DF
3AC
351
029
303
0EA
328
0D1
355
349
3FC
105
297
0B8
0F5
3C8
07C
0F1
2DE
179
383
387
09E
095
2AC
002
2C3
33D
295
37E
03F
00C
16F
3D8
3F0
0C5
081
36C
2DD
319
3DD
126
047
0EC
328
102
0FF
3D5
2EF
0D9
0AE
2CC
16F
292
307
2C3
37C
113
2D8
090
05E
2E3
374
02E
080
0A9
0E2
122
0FA
0CB
3E2
058
164
15A
15A
084
3CA
2A9
0BE
00C
2E5
0C5
0F9
32D
126
136
150
096
296
2A6
110
11A
176
39B
3CB
03E
0D0
30E
32E
3F9
290
331
329
3B6
0B6
143
2AC
3E7
05F
062
0B1
3EE
131
083
28C
121
2E6
08D
374
14C
3BC
108
398
08D
2F4
0BE
0CB
072
384
35F
047
3ED
32E
28F
2E3
3AA
2B0
3FA
3AA
2D4
161
327
17C
178
106
32D
2F2
3EC
32F
0BE
2E2
056
11B
11E
127
12E
16A
0AB
0C0
126
0B5
37B
31F
003
2E6
2D1
378
0EF
29F
33B
013
3CC
00D
0F6
372
351
288
0C1
07C
395
361
0F4
10A
2BD
326
08B
294
073
358
171
126
051
3B3
2DE
00C
122
0BC
32C
156
3E2
3A3
371
14D
2F7
0FF
069
3EE
0A2
0ED
366
3C0
124
32F
32B
0E9
09C
2A6
121
2BA
0AF
011
0DB
308
05C
0D2
157
069
39B
16D
08D
305
133
05F
02D
39E
08B
08F
15C
307
172
126
3C7
2A8
03B
145
2D9
152
334
048
3DD
31A
038
143
10D
00A
28C
077
334
3D7
002
37B
2D9
3EB
15E
362
04C
357
15D
0E4
14C
0A2
2C1
341
355
06F
38E
0FD
0A6
38E
384
37B
0C3
138
2EF
2AD
152
0D4
03E
111
06C
057
00E
131
325
0F6
2D9
124
100
11E
115
00E
2A4
32E
2BD
00E
145
12E
032
364
103
107
337
123
309
3EE
12C
171
001
3FD
0AC
0F2
3CB
0C3
3E0
2AB
131
072
007
34F
312
0AE
0D5
287
157
348
3F9
3E1
017
0C2
0CA
03F
2B6
161
16C
07C
112
3CE
071
0C4
3DF
08D
0B9
2F8
0CE
33A
134
36A
0A7
3AC
09E
138
3E7
2CB
0DF
164
15A
3D5
036
340
029
396
055
2B8
12D
168
304
12F
3C8
0D4
3B1
148
00A
2A8
0D8
0F1
0EA
30A
0EE
35E
36A
069
3CD
3D4
035
132
3FE
01D
103
3F4
16C
3D4
0F8
13C
2C8
135
2BA
2C9
038
066
140
3A7
07B
3D8
298
0D9
03C
2B5
0C1
04D
324
170
2EB
296
174
296
078
0A5
059
2EC
31E
14D
34F
3A2
00A
3EC
118
32B
3CE
344
3C8
399
2FC
3FD
346
02D
15A
058
3AB
03B
048
368
068
3E9
033
291
0FC
067
043
0F3
2CA
2D2
2D5
2E9
070
070
08C
0EE
299
038
390
0D7
064
107
2EF
340
15F
12C
320
033
117
2C6
0E7
011
034
304
0A5
01A
167
11C
070
3D8
14A
0EF
3FD
0C1
146
02C
0FA
0E3
375
029
3C7
364
0DC
02E
2A9
0F1
0E3
333
302
313
054
052
0EA
0CD
380
099
032
32B
348
284
2AF
316
310
3C0
394
172
28C
378
2A8
09B
322
113
349
0A0
343
067
3D9
2C0
11C
356
08D
37F
368
127
3BA
324
340
2B2
05A
314
026
350
12F
325
2A7
3B8
10A
0D3
118
0EF
15A
2DB
347
117
006
358
10E
2DC
3A6
00A
30A
2C3
0C0
078
101
380
28E
340
164
03A
2C1
161
132
3E9
0E7
062
2EE
114
2CD
06D
0B6
14A
03F
154
33F
2F5
2E2
171
295
034
2D4
37A
3CC
0DC
385
350
026
2D0
363
29B
2A0
058
2FA
3F5
300
06A
3FC
10F
06C
2AB
35B
11B
324
32F
0AA
343
3E7
0A2
003
39C
07F
0AE
2D1
0C7
0AA
3C8
107
124
2E5
3E9
35A
2BA
134
35E
375
2B7
01E
316
2D3
2F5
2EF
122
066
329
0B8
143
152
2E5
290
128
3B2
36C
3B5
34C
322
33E
373
0B4
35B
131
35E
33B
023
33A
178
37E
01E
040
30E
39D
3D2
024
027
2BC
359
169
398
00E
01A
2DE
2F6
139
16C
072
2EC
3F4
149
32C
086
03A
14B
163
0A5
346
288
3E1
04D
32E
376
385
2C8
393
166
001
3F8
330
34B
046
033
3F6
39E
307
2DC
2F5
2F5
39A
114
0BC
162
0B1
32E
0CF
2BA
11C
3E9
3AE
34C
0BE
0EE
00D
3BB
038
095
3A5
2D8
30D
123
2FE
2E7
074
06A
2B8
052
01A
083
370
01E
03A
054
290
109
179
0D4
2F9
2F4
00B
3B9
012
29E
2AA
335
074
139
3A6
158
077
3CA
0C0
06D
3BC
083
3DD
3EA
3D2
10F
360
295
019
358
3B6
050
2F1
354
3E2
3E9
3EF
04D
163
0B2
0A3
043
0A5
0BC
022
3BF
341
3FC
0D7
045
35B
04D
2F2
031
2E5
09F
096
10F
144
2C2
16B
31F
3DA
3A2
084
365
3B4
295
0DB
07E
0DF
2CF
375
048
348
0B0
090
004
0F1
2CB
327
173
074
0D9
129
0A4
0BA
28F
121
087
2BA
331
091
150
09B
313
05D
047
2DD
145
0D7
167
0E1
297
28F
372
3EF
137
3C1
078
291
054
3F6
0B8
295
2A5
08D
2EB
29D
02C
089
0E2
2C7
0F1
0D8
123
2CB
38B
300
379
3DC
349
0D1
2BA
136
321
037
057
3A2
3A0
0F0
018
3E1
2FF
03C
041
330
06F
0AE
3BB
2EC
11F
07E
051
3C4
2F7
098
3DE
173
0F6
05B
01D
321
331
3A1
33F
041
06F
361
30F
161
323
0A5
132
087
0D1
2B8
128
2B5
3C4
3CF
0F5
171
2B8
162
3DF
0F0
2E9
016
111
0F7
2A7
2D8
299
3A2
0AC
05F
313
081
000
3D5
38F
3CD
171
341
300
013
324
10F
3EC
334
306
139
2A7
37C
09A
395
179
2B8
155
003
395
344
0B3
2C0
12C
2D7
3B1
32D
3C0
0B0
3D2
2C7
2C3
132
3A8
0BF
30B
2E9
114
052
0FF
362
3FE
0B3
3D2
122
13E
297
142
089
3F0
0F0
13E
122
3C4
05C
014
32A
17A
34E
0FC
301
2A6
3D3
2E0
0C7
0EB
106
30F
11C
111
2E2
3A6
139
38B
34E
09E
399
2E4
07D
35A
0A1
135
2E3
0D2
348
339
0C6
098
148
306
2ED
3EB
116
10B
0B2
37D
296
071
3E6
101
154
350
013
07C
333
30A
313
3E1
3A2
170
0AE
2DD
146
28F
02B
3E4
0A8
332
3A2
327
29F
2DD
0AC
2DA
01F
02D
005
111
030
3B2
046
022
37B
3BE
07E
0B2
077
0B0
016
14F
3C6
2C6
127
03B
0DA
2C5
3DA
083
369
2BD
01D
32F
334
302
169
34C
001
30B
3A4
31F
3C3
2A4
37C
3D3
024
076
116
34F
070
117
022
2CC
3E2
0C4
293
3A5
033
10A
3C5
359
10E
0E0
2F6
2B1
3E5
315
11A
300
3BA
3F7
38D
3EA
2FC
34F
00B
0A4
359
3DD
37D
153
09C
364
036
3E8
360
0EA
2EB
13C
2B6
334
320
01D
344
143
047
2D9
131
0FD
0BA
158
3F9
2D1
069
15D
3A8
2A7
35B
32D
3A3
126
03C
3A9
0A8
34B
2E7
14D
097
2FE
39E
39D
07B
10C
078
36A
074
3B1
3D1
360
2AD
07B
2AB
03B
29E
394
3EB
360
053
128
356
2A0
016
350
30E
0CF
003
346
130
32B
010
3CF
16D
019
2C4
28E
060
286
28E
3F1
153
287
364
163
395
3AB
072
031
159
3B0
3A5
2B5
395
30A
3D7
012
365
14B
03E
0E8
11D
2B9
16A
3B7
0E7
39A
288
328
3AA
373
0E5
105
0F6
386
3E9
284
0BC
14C
33A
3B3
298
089
3FD
155
2DF
3D7
310
145
3E5
007
0C8
289
2D8
09E
0A8
16D
09D
37E
396
28E
038
341
084
329
120
065
055
099
3D1
141
2D2
08C
055
285
012
04F
374
34A
30E
12E
078
3DA
28E
3A3
09D
0C4
107
139
17A
310
3DC
135
068
081
0FF
0CB
13E
286
38C
165
13D
0BE
0F4
0E0
065
2B2
3A1
0AA
2CB
335
012
005
2A0
083
045
297
017
113
3CD
28A
343
12A
11D
048
02D
15F
3D2
00B
2CA
343
31C
090
0BE
35D
3A9
3D9
3FB
3AB
34F
38E
300
120
13D
3E9
37D
097
2ED
3D9
306
304
0CB
35D
2AB
2F4
3A0
10A
15F
070
318
335
062
08E
346
320
11C
292
00D
388
2B8
2E7
10F
124
3F2
0B1
0A3
2B8
386
13D
106
334
2F4
36F
048
3B6
12A
129
2DE
0DE
0F8
058
006
35A
05A
3DB
066
2B5
107
3BF
3BA
3F2
398
125
30F
10E
174
34C
014
3AC
3F4
0EC
300
324
018
3EB
2AB
29B
088
019
3B6
3DC
0AA
0C6
2A5
174
3A5
375
355
385
30D
0DF
32C
2B9
333
2E8
159
2D3
3EC
307
020
0D4
000
2C9
0DA
125
0A5
15B
367
0B8
3D4
3D9
0DA
176
28B
345
027
367
2C0
110
0D7
0B9
095
139
02E
29C
044
0BC
30D
310
144
12A
35A
38C
285
2A5
3FF
344
026
0A1
3A8
107
129
0BF
2D0
0FF
31E
02B
2A3
346
2EE
3B5
2CD
14F
38E
0D5
317
115
2D3
021
08C
303
0A9
385
150
376
38B
399
0C2
3DD
06E
088
320
392
173
0DA
0E5
2D8
2D2
0A3
0D3
005
076
33C
14A
3F6
35D
37B
005
2CC
2AB
3E0
357
306
37D
3CB
3CA
128
076
14A
38C
2AB
3CB
289
02A
12A
352
3B1
14F
0DF
326
295
301
315
14C
0FD
00A
373
0EA
01D
301
03A
34C
093
0DE
353
2C7
32B
134
174
134
364
2C9
373
3AD
33B
043
299
16C
092
2E8
38D
2AE
39C
346
3F2
09A
381
075
2DE
3CC
2C6
01A
329
087
2D7
0D0
2CD
3C9
343
063
018
288
141
153
3B2
14E
118
308
03C
30C
055
16E
035
2A7
32A
2F5
398
3C9
017
294
10E
2F7
026
0EA
14C
33E
2F4
0DD
34E
327
391
137
15A
3F9
168
30A
09F
288
3A9
092
158
0F9
056
3AD
363
171
397
2AD
2E6
3B4
15B
119
344
39F
35B
124
0F3
0CF
306
09F
3D7
09D
0E2
321
322
156
2D8
0DF
019
05F
2D4
07D
322
11A
2B9
0FC
3D3
336
32F
35C
351
0C0
32F
0E9
102
000
01C
3BA
368
10C
39B
2B7
03F
2AA
3E0
398
0EE
0B8
3DD
3EC
039
3DF
133
112
3A4
112
3DC
095
06F
2DB
00F
36E
363
006
340
179
2D2
049
292
34B
368
07B
01B
137
035
103
2B5
2FB
3DC
012
134
308
297
34E
362
175
2D8
0C7
35F
07A
28A
0B8
121
055
0FA
2CA
17B
3FB
165
168
371
149
3AD
330
2C7
057
173
3FD
2B6
0F0
33D
30F
153
075
118
0B4
3E0
2FC
325
142
2C3
08B
2C8
111
029
2E4
3CF
3A5
09C
14B
16C
367
024
15F
2DA
051
16B
0FD
041
307
2C5
003
29E
313
356
337
15F
111
07E
094
331
349
3ED
08C
170
023
16C
00B
103
2A1
08B
124
38A
3EC
03D
2B1
0BB
302
318
3EB
2C3
30C
003
331
320
150
0B6
3F0
331
105
2C4
392
010
2D2
096
352
2CE
3CA
0B6
09D
3AB
2EC
086
11D
016
14B
36D
2E4
096
29E
013
08E
144
34C
08F
178
295
022
0FE
064
064
082
0C0
2E5
061
3B3
08A
06D
2A0
3C2
0F7
364
08C
037
153
141
093
132
285
156
3C2
387
37B
0C5
084
314
350
01D
2A7
06B
3D2
331
2A8
03A
01A
0FB
38E
3D6
34B
02E
34C
0C9
2BF
011
034
01D
2C2
179
08D
0FA
0E2
13B
082
3A7
384
2A9
2CE
107
0F2
354
111
052
048
392
0E1
15E
322
15C
0D5
39B
060
0E7
164
37D
00F
2EB
2BD
2E8
330
349
0A6
29D
3D2
382
291
3B4
330
14D
137
102
168
296
3D6
15E
3D0
06F
37F
171
36D
013
2AD
2D4
15F
12A
099
081
064
28A
0B1
331
3D3
356
28A
2BB
060
092
352
38A
325
372
368
31B
35F
32A
2F5
290
3AC
117
11B
05F
3C9
079
33D
391
3FE
376
082
2A6
0E6
356
3C1
35C
024
0A2
0A9
0AF
37C
292
398
132
371
078
144
04A
2F9
039
34A
307
305
04D
29F
3F5
3B6
32F
377
05E
110
3BB
346
387
108
3BC
089
0B6
363
364
006
0AA
3BF
377
0FB
3A0
0EE
2C1
2F2
2DD
053
3AB
33D
14E
115
076
098
064
3F7
051
0E1
04F
128
3A3
34B
347
0FC
391
307
018
359
369
28C
375
121
3D1
008
0D7
2A0
112
13B
2EA
0F6
3E9
2E8
372
2FE
15B
3F5
0BB
168
363
30F
313
0F6
06A
161
39E
2FD
05C
318
2EB
154
2E7
2DA
3C6
050
08D
310
38C
111
3FC
046
001
365
367
2E0
089
37E
008
2A7
16B
3F3
3F2
0C9
16D
2E4
2C8
28B
39F
350
168
0C8
0A3
38F
3E4
020
367
0DB
30D
2BA
0E1
2C9
2B4
06B
33D
2CB
021
397
158
3F0
365
299
11C
3D2
3AC
14C
163
091
288
0EF
289
0CF
37B
13C
007
299
033
156
39B
071
3A9
32A
3EC
33C
0ED
011
0A5
07E
3F2
03F
377
11D
0C1
0C1
06C
0BD
01B
04C
017
0E9
341
37E
08F
173
047
131
092
2DA
28F
388
2FF
097
3E8
043
024
389
31B
3FD
3CD
2DB
29A
3E5
13A
12B
3C7
2C7
320
304
312
141
285
380
311
012
035
320
3B1
17A
3EF
04C
121
2CC
353
3D9
34C
05E
171
108
3A6
012
046
36E
12F
0C3
005
374
3CB
2E9
374
33B
370
0C2
310
0C8
100
2E3
2E8
303
16D
13C
290
15C
10E
103
3AE
3CC
009
2AD
049
0DA
01C
167
154
163
161
3EF
150
2BE
0A6
30D
3A6
29C
15C
334
2AB
32C
155
00A
089
30C
0F2
331
28E
2CF
107
375
0AB
29E
0B8
011
0DA
2AF
383
01B
3DB
368
060
13A
0FF
2BB
302
3FA
342
3D7
0E5
0FC
004
024
341
343
2A9
01D
29A
174
13E
125
3AB
139
10E
0F3
30D
0F1
3E4
16B
10B
023
12A
015
14E
0FF
013
2C0
174
076
3E9
2C7
378
005
300
0EB
0B9
0A3
010
132
085
3D1
092
129
0D8
095
005
0E8
39D
2C2
035
0BE
3E2
37D
100
341
131
0A0
145
13B
0F0
3A0
175
0A0
0F4
2D8
3F0
2B4
172
140
336
371
052
082
322
176
335
028
059
3B7
2E4
3D0
3A8
30D
16F
346
2DB
353
0B2
022
12A
08E
0C6
3B1
0F6
172
158
17A
3EF
097
382
2E4
030
157
104
026
367
0D7
3B8
37B
14A
371
384
385
09F
302
305
364
0F5
2B3
07C
3B3
364
15C
07D
361
37A
002
393
3D2
2B9
155
00F
153
368
054
0DD
3B9
018
03A
28E
336
3C8
3AF
3C5
39C
338
0DC
138
137
0DF
360
320
39E
0EE
12D
376
3FB
3B9
318
14C
397
3B5
28B
0C7
385
2E2
316
2D6
31A
2CA
07C
2E1
063
331
14A
011
113
02E
314
111
327
376
113
0BD
330
0DE
16A
2C0
30F
066
3A3
320
2DE
297
37C
30C
2CA
021
117
0A3
343
3C6
14D
28A
125
292
2E9
048
3DD
2EA
003
31A
364
313
389
149
357
053
28A
068
315
2DC
0FE
026
326
0DE
082
136
391
018
03A
3C2
2CD
2C0
0B0
126
0F1
310
30E
356
0F2
0C3
3FF
08C
179
28A
01A
155
12D
3DF
0DB
0AE
3A5
041
0A9
346
2DA
15D
330
173
284
361
033
0C4
382
15D
39A
352
0E3
29C
39F
05D
0E9
342
337
2B3
37B
299
2F4
07C
3DF
2D3
172
3A8
363
085
08A
0F3
045
0A6
2A3
29C
14E
15A
3D0
0B5
317
2BB
040
33F
0E5
036
076
0A7
3A9
2D4
2A3
328
2EE
327
0FD
058
0BD
2F8
3E1
2AD
354
2FC
15B
14C
286
171
36F
2EA
3D4
39F
00A
355
2D6
39C
0C7
37F
2F9
3EA
0E1
353
09C
0F4
07C
395
372
3C9
2C0
01D
11F
2BE
2D4
167
019
2B6
3B5
2A3
00C
0DA
165
109
38A
049
2BD
165
36F
0CC
061
092
0DB
3EA
13B
3D6
2BB
140
3CB
31E
01F
01C
14A
394
2CF
14C
111
15D
068
0ED
2D8
3DD
069
2B1
3F2
370
12B
2AC
02B
0B7
2A3
0D6
3AE
2E1
153
161
0DA
35F
093
28C
3A9
38E
3C4
16A
30A
391
30D
141
0C8
324
3FC
129
29C
13F
29C
3BB
00A
047
172
3EC
3A6
3F0
0AF
2A8
0AA
036
3EF
0A4
3C4
110
0FD
178
39C
367
011
057
285
2E6
068
2C4
0C2
391
2FB
0F5
3B5
2CF
39C
295
063
0FE
299
320
068
130
3A3
02C
0C9
157
060
0A1
0C8
331
2B5
317
105
0A4
298
0D8
06D
296
13B
2B5
0A6
3D2
34F
12E
09D
0B0
103
326
3EC
049
043
2EF
2C8
3C4
0A0
0B3
37A
3BB
025
373
3E6
062
39F
2D1
062
01E
2E5
100
117
28F
042
10E
2FD
037
0CD
2AE
32C
00E
125
39F
35B
358
39A
109
0D4
065
16E
2BD
339
333
307
12B
337
122
078
00F
314
081
167
3B6
289
3B3
16D
120
33A
0D9
307
3D9
302
14A
314
354
113
3EB
02D
391
340
0AA
0ED
002
032
13E
03C
2BA
109
355
066
037
3DB
023
297
339
068
31A
0F7
3D7
35F
0F1
391
33B
0E6
059
2E0
393
0E7
0B2
36D
3EB
0B3
168
03F
110
35D
0FB
339
11F
3AD
070
0CF
053
37F
16C
389
039
3BD
174
04A
378
2E1
29F
2C1
0C5
055
325
33F
2C1
147
39D
059
0DA
2EA
09B
0A2
15D
30E
3E1
3F1
095
2F7
079
3B9
305
310
029
343
0B5
31E
3A1
33B
016
105
07F
2CD
103
34C
2DA
39E
040
049
2DD
39D
0DE
096
2D2
2CA
08B
12B
0AB
10D
0FA
359
3B4
2B6
3E0
062
385
363
305
335
3FB
2C2
364
35C
016
354
069
14D
319
3D0
052
3BB
02B
3DE
38E
05B
2E7
399
122
2BF
11A
03D
303
06C
297
031
362
068
0C5
02B
0CD
0B9
119
01E
3E6
2BD
00D
35D
0C6
2A4
296
023
34B
342
01E
0E7
029
32E
2B3
293
309
3DA
01B
130
3A0
2D3
099
356
04A
3F5
018
0F8
130
044
3C3
3F4
291
372
0F6
2C8
290
16A
394
115
292
392
0E0
2CB
036
142
063
30B
0C9
340
2DB
30E
14B
12D
0CF
2F3
09A
3B8
2C7
01E
2BE
323
084
338
31C
2E3
39A
163
2C9
3C8
29E
3F6
293
148
329
12D
2C3
147
32B
332
0B6
115
148
290
06F
0F5
059
112
036
15C
3D1
31C
0A3
389
308
34C
285
2CD
3D5
173
344
0E0
146
387
314
3BB
0D4
16A
0A0
291
2BA
311
345
13D
02F
0B3
091
158
0C5
3AC
3B2
3CA
03C
31C
027
2E4
167
166
3AC
373
2EF
2A9
290
3A1
076
33C
072
058
3EE
38A
36D
388
3CF
0DB
3A5
0DD
3C2
2E0
14C
0C8
15C
3B4
2D7
0FB
3B4
112
04D
302
0D1
14B
121
0F5
2A2
0DE
29F
3C6
0CC
0FD
3A1
295
08A
056
0B0
05E
3A3
13C
0AA
3C2
33C
336
075
027
146
03B
010
326
2BC
353
157
12E
326
0E2
178
2F8
3F7
319
0A3
35C
165
07E
2BD
024
2E5
2E5
0E6
345
113
3B2
10F
33B
3A6
09F
019
2CB
086
2E5
095
046
2EF
2DB
2FD
0D6
332
327
365
0DD
085
121
0C3
2B5
021
362
10D
3C2
288
064
2BE
071
044
3DA
12B
016
381
32F
381
346
113
0A5
2E1
39B
29D
3FD
329
346
2D9
0A9
082
045
16D
3B8
086
3A2
309
05D
15D
383
2CB
139
295
3D3
0C6
032
059
15B
0DD
2E7
2A8
333
3E8
13A
31D
388
077
0B7
14F
12E
005
0FF
112
016
2A6
2C1
01E
33D
160
169
0F4
31F
03D
164
297
387
33E
12B
343
07A
2C2
09F
2E4
170
143
019
0D6
31E
07B
0C5
0A6
33B
33A
3FB
3B2
2C0
2B2
2DA
034
326
06B
091
130
15B
123
372
0A1
3E2
35C
0BB
108
171
09B
0DD
089
00A
062
029
2D2
0CC
349
110
354
01D
05A
30A
0CE
391
29C
3D1
323
172
33D
024
2E9
09A
036
17A
059
08B
0F7
00F
029
3B2
38E
3B4
38C
3A9
3AA
06C
12B
2FB
14C
10D
050
2BF
352
11C
09B
00B
2EC
001
0B1
381
3A6
297
044
2D6
3FA
2AE
165
0C2
37A
05E
3AB
171
350
2B1
15F
141
085
311
3DE
17B
3EB
2DD
2C4
3DE
3C2
2AC
378
291
3F5
151
12A
2C0
39D
373
395
29D
35A
11F
3A9
38F
166
02E
0D6
160
3C1
011
105
2A5
37B
007
104
38B
0B7
12F
3BA
354
0F7
32D
045
07D
2C3
0BC
08C
2BD
36B
040
134
366
3B8
015
170
127
361
28A
0AB
2E7
165
04F
121
016
0D5
376
34E
3F3
01B
025
338
0C8
03E
2D2
020
2EE
293
363
0D5
05D
0C3
022
345
107
082
01A
36A
3B9
145
3C7
037
150
2E6
353
0CD
10E
3BE
0E0
2FC
12A
003
2CA
07C
295
160
35C
2E9
2D2
3D6
3E1
14F
124
3B0
002
101
2FF
3E8
33C
091
12F
3D6
072
14F
0CF
13F
28C
3FA
333
302
094
076
2F5
15D
33C
295
08D
2CB
2E7
2E6
2F8
14D
14D
3E0
02C
374
09D
158
119
2DF
00E
0F1
3D1
084
2A4
397
38B
3CA
2DD
119
373
056
365
15D
3EC
298
14B
2B7
2CD
289
3F9
3EF
040
06D
088
031
113
014
387
3F3
033
006
026
15C
109
03E
34D
023
2C7
061
0AF
160
0E1
012
2EB
2AB
3A8
332
2CE
109
321
3FC
309
077
156
108
2E5
29F
2C5
097
043
02C
2A8
3F6
3A3
0F1
334
34F
3A0
0F6
0EF
284
337
05F
320
2AB
0BE
10C
037
10A
173
12E
087
30A
010
3D3
054
381
284
00C
16E
3BC
124
2BB
35D
0B6
294
047
300
374
16B
047
2F6
340
2A6
13D
0C5
00C
309
159
0BC
071
3C8
0D9
353
2C6
365
0BB
364
2CF
3B0
37F
128
023
367
12C
29D
29A
02B
087
153
100
2E8
097
377
359
300
113
3E2
338
0FF
061
3B8
3B0
08F
3C1
35C
07A
12A
02B
122
0CA
0F3
027
0B1
35F
2C6
0C9
008
370
307
151
0CC
3CF
025
398
3B6
2D4
107
0B2
001
134
0B8
397
095
0A3
0E4
113
109
37D
07B
3CD
151
2A7
343
35A
353
11B
063
0EB
3A4
3DA
3D3
17B
38B
2A0
012
0D7
3AC
101
3A1
3BA
3CD
176
29F
095
106
141
139
135
383
038
11E
0E7
00E
079
124
0D9
045
07F
29F
284
09D
073
0EE
04B
3DB
2B3
376
37C
129
0B1
178
386
367
059
360
0A0
34F
0D2
02E
381
3B8
0E2
3A0
3E4
0EA
130
170
316
042
0B6
396
28B
293
38F
047
024
17B
354
07B
323
37D
3E7
115
39D
301
371
34C
2DF
2AE
369
027
2F1
2D5
02B
3EF
284
135
394
11A
3F2
0E5
0DB
0B2
365
082
396
29F
39F
2D0
09E
3FF
305
104
048
3CC
3E7
2F6
2C7
06E
0AC
177
149
33D
155
020
055
2CA
17B
0CD
2C5
341
3FD
0E3
341
2C2
0CA
128
07D
2CF
2A3
2C3
14A
01F
0C1
368
032
152
2B8
2D9
01D
3A5
162
041
3BF
147
2AD
008
04F
2A3
141
10E
2BB
332
06A
2F1
34C
100
129
31B
36B
176
371
318
28E
2CE
14F
09F
2DB
0B2
374
04C
2CF
3DF
3EC
379
345
295
36B
351
161
103
16A
31E
36E
369
35A
2AE
0E5
035
37A
30E
34C
2C9
0CB
2C1
062
39B
03A
155
31D
2DD
349
342
0FE
005
0BD
0DA
047
38E
00C
2A4
2F5
3D6
3C1
338
391
3F6
162
3B2
090
069
126
3D1
140
2A6
2D1
345
384
39E
3E1
09F
390
01F
2BE
13F
3AA
2AF
02E
022
377
2DF
391
318
300
369
01E
28F
2FB
019
108
39A
0FA
37E
35F
334
0DC
3A6
054
3BB
3B1
2C3
04D
0D0
0FF
04E
2FA
29A
13C
00E
087
2E0
068
02A
106
349
2CB
2C2
298
33A
04F
2D0
3C1
39A
06C
0F5
361
0E0
034
33B
354
32F
0A0
339
3E8
11E
388
3EF
152
376
387
00F
2A8
363
3F3
2A0
367
0BA
334
049
043
098
117
31C
3D4
2F0
0B6
040
165
3E4
38C
3F5
295
0D4
15F
139
362
2DA
347
0EE
3F2
375
312
004
385
135
2A5
157
140
149
35E
30F
393
312
2A0
00F
325
2D7
2F3
10D
3A8
0C0
2AF
2FC
0D3
39E
0EB
071
130
3D6
2D4
147
2DE
022
392
2D1
05A
34E
367
0B5
3E2
2C1
086
3E7
030
35B
14F
307
125
0DF
111
10A
07F
34D
350
3C9
3F9
0F6
358
177
09F
141
0C6
391
2FF
3BD
00C
132
054
2FD
2CD
342
2D4
0C1
00B
3C2
075
286
2F5
3AF
0B5
2AF
394
0F1
14E
3DC
0CF
0B6
31E
046
0CB
0E4
32D
074
15F
3FB
348
33F
288
34F
14B
2A0
30C
025
17B
3C2
04B
121
3B9
294
10C
05F
145
2D6
313
04A
05A
3F5
094
055
09B
0B9
107
05C
334
2BF
3F8
097
3B5
032
0F9
01A
03A
339
342
2DE
0C1
3FA
374
0E4
154
0A8
0DB
2CB
2B1
386
349
0C0
0F3
021
3CF
110
353
13F
092
054
0F3
3CC
345
2AD
091
12A
2B8
39B
127
014
16A
369
097
010
2BB
336
2A6
330
361
3F5
3A9
339
3BD
393
062
042
0BF
341
173
301
0AB
2F8
113
12D
02A
32E
341
095
0DA
13A
3FB
0AE
3BB
128
0D7
2C4
2C9
3BB
2F8
3E4
14A
01B
0A4
043
317
0B0
349
2BB
14B
00A
3E0
14D
0B0
2B9
003
0BF
2B9
33E
080
2FB
0ED
169
37E
149
0F0
3D4
0B5
049
16F
152
322
0EF
2B3
2AB
2ED
09A
32D
37F
357
15C
339
131
3AE
318
381
0BF
007
08B
0F1
047
33E
0EE
2BC
355
0A0
09A
2BA
370
313
35C
2FD
067
0D0
146
140
3BF
368
36C
367
3E2
019
2F6
01C
0FD
360
13A
15F
115
14C
333
0DA
289
094
2CC
080
0CF
0D8
14B
350
2F6
12A
16A
06A
02A
060
304
350
09F
2A5
009
03C
338
30F
0EA
179
2D6
100
123
327
37D
106
118
2C5
3A2
394
117
0DB
365
3C4
0DA
0D7
3C1
14C
37C
177
2E3
0F9
13F
08C
0B5
2C8
066
30F
3D5
141
2F4
3BF
0F1
0DC
0EE
0DB
308
31E
16D
366
0A8
37E
2C5
10D
340
2C6
28C
081
136
11C
15A
15C
295
384
11E
0D1
3A1
0E5
350
055
3BA
16F
078
11B
0ED
0F6
0A2
2D8
080
13A
3DA
3D2
066
01B
106
100
0A2
3BF
2F3
025
10D
13D
2A4
04C
0AE
01E
34A
38F
346
3FB
08D
326
37E
3F1
3B8
003
379
150
3B9
395
128
2CD
0F8
098
3AE
35C
11A
3F4
2ED
34D
3B3
150
2BB
0AB
138
0C9
2C2
022
2C5
297
2AA
110
297
2AA
2D1
346
103
3B5
333
2E9
3B5
3D2
0AC
107
140
105
3FE
3EC
0BD
3D2
2CD
34B
356
2FA
039
33A
15C
3AE
062
3C6
3E4
0E6
375
146
3A1
39D
06D
12E
02E
162
0A1
006
0D6
2C8
303
36B
3DD
35D
336
0BE
0C2
2E6
3D0
32D
136
0FE
053
0AF
28C
177
132
0E6
0E0
07E
319
30C
30D
121
3DF
3F5
0D1
3E9
16D
2A9
2D8
295
3CA
085
124
361
3F4
30A
130
329
063
0F8
3F8
0EB
13A
127
12F
14B
2C8
2B2
08E
05A
3C7
33C
0D0
2A0
32E
3A6
3EF
179
396
291
3D8
14A
095
03E
3FC
0A8
0D7
132
3CA
10A
2C3
023
320
046
327
064
319
05B
343
322
098
0AA
0B4
3C8
310
288
010
00E
2D0
364
390
093
2A2
0F8
32A
2D1
00C
057
302
37C
14A
379
39A
053
294
3B4
042
02D
02F
304
2B4
063
3AF
305
31A
296
176
2C2
096
0A3
363
0C9
15E
145
053
3BB
332
0C8
0EF
32F
06E
152
358
02B
2E0
149
2AA
059
339
0A9
04A
008
0FB
121
2F5
06F
168
0C3
2F7
3F0
172
051
01B
16E
38C
130
3A0
065
3AF
388
28E
2A0
341
14B
00C
2E1
085
000
2B4
078
07F
02C
0E7
356
311
36D
02F
308
0D4
137
327
378
102
16F
045
00D
0A0
324
044
14D
0B6
28E
3BF
3D3
36C
2ED
34A
364
0BA
3E1
3B9
05E
34B
10E
09C
2A8
3AA
336
2E4
37C
008
0A7
156
093
170
165
11D
030
3ED
009
0DC
3AD
328
2F6
2A1
01B
0E1
136
07B
309
12E
04B
128
3C8
0BB
311
045
00F
37C
0B4
10B
3E8
3B7
02E
35C
066
3F9
31D
37A
164
2D9
364
142
143
0DD
332
3D1
089
14F
33A
2E1
2E9
0BB
31C
003
150
112
0D9
3BF
15B
28E
133
2FA
043
2D9
3AE
0A3
291
2F3
149
119
348
37B
316
020
019
085
03A
3FC
368
012
3EC
069
31C
09B
0F5
02E
3AF
03D
288
2AC
011
14E
0A9
3DD
3AD
110
13B
3FC
038
346
17B
038
09B
101
2EA
020
2A6
0FC
094
350
2D1
373
2DD
017
07A
024
02A
108
06E
105
14E
0CE
08F
36E
0E0
00E
295
2F3
3E7
078
12B
32B
31D
0B6
05B
0E7
38D
0F2
355
0E3
34C
2B7
334
0A2
3B3
0BD
0DC
3E9
3A8
016
0DE
0D3
37F
05E
042
3E1
34F
027
00E
0D4
08F
3D5
3AC
334
314
348
34E
2F9
0B5
356
2B5
2EF
174
2B5
2F8
2BF
11A
2A7
0FA
154
081
10D
0C5
2A2
3D1
299
358
11C
3E7
2E0
3F0
385
166
3B8
37C
30C
34A
083
01D
335
058
341
2C5
3F9
108
389
2C4
310
3A7
371
39C
0D9
008
176
03E
388
020
048
03A
361
094
0AF
026
354
073
096
009
296
040
3B5
2E5
3D6
344
3B0
3EF
122
3FD
076
092
302
05C
2A1
16E
2CC
2DB
28B
3F0
3C0
10D
01A
04D
38C
2B8
3E0
3D3
0E3
38D
119
14D
2A5
29F
159
130
351
16A
097
298
37E
3EB
09D
02C
079
33C
352
0D0
3A6
343
3A6
3DB
10B
11F
3C6
168
00F
35A
3F2
162
01F
0C6
058
28D
176
026
005
05B
011
04E
2E4
04B
2D7
11B
0D9
289
3FC
3D0
03B
36C
04C
15A
296
05B
036
2A3
126
167
117
071
04A
172
30F
3D1
2E3
099
381
2F2
2CB
167
3F5
3F8
0DA
338
36A
2BB
168
381
17A
31A
0AD
35F
060
30B
380
367
067
0C1
324
2E1
17A
2B1
331
28D
3C3
081
3D5
2C4
078
05C
001
327
301
07D
3B8
347
2FF
0A6
177
2CA
08D
34F
339
33E
09F
02F
133
338
350
39C
365
09A
0AC
2E4
017
303
36A
0C7
329
048
310
2B4
0D1
007
3F9
098
3FC
138
149
3D4
31C
027
3CA
333
16D
176
0EA
0F9
3A2
3D5
369
2B2
3A1
2C5
3DC
3DA
31E
05B
009
32D
36F
2C1
15B
116
34B
000
08E
118
08C
3F7
3B3
2A3
16C
382
09A
0C1
063
379
011
001
339
28B
2AC
112
2B2
35E
39D
2FA
0DF
14F
050
012
315
01A
022
364
03A
0F8
3DA
117
0B4
2C9
139
366
0DF
29D
39F
2DA
130
3D6
0CF
3AC
091
039
2A4
0CD
025
32B
325
0E2
14F
144
027
081
154
2B3
2BA
099
298
0C6
2E0
15C
147
0B0
07A
2B9
32F
37C
3D3
115
036
2D9
375
0CE
3DD
384
364
347
15C
0EC
342
0FA
38E
319
0EA
3EA
3E9
0EC
3F5
0D1
34A
29B
0E3
12A
377
13F
382
141
0B0
0E9
15C
0CE
0D2
284
165
061
2F6
113
2A1
095
300
0B9
288
0B3
398
334
11A
3B8
3F3
049
071
02B
2FE
02D
3C1
3B2
040
355
119
024
288
074
0C2
159
2F6
06A
3F3
387
05A
14B
3F9
2D7
2C4
393
311
038
32C
389
17B
361
363
312
392
39E
07A
366
2E7
3B1
330
374
299
101
136
2E4
094
305
320
0B4
046
11C
397
059
34E
328
01D
366
397
3E1
35A
29C
173
2C8
38D
350
157
31E
325
3EE
397
05D
336
2E9
0BB
152
0EF
117
388
384
3E8
171
007
070
083
32E
3B6
3C9
03E
3DC
3F8
120
2BF
30B
13C
373
005
3DE
08C
10E
384
3AB
318
01E
132
29D
370
067
025
369
127
015
2E0
023
0E4
00F
3E8
3FC
360
2E2
30A
0CC
117
375
07A
342
2F7
092
3E7
2BB
168
0F5
04E
09B
386
025
14C
036
0DF
018
0B5
060
291
144
0FF
3E4
029
35B
3B7
0BC
33C
2E7
3F9
16F
371
385
01E
2A7
147
0BC
28E
344
070
369
134
021
0C8
122
069
37F
091
3A1
32C
2FA
3EC
0A0
32E
122
287
3AB
0DB
2D4
15C
0C0
360
140
35D
135
3D2
050
2B9
137
03C
3A8
2F3
2BB
05C
087
2C4
3FF
0A1
2D8
2D3
09F
108
3D9
098
037
392
14C
14F
367
369
2F9
2B5
2F2
0F6
305
331
0BB
371
031
11F
0C9
3C8
032
2BB
334
3A4
2D5
0FD
035
2B5
010
043
007
108
135
3D1
30D
3B5
3E2
127
373
356
130
163
12C
142
3F2
328
296
3A4
0E2
3AF
07F
028
2AA
17B
2D8
32E
3EF
361
0B6
36D
39D
2A2
2B1
29F
0C9
314
02D
360
120
3E9
374
36E
140
05C
327
318
150
337
076
2FB
0B1
329
30D
008
094
00D
2D5
02C
3A6
30B
095
3D6
331
054
321
3BF
0DB
014
3AF
0C6
3F3
30C
057
0B7
0F6
3F0
035
0DA
338
28B
326
125
060
033
31E
35C
079
13F
0DE
32B
39E
368
28F
16A
31B
3DD
09A
38B
2F8
140
133
148
319
290
06E
08D
073
057
2C7
2F1
083
370
3C8
04E
0BE
2B0
07D
08C
307
31B
33F
373
06D
163
2EB
15E
374
2CC
0E8
2BD
317
0A3
3CD
0EB
34B
34D
2E5
313
08A
04B
07B
2C0
0CC
09C
305
38B
2F8
14A
2B0
0F8
0DF
37F
2A0
0EC
331
009
177
049
008
34E
042
36C
3BD
378
011
0C5
01C
2B8
046
284
3DD
0A7
170
11F
021
2E6
2FE
0A9
37D
03C
346
07A
071
0EB
32E
0F1
3A7
395
0EA
169
302
0BF
2A7
088
3CB
00A
042
123
04B
046
2F5
381
13B
026
120
056
2C6
0D8
39B
0AE
302
378
33C
2FF
32B
127
34C
334
05E
2DD
36F
0F1
170
314
059
037
01B
006
13C
2D8
2C1
2FA
15C
099
0E0
31A
115
3B4
3FB
2A4
172
169
05C
044
01D
021
076
089
3C4
026
058
362
3AB
388
316
132
3D3
15F
3DF
04D
2A2
2E2
34B
34A
0F2
0AA
2A2
382
3D7
2A8
035
000
34B
2C5
040
3AD
2BC
3B6
2CD
2D0
323
167
013
05B
2C9
3DC
052
127
147
039
2B6
2F5
33B
3C5
039
0D9
127
150
07B
360
317
29E
09A
021
353
0B6
319
17A
065
371
37C
2D9
351
107
350
3AB
2F6
29F
366
3E7
3F2
28F
113
2EC
2B0
326
013
33E
39C
06B
39B
2A0
005
0F6
3ED
391
150
0FF
3EE
096
05C
08B
32F
2B6
2B5
107
010
045
0A1
080
09E
297
08A
0E7
3DD
000
3F1
16F
052
2EA
129
3C6
13E
129
11F
0DC
105
3FB
109
37B
05D
11E
06F
17B
389
2E3
08D
35A
3F6
3E3
2EC
0CC
348
38B
36C
28B
2EE
2E9
122
3C8
159
070
284
338
007
342
30C
3D6
2D0
15C
064
29A
022
116
053
376
306
2F0
132
109
03C
068
168
179
378
383
341
0D8
110
2E9
357
29F
033
022
296
2CC
053
068
28C
318
37E
15C
0F4
025
31B
28C
37E
2EE
143
2FB
339
175
28C
316
29D
385
128
319
3C5
166
3EA
37C
040
0D9
29D
00D
022
0EF
3D3
167
145
2C3
297
0F8
101
3DD
308
077
040
046
007
28A
2A0
344
3C5
368
07B
067
0EC
384
079
3C7
0E1
002
0E3
0D2
13B
373
3E8
14D
009
2E4
2C4
386
39D
149
3FF
379
0AE
29E
293
129
3E7
2BA
0F6
3DB
100
019
314
08B
35E
312
009
2E4
0B9
155
0DE
382
398
2EA
000
098
0AC
109
37B
2BF
087
0ED
390
10C
139
122
2C9
06E
3FE
033
176
036
03D
11A
0AB
2A5
10F
3D7
15D
016
15E
397
006
013
288
0BC
0AF
378
0C8
293
33C
01E
2A2
347
0CB
30D
124
283
099
33E
070
05B
2BB
148
062
0A3
3F3
380
01B
124
080
00E
28E
2A2
35B
359
003
072
07F
012
29A
003
114
043
2AA
3BA
33F
0E0
2C4
030
2AC
0D5
2D0
3E6
0E3
07F
309
04F
3AD
0D9
335
372
158
032
11E
389
099
0DC
026
17C
344
3AA
07C
29E
35D
39E
147
2C6
0B7
040
0F2
00D
047
3CC
0AC
0E9
007
148
3E0
325
122
2D2
144
2DE
048
0A8
08F
2C6
292
2C4
2D5
38E
021
317
171
05D
0BF
332
083
3B6
087
2A9
3C8
115
0E7
345
0CE
0FD
126
125
0DC
09E
2D8
290
139
0B9
12E
2E9
065
3BA
00D
11C
3FA
0A9
096
114
058
3F2
375
0CC
0AC
2BE
082
340
102
38B
0BF
2C1
3FE
3C6
29F
14A
389
096
2EE
055
143
29A
339
36B
0FF
05D
2E6
2F6
286
02C
3B2
08C
35B
362
05F
3D3
356
315
173
0EF
13C
290
3B8
3AA
036
35A
159
291
0D7
3E4
315
012
07F
2B2
15F
38D
0DB
3B1
0E0
2E0
0D5
12A
3E9
316
3E6
0B1
0C9
0B1
0DF
299
03B
3FA
04F
29D
00A
350
301
04C
295
397
30A
03D
3FD
0DD
3AD
04B
389
094
3CF
0D3
319
38C
2D6
14F
16B
126
0E3
3F3
31F
124
138
2D6
3AD
06A
2DC
080
055
31F
29B
341
083
36B
0DD
3E7
060
14F
132
3AE
021
115
021
324
2C1
0BC
2A9
366
2B3
3ED
3A1
174
0FC
06C
0F9
0AF
31C
3BF
377
146
04A
10F
082
3B9
3B3
179
287
3C0
2D8
0B0
0E8
307
10A
113
286
3A8
0AB
0CB
38F
2DB
2B8
0FB
12A
33C
0C0
2DD
178
2CA
10B
3BD
10C
071
348
36A
324
071
0B5
306
363
042
047
00D
2D4
2C2
36D
152
172
296
363
2E2
12F
072
368
0C0
0D3
3BA
016
177
148
0EA
2B6
2D5
009
119
319
021
2E6
01C
064
3E6
3DD
016
091
3AD
099
2B7
15D
07A
39B
148
2B2
373
2EA
12B
0CE
177
04A
161
348
00E
32F
36A
351
3FB
04C
38C
339
370
097
0F8
38B
29A
3CE
10B
313
123
016
16C
0E8
2FB
371
094
289
3BB
35A
143
35E
346
101
30D
079
284
382
2AB
082
039
3B5
381
362
126
341
164
107
2BA
3C4
0A6
2BA
34D
13C
371
352
103
0DE
3A7
02B
014
34A
128
378
294
3A6
3DB
174
364
078
126
2F0
2AC
063
0FB
2C2
174
0A7
351
3CF
0D0
395
071
2E8
12B
0A5
04C
0E7
28A
0F9
135
08D
391
04F
34F
09B
2EF
304
155
034
11B
364
04A
11E
3ED
143
3D6
3C0
10F
0EF
3E1
162
382
0B0
3F9
36C
36A
3A8
024
36E
287
384
30B
3DE
0B9
11F
09E
04F
00F
353
147
2D2
370
093
0B6
2E7
179
01E
2CB
0EB
2E4
06B
2D3
0A7
29D
128
2B0
37E
2A6
3FF
326
03D
2BE
338
04A
159
166
16E
138
3AE
3B1
348
002
2E2
2B0
179
024
01D
389
026
16A
3DF
159
091
2F9
29B
108
035
162
0A2
02F
02B
06E
081
158
174
02A
01F
08B
344
2EF
07B
3E2
09E
346
341
361
054
2E7
30B
0FA
120
12D
037
084
177
00C
3B2
344
0DA
0E4
023
0FF
0C7
2BA
107
3F4
3D1
131
027
0FD
15A
09D
156
3F2
171
052
094
3D9
301
33E
340
12E
10C
2D8
38A
393
28C
3C1
396
090
07A
2EF
3B3
3E7
3EE
081
0F2
327
09C
2E6
0B9
335
2B3
2B3
3B2
391
2D4
022
15B
045
36F
0F7
3E0
094
167
3F4
2AB
2F8
2DE
147
17B
2ED
02F
0DA
013
013
12C
347
046
3AE
083
360
0ED
3C7
047
154
300
0CF
350
3EF
03D
3FB
057
168
29E
2FD
29B
03D
31F
0D3
16A
2FE
3FA
0C0
0F7
3DC
29C
0E8
29B
0A2
12B
143
0CA
04D
395
3ED
333
057
0B5
3CB
336
302
138
160
14D
3E8
0ED
2C6
16F
359
016
0FF
144
2AA
172
11F
0AB
2E4
010
332
0B8
074
370
0B9
0C5
378
0D3
0CC
0FC
058
055
163
028
09B
07A
384
164
060
132
294
37B
148
09B
045
038
0E9
2DB
0E4
176
16C
3C3
2F0
2CC
128
0E9
361
083
3D8
11B
0A8
330
108
04D
30E
2AF
3CD
3EB
00E
12E
15D
2C2
12B
010
0B0
08F
328
3A2
2F4
3DF
3B6
153
394
0F0
12F
0C1
2D3
053
005
110
146
14A
119
11F
055
2A6
33F
3CF
063
2F6
398
0B2
0C1
0C9
2CE
2FA
09F
319
019
09E
35F
0A9
028
390
3C4
0D3
128
137
149
2A7
029
0A6
00A
291
3F8
017
0B0
090
01C
35F
123
2DF
2E7
38B
3E6
294
003
05B
046
34A
14A
288
0F9
33B
03F
16F
385
337
33F
30C
0DF
079
2EC
104
2E4
023
2A9
005
2D0
32D
31B
386
353
28A
39D
2BC
2D7
3AE
302
068
3B9
0EC
395
035
339
2B6
3F7
35B
367
023
29F
021
082
3D8
103
119
0DB
11B
355
04A
34C
14A
29D
146
03A
35B
2C1
014
075
13C
292
045
294
3CB
3C7
351
0E9
28B
379
006
16D
0C1
172
376
0F4
047
33D
14C
042
3C5
359
2A7
0D3
2DC
12C
126
360
3AC
0D0
10C
32C
011
0B3
170
0FB
28C
0F8
157
289
37C
3B1
155
10E
314
02F
37A
0B6
2AC
341
30F
115
14A
377
3B0
0E1
333
2ED
080
0A9
3AC
309
39F
13A
15C
2DC
02E
01D
3B4
3A0
0F3
004
351
022
345
0C4
314
01E
36C
0A8
2A7
350
3A6
08B
31B
05A
078
313
305
2AB
384
33D
0C6
16D
3E5
297
0E0
39A
3C7
026
0C8
33C
3F6
009
02D
0DF
3FD
3EE
359
095
2D5
32D
29E
0DD
3CD
0C9
31A
05A
3FB
149
2A8
29D
3C6
288
071
328
31C
36A
370
367
058
04B
095
316
0DB
0E1
2AE
28C
0AE
06F
350
361
062
2EC
03B
356
0C7
123
13D
29B
0AE
30B
332
110
104
04A
29E
3EB
097
3A0
145
05D
0D4
0A3
2EF
31B
0E7
352
2A2
06E
172
0EA
376
2C9
34B
340
01F
038
045
347
01E
0A2
0E7
2EB
144
111
3FE
11C
29E
0D9
036
127
3FE
2AB
3E6
12A
381
0F9
2D9
104
3A9
2B2
0E1
335
3A2
37D
2A9
322
28C
306
156
2C7
159
3B9
323
36F
0F0
06F
2D6
081
0FE
150
287
2F2
2C0
0C3
0C6
019
2F5
15D
2C0
0F9
3F9
103
35C
040
0BD
0F7
36D
15D
0D5
003
034
103
395
100
05E
37B
0E9
2CC
07B
015
161
2AA
30E
164
14A
387
08E
001
0A6
097
09F
04A
085
15D
0A4
32E
3E2
0A5
169
035
349
3CA
01F
10A
3C9
131
30C
069
331
050
318
3C0
147
070
2BA
2ED
025
155
29B
35C
101
036
062
34D
2EF
008
334
39E
3C8
01E
3BD
3B6
37E
123
32C
33B
16D
094
100
3B6
004
353
032
3CC
09F
3EB
3AF
3FD
3A2
2E7
011
3A9
062
319
3D9
0B2
2EB
367
3BF
2E0
34F
163
098
2E8
284
340
290
33F
2BD
2FA
00A
013
34B
0E3
28D
10C
000
01E
28C
2E9
3F0
00E
144
34B
10C
037
36F
080
2CC
102
000
34D
39C
158
035
061
381
050
326
0A1
159
09E
00A
120
09C
2CF
39B
022
3F8
3C8
01C
097
3FA
025
09F
022
10B
138
2E0
31F
09D
14F
2E3
078
016
371
107
3A4
0D5
026
0C1
140
3AA
06F
0A4
3CC
3B8
156
323
067
05F
00D
3B6
179
359
09C
04F
389
32A
35A
2EF
088
302
046
2DA
2A1
055
139
017
341
3DF
02D
0BD
3F4
04D
2FC
123
10D
3C0
381
0C8
29B
2B9
13A
3ED
343
28B
122
392
006
339
2CE
37E
01C
29D
0B5
3AA
14F
3EA
3A6
3C4
122
2F3
3F1
073
015
3DB
326
2F2
0FC
313
13B
103
3AA
323
39D
3AE
157
08F
39C
3A9
397
13B
2EF
124
147
01B
175
07A
35F
003
155
0DA
39F
2D2
041
369
373
3EE
386
034
05F
2CF
32D
3E1
311
01A
34A
0FC
010
03C
15E
295
34A
086
2E3
108
302
17B
2A3
3F8
094
3CA
174
016
174
15C
38C
2BE
2D3
05C
2C8
2C9
302
03B
054
0AE
041
06D
2E8
334
032
08B
02F
2AF
36D
359
2CB
0AA
067
07A
004
29D
36B
29C
011
366
115
0A4
3E0
2B5
2F2
2AE
363
3AC
0B4
127
2B4
159
3D4
2F8
3B1
11F
021
2F2
004
389
2D2
060
091
144
34B
052
2F5
04F
085
37A
033
3F7
367
11E
0FE
331
147
008
396
306
331
2F4
13E
2A9
038
3CD
112
364
3D1
32D
2DD
356
2B2
360
09C
13B
3B3
31E
2BF
319
031
2E0
28C
087
32C
303
159
0BA
37C
2B3
062
32B
392
026
2EF
308
087
009
312
2D5
06F
32B
09B
0AE
392
074
292
0B8
0C6
385
0AE
39E
11A
0DD
33A
10B
33D
00F
2AA
0FF
3AA
35C
02C
332
0D2
3C6
368
3A9
14D
055
28D
36A
3F6
382
3B7
0ED
338
3BB
0A6
0B1
10F
346
2A0
07E
2B7
0AB
039
337
176
3FD
323
3CF
15B
2DC
125
2F9
0C6
16E
046
35A
0C3
31B
2D9
072
3A4
0C4
309
0BE
0F7
28C
37A
110
35A
2B6
38E
0EF
3D8
028
0C5
031
307
023
0E9
2E7
0C4
3AC
003
091
160
38C
33A
09C
398
388
0FB
008
08B
2BC
355
0A3
358
00D
0EB
05C
3B3
311
107
15D
295
111
041
038
2CA
05C
312
2FD
03D
151
125
0EA
133
129
03D
383
2CA
144
3F9
290
373
296
38C
10A
295
14A
150
366
2E1
377
3A6
145
081
0EA
2DE
108
2D3
37D
39C
0F9
314
3A8
3BB
122
343
298
0CD
0F1
0AC
096
035
13A
163
04C
09D
2A1
344
2D2
128
0F9
008
02F
3E4
0B4
017
0EB
07F
13A
0E3
2EA
338
089
118
38A
0D6
175
12C
3AE
07B
0FB
387
3C1
2B3
3C7
11F
3AA
328
0C5
2E8
100
131
15D
156
2DB
342
022
3B6
37C
0E9
2F3
312
0C4
081
002
36B
289
100
309
025
2C9
3CF
16A
2FE
136
016
166
0EA
39A
0C3
015
121
11D
3C0
148
0D8
07D
385
399
172
156
0B6
39B
325
357
3BB
0D1
163
067
33E
0EF
3E5
364
144
2D8
3ED
02A
2E9
3A0
0DF
2A9
13E
35B
097
366
3D7
126
0C6
35D
003
2AB
333
010
092
2A8
124
30E
04F
3D7
054
378
2A9
3A2
13E
0F8
3FC
171
36D
2A1
35F
07B
3D1
073
383
3A2
089
348
357
322
0A9
0C3
16A
3C8
0A9
2EB
092
167
060
320
35B
3E0
051
2AB
2CA
114
091
005
325
3DA
3FA
0B2
07A
054
330
08B
060
2A9
09B
361
2AD
117
357
0D0
0F1
105
175
316
173
0C1
14E
2B1
018
0EA
387
31A
178
345
0F0
2FB
322
2F4
086
0C4
14F
3B2
0B6
08F
138
01E
3D2
100
0AD
13D
016
16A
3E0
0A2
0EF
0B0
2F1
390
3BC
0CF
3C2
2E1
361
3E9
33A
003
395
3EF
2A9
158
30C
0A0
113
0B2
3FF
337
38D
3FE
3DA
346
2B4
05D
286
075
0A8
0E0
0C6
391
3B9
2D0
04D
17A
128
3D0
3D1
37C
14D
304
07C
04E
066
0E6
286
375
09A
143
177
307
0D6
322
164
0CA
03C
017
3B5
0D5
06C
0BE
2B4
304
374
3A1
3F6
3FA
0B2
3E2
33D
09F
3FD
387
392
109
065
2DA
32E
2A0
3CE
3F5
3CC
017
16A
06A
034
027
131
0BB
38A
2E0
059
043
28A
175
303
142
13F
335
292
021
3C6
35A
101
30A
2F1
2EE
388
2B6
0A9
3CE
0DF
3A4
036
3C0
2E0
2CE
0DE
172
2BC
106
14A
132
002
3A9
035
2EF
3C9
044
3F0
0FA
3C3
2EB
363
352
37D
08A
286
067
289
341
2C9
38F
178
0B9
3F2
068
0F4
3A8
039
388
348
00D
350
086
065
2A4
0B0
0DB
2E9
322
305
05F
325
2E8
2DA
054
39F
070
3B8
0D9
03C
350
2AA
364
2F5
10D
156
165
345
0EA
150
057
3DA
15B
2AD
2A0
0BC
2BC
042
3C1
3EE
123
3A8
351
344
078
374
3DE
3FD
15F
05E
045
2EB
31B
3D3
290
0FF
13C
106
14F
117
3B8
174
375
395
13A
082
095
2B1
053
28C
2F4
2AB
125
08F
176
0BD
152
015
31E
285
294
0BF
0C8
361
0A5
0DB
2AE
2A5
047
3BE
13D
117
2D2
