136
138
21D
560
1EB
5F6
724
65E
7B8
676
5D5
113
0D4
5BA
555
28B
6B5
02D
55D
5E7
618
580
744
04E
03F
7FD
736
59D
6C8
6E5
737
097
5D7
672
018
077
05C
286
121
045
24C
6B8
565
65F
55D
548
584
686
1D5
0E6
225
7B6
678
0FD
0CC
0A2
6BA
5D0
02D
1A1
712
679
04F
137
5DF
1DA
5D1
2B9
02F
6E0
711
5C9
745
67D
15B
549
7A6
233
200
11A
1F7
7E4
587
2B7
653
1DE
276
582
268
6FF
7A8
191
144
184
76C
7DC
6F4
229
2A9
542
54A
7FE
16E
543
752
14E
67C
280
1F8
7D8
21C
7F8
5D2
764
273
5AF
59F
571
701
210
106
7B7
607
019
548
5A7
128
114
64B
23C
576
090
5C0
562
57C
11D
665
217
688
058
127
192
11D
711
5F4
601
75E
5BD
757
720
7E2
0A9
2BA
54C
2A8
0A6
7A1
799
2BB
27F
064
26D
281
000
26A
5E3
036
19B
73A
5FA
63B
6B2
5A0
585
552
713
277
292
723
256
560
71E
780
594
552
083
678
278
175
5AD
630
20B
578
69E
26A
163
598
586
5E3
0DE
17D
234
561
572
159
5D8
035
6FB
1DD
26B
563
751
557
631
6CA
071
001
54D
102
77D
189
051
68D
752
2A6
270
6B5
18E
5FA
1B7
5D4
705
640
0DA
2AE
798
61B
79F
0BE
119
064
2B5
668
1BA
204
672
10B
58A
06F
1A2
6B9
5C5
07E
552
0C9
1D8
1B4
574
0D0
11E
031
5F6
1B4
294
709
00A
24D
6D3
7E7
096
179
645
2B4
015
0E6
58A
5B8
249
010
5FC
0B9
6A6
770
7B3
5C2
63E
7D5
711
277
6D6
134
238
6E0
02A
71C
767
046
561
542
13D
1CB
1E9
650
640
7F5
73B
139
5C9
601
7F3
570
547
181
0B9
56D
268
1AE
54A
1D0
746
1EB
782
247
78B
2BB
0DB
668
6C3
230
686
7BC
5E4
0FA
277
1FD
76A
660
03F
1C2
2AE
586
207
1F1
6C5
0E3
203
208
09B
576
642
708
09A
255
5E2
58E
24C
7E7
030
57B
7D5
185
758
198
546
554
7B2
545
16E
7EB
7B1
56D
58F
695
0E2
608
620
706
2B4
72A
5EE
281
6BF
715
763
6F1
217
051
65B
5BC
572
642
09A
621
226
17E
27F
049
6C8
7B8
60C
73F
639
193
16A
685
15C
7A7
0D3
21F
54C
258
5FA
5D2
774
673
1EB
7A9
7C2
1DB
5A6
024
13E
58D
661
076
5BB
27C
6F6
66F
639
56C
798
73E
223
0AF
09C
18F
1DD
04C
6D6
232
2B6
5FA
00A
138
650
044
60C
5DD
745
67A
6F7
031
006
5BE
0AD
056
6C4
618
60E
6BF
715
1C1
67C
052
631
54B
1E0
15F
7B1
779
001
5D8
7D9
114
600
01F
596
017
621
036
75C
23B
592
19C
07B
148
16D
68B
2A3
1CB
23A
126
160
5E2
031
64B
64C
63E
04F
5E8
17A
286
5E0
279
63E
260
74D
044
29A
013
227
18F
0F0
06A
6A8
24B
068
1FF
619
073
711
12B
170
0E9
140
058
657
045
130
607
78F
6B5
56F
6F4
671
11E
0ED
6A1
6E4
607
10E
049
5ED
059
2B8
5B1
68A
11F
0BE
67A
099
226
28B
1AF
671
6E7
1F1
701
08A
7EC
0C8
6DA
5B1
7C3
6EE
24E
718
21C
7D6
0A3
721
6A4
277
198
0D8
1DA
182
558
14A
1E6
6C0
221
261
616
544
7CE
68C
777
745
085
5C2
6D5
634
6DA
165
211
641
294
056
1E6
789
622
208
1A1
256
6CD
272
0B1
637
04D
62B
078
640
7E5
74A
6D7
00E
005
17B
7E6
1B0
1FC
6D3
052
01C
758
791
673
6C3
5C5
088
1F1
71E
210
235
7A3
787
690
759
7E5
09D
5AA
1BB
606
613
796
587
7F8
62E
6E8
2A4
1B7
1D2
223
285
5FD
070
037
618
674
177
1DA
561
118
70B
0D0
14B
5EB
073
694
7D7
6DF
253
130
6D8
0E2
667
6AB
0EE
70B
1BE
6EC
651
1FB
79A
6D3
5F9
0E9
643
77F
178
000
5D7
6E3
6AF
755
5FF
241
7F8
698
0D5
663
063
6D5
1AD
6AB
644
561
70D
588
6B6
258
201
6D1
194
55D
67A
6EA
076
2AF
192
03C
1C4
775
1CD
0A6
05A
72F
5E7
081
61E
678
77D
19F
2B8
739
21B
055
2B0
6BE
769
683
736
7D7
610
1EA
692
686
012
5C1
67F
660
64B
263
68E
59B
0FB
7BD
665
58C
7F5
0BF
1F6
08A
75C
734
667
727
1D6
66A
0BD
175
67E
5FE
1A2
2B0
203
6FD
606
5BD
63B
7ED
1E8
01F
590
2B5
1B0
028
1AB
0F4
5A5
606
5AA
21D
5B9
1FF
692
75E
7F8
687
16E
028
218
64E
5FD
728
247
257
76E
76E
09A
022
24D
0A5
7AB
5A8
595
687
13F
553
169
04F
54A
592
0E9
60F
1A2
66C
04A
549
2A1
790
57A
77C
63D
06E
7DE
6A5
6DF
126
177
629
748
2A9
644
6F9
26D
6A6
608
763
64A
260
7DA
67E
693
67D
6E7
0DE
699
0FB
5C9
606
652
563
124
7AE
21C
101
1B1
618
791
78F
69A
069
298
672
0F5
5D9
27A
76C
251
199
6EE
288
120
0CC
67E
26A
051
0BA
24D
6DF
72D
138
003
577
597
54E
572
7A4
009
6A6
681
158
0B0
202
03E
769
0C0
5A5
13F
057
545
29F
014
7CE
2A0
18B
0AF
0F8
0A3
27F
65F
68B
7BF
223
0AE
134
211
18B
0D8
114
73F
0AB
1CE
099
77D
08F
6BF
7A5
7E6
55E
563
56D
58B
245
0CE
0D2
733
59B
774
6C2
012
242
150
7BF
26B
573
769
13E
595
285
5E6
0F0
0B3
717
66B
005
6FE
74F
61A
184
061
148
2B4
577
76E
69F
57E
011
1DE
0F7
1E2
73B
130
00A
57C
191
700
6F7
654
6D4
61A
727
7D3
059
254
61D
298
0A6
09E
2B0
212
5A6
275
006
7AB
575
728
75B
653
66C
693
0E7
285
191
146
1F3
7F9
0F4
16B
0FA
17A
122
058
7FB
0AF
066
13C
7DD
17D
6C6
1D5
233
0C7
02F
1F0
7F3
146
191
748
6E6
164
24D
5BC
7F9
246
209
610
719
04E
113
0B1
0D7
007
202
772
583
593
623
1E9
7B3
5F1
146
628
5EF
5FB
7FD
0A1
0C2
671
2AA
7D1
5EE
7C0
7EF
233
070
136
1CA
5B7
7C1
194
612
5EB
044
1B3
7C6
572
175
57C
5B8
55A
613
0A9
0BC
5F3
126
1D8
7F8
1E5
163
198
754
09D
6DA
11C
79B
1DC
7B3
204
7AA
7B8
6E4
7F2
5F9
0CF
08D
76C
036
27F
027
621
18E
6BD
1E4
277
700
62E
648
18A
74A
7FC
01F
05D
7EE
654
209
61B
75C
6EE
6CD
7A1
717
268
2B1
6AB
581
5B2
753
1BD
5F9
02A
799
69B
219
012
6C3
0EE
6D1
170
7E6
0E7
611
7B6
755
6EF
721
1C6
092
7CC
634
546
69C
057
7DB
796
758
19C
12D
73C
0F0
0C4
081
68B
5EE
62D
7F5
274
189
65E
16D
118
678
74E
17C
21A
20C
0F9
132
0F7
21E
0BE
629
6E1
6C6
0D1
2A8
0BC
695
0D9
638
5E9
0FA
73B
2B7
654
1E7
6BA
6B2
7B4
155
0F0
783
19F
5FF
129
63B
027
1D1
7AC
0C5
6D5
70F
1C1
127
0E8
10A
27E
210
7D3
14E
163
73D
6F2
121
64E
6FE
081
0EA
564
64A
7AB
67C
67D
66D
732
16D
7BC
003
5BC
57C
15B
0BE
1E7
669
5FB
6BF
69F
11E
155
747
576
688
64C
561
014
2B5
552
1C1
6C7
78A
696
645
6E8
6AE
6DD
5B7
598
166
113
6BD
1B4
57C
6B9
59F
151
039
743
0E1
072
56A
6DE
6BB
793
703
6DD
265
70C
553
5FF
236
610
16E
2B9
5C8
0A1
6D4
13C
0AB
208
2B9
0B1
57C
0E8
7D1
637
599
647
783
1C0
028
0C2
552
278
736
27A
0BD
621
594
19D
131
147
157
28F
546
0C0
220
203
1A6
585
59D
1C2
7A0
10B
76B
580
094
71E
75D
297
7E0
0E2
248
1C9
003
04E
78A
045
104
7DB
1BA
7E8
5E6
28C
7F2
738
097
66A
276
02E
18C
258
613
10C
62D
063
043
20B
05E
611
23B
7F4
287
7B5
7D8
7AD
008
70E
706
661
5D8
0BE
5E8
0B1
183
587
046
71B
080
623
1D6
7A5
218
68E
5E9
11C
1C8
6C9
645
27E
131
770
25B
5C4
69B
2B4
682
28E
18E
158
6C9
2B8
5D2
787
163
00B
027
151
5FD
28D
5D3
622
559
196
59F
180
74A
74F
10B
6EF
2BA
13B
575
5C2
5A5
686
7F3
733
663
1A7
218
030
205
546
020
7D4
1CF
115
05E
2B0
27E
072
6AF
261
64B
7EE
73B
619
061
604
64C
651
683
128
047
0E7
298
661
5CB
151
7A0
6DF
0CB
1FE
054
5F9
1CA
75F
722
27D
648
26C
655
074
555
765
1EB
15B
78F
009
5D6
015
695
621
560
57D
026
126
5CE
24F
768
019
6AD
607
69A
741
5B5
09C
1E5
093
5EC
6DB
0B1
787
1CB
2AB
748
165
025
1D9
5BA
6D0
76C
5F8
28F
0EF
62F
045
590
565
612
1BB
74A
21E
74C
11D
5EB
6ED
264
1F4
121
0A7
083
118
706
1F9
18C
226
625
74F
641
0DA
1E9
705
1EE
57E
05F
665
5B2
747
267
010
7DF
648
72A
71A
56A
777
587
246
0C7
7B6
66A
01B
69E
75F
0A0
5A4
6BD
5AE
619
7FD
679
178
16F
6C6
21B
225
5D2
59F
294
020
0FE
54B
02F
7B3
695
2A0
677
786
65B
60B
055
1F1
5B1
63D
1E9
04C
231
7B4
19B
193
7C3
6FE
28F
762
21D
1CB
64F
693
5D1
0E7
197
1FD
6A2
7D4
622
0F7
1AB
16C
62E
698
6BA
1BE
62E
7D9
27D
6EB
1F9
7C7
5AC
001
7CC
555
7E6
6F0
09A
1D6
774
562
6CD
786
6D2
7AE
577
298
75B
77E
1D6
10C
7CF
2B8
564
155
29E
7A3
57E
21E
79E
75A
679
181
706
597
613
57F
702
1CC
59F
177
5CC
070
688
5BC
007
732
0A4
2A0
25C
0F0
19B
1B2
18A
003
12A
1B7
25A
759
670
641
5AA
1B0
131
5CE
07B
5A9
676
681
5A3
6AD
7E6
20E
6C5
0C3
0B0
6E6
71A
730
7D8
734
72E
072
7B4
072
546
564
06C
633
218
7B7
7B9
0EC
281
060
71B
6F6
21C
088
2BE
114
1F2
06A
1A0
6A8
6BC
1D6
11C
64B
02C
581
703
17A
59E
0BF
641
1AE
654
6BD
78A
0FB
025
765
113
0C5
59E
781
087
6D5
704
018
7D3
575
6CF
09B
22B
20A
042
29A
6A8
11D
697
784
0C2
0D7
29A
1C2
549
73E
759
558
180
03F
7F3
088
747
0CC
5A4
024
1F5
18A
20E
65F
2B1
26E
739
75D
601
6DC
1CF
7EB
067
59D
16F
630
77F
7DA
10F
55A
77D
649
5FE
232
544
211
7E6
0C8
1A1
7C8
05C
70C
5E4
1B8
5C4
224
61C
775
6B5
1E5
78A
75A
158
5EE
68B
5FC
673
07F
2A1
606
1D1
5EE
024
0C8
752
128
041
5FC
5F5
055
28C
568
605
688
249
0BC
0B0
7EB
13A
588
63A
710
6CA
0A4
098
10B
01B
592
629
621
62F
1BD
611
792
61B
068
59E
542
5A1
6AD
03D
12D
79D
583
245
080
6F8
134
63B
127
06D
7BB
06C
167
133
7FB
0FD
1A1
0E1
7ED
709
62F
63F
1BA
238
7EF
088
7CC
20B
612
58F
7D8
2B2
697
027
64D
177
603
7B2
04D
164
70D
5C8
5A4
5BC
0B2
658
048
74F
1BA
16C
656
2AD
223
68C
2B2
662
1ED
03A
7C8
7DC
716
252
5EC
01B
591
028
1C8
124
22A
6B6
5E9
705
6F3
181
29F
795
7D2
0EE
71C
10B
26E
65C
68A
1D6
5DD
57D
6E1
5A4
175
5A3
223
07E
113
067
792
5BD
293
0D4
228
0FC
137
108
1D3
02F
7C8
74B
5BF
69A
664
7C4
572
21E
629
0E3
251
792
6B4
07F
60E
5FA
63D
198
567
13D
1CA
61E
59E
13E
75D
633
6B1
668
6C6
251
1AA
5AF
023
76B
7CF
7FE
6C8
102
673
12A
078
134
7C1
61E
1E3
1C2
106
032
554
6F1
5E8
7F4
21F
09D
67C
02E
0A7
0CA
741
188
727
102
748
58C
7F3
648
629
23B
25D
259
586
747
1FE
2AD
639
7EE
622
695
607
01E
1D0
6C5
230
14A
1D1
155
089
7A9
5BA
6BC
73E
77E
63E
6A0
0F8
670
769
78B
572
6B4
071
0F6
2AF
28D
26E
03B
71E
028
5EB
692
242
6AF
711
724
6B4
736
0D4
602
71D
117
0AC
0E3
01A
225
032
70C
6FF
18A
19A
7AF
69D
65B
1B0
5B1
780
6C8
1FB
2AD
779
0BE
5F5
1FE
179
7CF
253
5AD
0DD
7E5
2A6
601
637
236
77C
6B6
01D
617
268
0E3
160
008
7B9
0AE
57D
09F
0C1
578
267
74F
548
0C0
5A0
666
0CB
1A5
0C2
04F
16A
129
60A
1FD
5AD
68B
6D7
69C
648
029
7D0
1BB
771
1A1
797
296
209
762
5A1
7AA
78A
053
77A
24B
5A4
77B
6C6
5D8
5C8
67A
5D9
652
1E4
559
690
0E1
147
54B
571
75F
1D1
7BD
66E
62D
0DA
000
085
755
036
051
69C
063
6AD
5C0
2B8
667
6CF
1A6
11C
553
65E
0C7
7A5
5E7
7AE
66F
632
010
566
7F9
724
638
5F3
0D2
27F
5AF
6E4
0C4
5F1
237
03F
22D
615
00D
6E6
00E
133
26F
735
180
134
7BD
1D3
0FA
1BC
6BF
177
71E
048
1DE
074
72F
20A
646
66C
2B6
77E
25B
0B3
774
635
100
1B5
6F2
075
67D
1E9
05A
5CA
55B
025
54D
164
5E6
5BD
67A
18B
649
14D
5D0
57B
0C9
15C
263
193
675
7B1
14D
753
55D
015
729
168
094
739
279
222
78C
694
755
1CD
148
018
20F
10C
689
18D
241
62C
249
047
214
6D2
6EA
6BB
285
039
663
2B2
57B
684
76C
082
661
754
709
686
0D4
2A0
0AD
727
1D5
08C
559
02D
605
572
679
728
727
089
671
032
733
56D
1F1
658
0DB
607
169
0A9
0D3
122
098
54D
5FB
13B
796
65A
5DD
69E
1D8
681
6E3
2B4
127
19B
0AA
563
5C9
0E7
6D6
59D
18E
06D
104
0CF
05A
210
714
128
73C
573
544
6C1
167
5E4
69C
0F9
745
7AC
60E
7CD
211
247
6D6
553
64E
0E0
249
723
0D1
613
1F8
14E
014
631
248
63C
7F5
5AE
76C
7D3
1EF
15C
0A4
230
648
059
254
7FB
157
7BD
6FA
72D
794
103
59A
7BC
120
568
2A5
70D
2A1
24C
6D2
5A6
0D6
78C
60D
21A
2B8
71C
009
153
293
5F3
76A
70A
105
0DC
025
06B
20F
21B
679
612
66D
19C
086
564
203
690
222
174
16A
275
025
25A
0F5
0E7
03F
648
7E2
551
0FC
573
776
70C
7A8
75E
046
272
650
0C4
6B3
0D7
269
6F8
172
76D
055
0D1
0D4
5C6
6F8
6CB
5C0
0D4
65D
6A8
03A
1CE
658
7C4
177
155
5E2
1F5
54C
767
576
12D
6C2
5F1
60D
78D
224
5FC
095
72D
053
5ED
02F
05A
02F
271
17E
6CA
051
621
728
161
0D4
064
180
5DD
55D
5E0
206
1D2
252
5A3
1EF
590
1F9
6C7
03A
57B
62D
267
0EB
76F
7D5
79C
674
231
66F
15B
26E
000
61F
6C2
714
22C
00E
0E9
082
27E
251
5B6
553
2B2
559
5DF
118
5FC
22D
14C
281
117
6D2
1D9
21D
60D
0ED
245
7C2
69D
6AA
1D3
1FF
1F3
7DD
6CA
101
24E
640
2AB
2A5
162
5B1
1D3
1D0
55B
001
1D2
7AF
0F2
7DE
56D
24E
1C4
5C9
704
5DD
16C
586
062
211
16E
1FA
1DD
7E6
1E1
56B
139
213
559
1DC
075
169
7A6
610
002
6FA
639
5FD
769
5C8
7CC
754
68C
045
74F
7B7
5B4
641
1C6
026
18C
0F6
23F
008
77C
01A
69D
1EF
5C3
5C2
567
235
741
1A5
562
7A3
237
6A2
759
681
0E8
036
7AB
7DC
2A6
7C1
249
1F6
08A
289
26D
56C
7BD
094
7BC
174
78E
692
784
770
7A1
21F
763
65D
67B
5E7
623
264
25B
6A8
13F
5CD
070
1BC
225
2B2
578
64F
57B
172
7BB
7FF
23E
26B
660
582
0B1
7DE
6CD
749
1C8
287
2A2
284
7DB
612
6C3
76D
5D2
6D1
245
76D
0B7
67E
714
203
1EE
225
761
5CD
0DB
069
1F4
258
5F9
14C
560
593
240
7C5
05F
6E1
0D7
6A5
569
676
7A7
62A
24A
5F9
26D
0BF
029
7CD
18C
581
5B9
17B
7EC
134
190
688
1D2
128
668
14F
24C
104
081
202
0D0
79F
1FB
640
13D
224
61B
1F7
647
5EA
7FC
733
1FE
1D8
651
7C9
0CF
160
06B
1DF
1A9
7FA
10F
567
5FF
58C
006
209
1CB
795
091
62C
243
201
261
686
2B4
22C
0BB
03B
012
1E9
5A2
776
69D
290
6EE
5BC
5FE
6F2
741
5CB
01D
2B8
680
5BF
7C3
675
01B
662
18C
0EC
088
1EA
699
5A5
544
5DE
66F
625
6A1
0CD
6ED
68E
298
7CF
0B5
26D
6ED
0E5
594
5C7
67B
1AA
542
2B4
062
55D
627
594
68E
2A4
751
753
221
0C6
6F3
148
676
6BA
57B
1A8
7BF
2A8
6BE
00C
5B6
6F6
7A6
5F7
79B
714
248
110
12B
7B8
5D4
133
1F5
21D
592
5B9
6B0
266
750
547
1A9
234
090
2A8
18C
70C
176
576
66C
6C5
6AF
207
55D
0D6
002
6BA
22E
1F2
030
0BC
128
0E3
586
261
1D4
019
719
1F2
778
65B
6EA
661
72A
1A5
7BE
589
643
72E
184
6BA
72F
17E
671
588
62C
5F3
60B
650
7AF
169
5FD
03D
751
06E
095
1D0
26E
148
21C
07C
57D
6C4
00D
564
058
1F4
637
108
701
633
208
70C
5F0
6C0
04D
1C9
1BF
5DD
72B
294
195
201
04B
08F
1D9
6CE
1D7
237
175
04D
19C
7FD
728
769
7EF
220
28E
14B
1CF
199
5F4
0E5
122
6D1
229
7F9
197
223
0B9
6EC
03C
7C9
58F
693
598
1CA
79D
67F
7F2
11F
54C
064
6CA
213
22D
28C
6E3
2AD
7F5
07C
01D
6BD
5D0
12C
78F
720
566
2AB
651
258
061
27A
65B
572
5BB
5FB
6E9
667
159
06A
6BE
641
743
552
1EA
6AE
1D4
5B6
05E
7DE
5C7
630
68B
562
721
055
1CE
7F8
04C
701
55E
673
7AA
1D0
244
117
152
5FA
78F
04D
232
119
26D
2B7
0B7
60D
221
7E1
0C2
120
1B6
2BA
150
7ED
73E
7E0
127
5AF
7AA
08A
212
6F8
2AD
78F
5B0
21E
5F7
6B8
686
258
7F2
05C
748
025
2AF
621
65C
5C7
162
60F
1AF
691
5CF
563
54A
762
0EE
27E
247
74C
04A
799
6A6
65C
6F8
5B9
7A1
27B
065
758
25A
066
697
075
020
7C8
643
66B
7A5
28B
732
24D
0A1
5F9
707
1C6
69C
68D
58E
730
0D8
1CF
610
566
7B2
675
604
615
748
0CD
180
5B7
232
29F
6C9
147
012
09E
0A0
769
1A5
60F
1C4
6C1
78B
755
62C
19C
7EC
6C4
089
732
686
07F
2B1
797
1E2
26E
5BC
6DC
59D
0B4
1F6
687
7C4
57D
168
7DE
5BB
11F
7B6
181
29B
03A
283
0A5
242
0E2
1EC
687
7AC
082
5F4
740
259
269
2BA
5D3
14B
766
65F
718
680
558
07A
55C
76F
65C
0A4
62A
12C
671
724
203
68F
15A
786
133
618
13E
54A
654
66A
6E6
6F1
5B3
666
6CC
789
198
587
08F
6E1
5D7
603
0FF
184
6F1
1AE
098
646
00D
644
255
6AE
5CF
144
2B0
7AA
14C
7E3
739
5F4
17A
6AB
02F
1AA
210
1EF
0A7
644
0B8
06A
290
176
632
081
5BE
5FB
642
218
711
7CB
5F9
720
6A3
109
795
73C
55C
105
7DA
190
6E7
153
7F3
670
2A7
5F7
1C2
233
252
23A
75A
62E
7EC
738
094
65D
24E
67C
75C
0A5
1A1
7D7
5B9
7AC
074
5BE
76D
5EF
284
7D5
164
231
575
287
70B
613
28E
0B2
071
555
26F
033
0E8
7DB
153
13C
564
24C
057
5D5
600
5E7
296
035
5AE
72A
6E1
603
0D5
1C9
548
08E
71E
6A9
159
7FF
67F
5B1
673
7AB
024
1E4
112
6E4
643
661
7DD
1B2
5C6
74A
7EF
5CF
0CD
1E9
700
63C
28D
1CA
623
6A6
5FB
56B
291
690
77C
143
7BD
10E
585
693
241
1E9
77F
254
091
746
0EB
192
139
6D5
1CB
5EC
6F7
5AA
18E
71D
5F1
075
2AA
690
0D3
260
201
0C4
003
19B
72D
57D
783
723
696
003
111
6EA
167
7FF
09F
57D
5EB
73A
285
2AA
185
544
570
683
6CF
662
79C
64E
1D9
692
29E
143
60D
053
13B
75B
60D
2B4
1B0
227
71E
1F6
5BA
78B
07C
16B
72B
062
026
1BD
192
09C
19D
1D2
7D4
639
672
156
7B3
5D7
08D
1DA
605
5E4
06D
6F6
2A0
68E
597
26F
589
72D
0E4
551
123
7B0
11A
5E1
686
1BF
5E2
714
765
173
610
740
7F0
0E6
7D2
715
220
583
296
756
08F
0B8
5D6
1B4
568
721
20B
1EE
22F
189
7C8
7FB
729
5CE
545
1D8
1DD
695
0D3
6E6
5C6
293
10E
6DD
272
221
0CA
7A5
683
7E7
775
64E
69D
6B9
280
7DC
049
6D1
182
644
7EA
1EC
196
267
5D8
71F
062
591
707
101
16F
22C
102
77C
622
0F3
617
657
1BD
555
6B4
230
668
11A
734
678
055
08F
279
009
04E
1A0
657
06A
686
018
76E
5D6
0FB
0B9
7D9
5A5
05F
2A4
7C9
7B4
2A9
274
202
23A
75D
5DC
70E
127
134
697
605
058
5D8
222
566
1E5
077
5F0
239
683
77E
260
733
063
5B9
749
75D
5E1
2BC
5CA
5CB
73D
1B2
5A8
1BC
604
629
594
6C6
113
25D
280
08A
7B2
181
20D
5EA
0FB
543
54B
28F
0E7
1FF
0AE
1C2
63D
1A6
1C1
63B
2AB
63A
61D
67A
7CB
7C9
54C
289
279
62F
666
6CA
1D9
250
0F6
039
02E
13B
686
085
2BE
6E6
7B9
031
5C7
23A
5F9
7FF
08D
267
592
111
60B
55D
735
705
193
71E
57C
299
66C
684
1D0
5E7
18D
5FD
175
59C
605
114
61E
5FB
13C
10A
680
618
7A9
744
021
629
0BC
01B
178
009
6A8
13D
156
5EA
732
73E
7DE
104
634
1EA
69A
0F4
1E7
7B6
007
0A3
21E
76F
092
6E6
0EB
63E
1E5
598
7D8
1B6
630
762
20E
292
5A9
62B
604
5A4
23C
7C6
1F6
0B3
594
6B1
705
77E
0B4
7AE
1B0
20D
60D
71E
613
7B4
117
103
2A2
692
62A
59C
0B6
22E
56C
73E
29D
0F6
1A3
266
5B4
12F
793
043
010
1AD
235
053
081
548
711
5E3
5D1
735
7B3
1A3
59A
742
5DF
201
5EB
5AB
6E3
5B1
74D
797
1BF
662
120
244
7D5
541
59B
214
1F0
7EC
780
7A8
251
20C
20C
2B8
55E
125
2B3
574
626
23F
20E
14F
541
281
04F
0EE
07D
6B3
565
04F
064
5D9
1BD
608
67D
54A
66F
03F
6A3
588
15F
2AA
62B
6BC
5C9
24B
755
26C
7FB
101
79A
76D
5B2
11E
5B0
023
2AD
271
66E
567
732
73A
5AF
04D
092
177
557
242
1B4
23E
127
138
7FB
228
747
7B1
093
6E9
6DC
612
742
210
20E
1DA
045
0CC
06F
6BD
7B4
612
0FD
607
264
296
7E8
1F6
59F
10D
72B
141
148
690
07E
04D
6CA
6CC
0B5
086
59A
7B9
7C1
584
657
67D
7D3
0EE
018
730
23F
28C
573
57C
193
743
5E8
7CC
19A
7AA
596
773
649
5E2
15E
548
255
778
13E
0F2
2B4
021
5F5
1F8
6B8
62B
6BD
027
211
6A4
7CE
549
70C
711
108
16D
697
5F8
12C
798
26A
6E7
098
655
6FB
7D7
018
0D5
1AC
7B1
5B9
000
69D
037
295
233
7E3
5C0
079
29C
07D
6C3
60E
7FF
794
6D0
7E0
743
5E0
772
61A
175
015
18F
09E
27F
236
55A
120
17F
130
64D
17A
145
215
206
5FA
09E
78F
1A6
244
7C6
258
035
2A9
6CA
1E9
647
73F
6F1
009
0CA
6A0
2A8
149
709
084
18D
5BD
739
02C
144
7E9
10C
193
6FA
605
646
760
1F8
5AC
2B6
1E2
036
15F
7C5
68C
046
0A6
10C
0D3
0E8
18F
184
0EE
78C
601
2BE
5F7
733
60D
12D
752
72A
0F7
70C
02C
03A
1E5
138
07F
7F4
5E5
01B
1E1
17A
7DB
55D
6AA
154
1B4
1BC
0BC
5A3
758
759
561
5AB
0A7
04B
294
7EA
691
6B6
28E
73E
6EF
6E9
0A4
6A2
02E
22F
0CF
6B9
0AD
566
22A
5A7
5E5
544
7B5
0CB
629
546
26C
297
6B9
22E
5B1
153
08D
1AF
77C
2B7
66F
65C
7EF
6E9
223
7BB
55C
67C
79D
775
0F1
105
67A
00C
1FD
0E8
02F
756
146
1DE
091
12D
04C
07B
6D0
66B
5D3
5C6
7FA
7C7
6E0
2AE
5CC
078
263
0EF
19E
041
570
17D
7BA
143
10E
70F
5BD
205
29B
097
641
735
5AC
0C8
2BA
084
610
142
1F6
1ED
7A6
740
2B4
19F
00C
249
6F8
751
602
548
280
05B
22E
67A
080
0FC
149
0C2
7F0
577
066
792
119
009
03F
5AC
125
6BC
66D
76B
707
1DA
2BC
5AF
22C
7B6
0DD
287
54C
73F
1AC
6B6
05A
0F9
6C7
779
13B
262
6B4
7FF
0AD
595
772
79C
5AD
7B4
1FA
141
21B
1D7
711
133
242
5B4
09E
7CB
618
225
1C6
000
149
690
124
601
594
61C
68E
56A
0E1
600
65B
1E7
723
67B
180
621
23D
219
6A6
29C
0B9
09E
729
571
67E
75E
1B8
07E
5A3
25B
191
283
7FA
02B
163
0B3
211
568
1DE
22C
231
622
22A
66F
0D6
73D
0C0
740
5E7
12B
195
0A8
63E
0DE
679
5DD
6AC
6EA
196
77D
110
566
705
7B2
7B2
5B8
5D0
203
772
579
2BD
286
786
05C
13F
6BA
7A8
010
100
5B5
566
019
609
0EE
54B
205
718
174
158
7B5
09D
5DF
202
5E0
210
65E
135
0BC
6DD
662
140
669
5EA
634
08E
0B6
717
675
5FE
72A
743
6EC
242
2B3
04A
561
79D
02E
5D3
1AB
115
1A9
70B
5D2
15D
7F2
65F
789
064
75F
5AA
1C0
74F
169
089
611
625
0B5
6D7
606
716
56D
147
028
5AD
18C
00F
586
11C
5AD
78C
5CC
6E0
213
130
1E5
229
63A
02E
68D
0CD
099
142
6AC
239
268
5ED
19E
13C
54C
05E
5F2
1EE
713
7AB
7E0
25C
05C
28B
583
7EE
27B
79D
66F
660
256
122
584
555
543
5D8
219
1E4
68E
054
59E
10C
157
5FA
16F
294
710
265
7D1
1BC
124
5BB
209
0D9
00E
6F4
25A
5AF
65C
258
028
158
6FC
253
193
288
139
018
216
78D
14B
1E6
0D8
09A
07B
681
2B4
5DB
6A3
7A4
5F5
68D
13D
019
74F
6E2
698
6E2
017
0E2
617
24B
693
1E8
0F3
1E2
7E5
69E
5B9
63F
656
18B
7AB
1D3
05D
06A
090
772
75A
55A
786
05B
0C2
7DE
03F
0AA
0A1
19B
69D
58E
152
6D7
240
624
731
1F5
231
1F5
727
755
5F7
6D7
78F
5C5
5BD
584
1DC
24C
205
5BC
66F
24D
784
20C
115
580
06D
7B7
0BD
5BA
095
5EA
118
06A
0EB
5CF
79C
7E7
0B3
65F
586
6F0
7DC
077
0DC
71C
5DC
028
64A
631
7EE
0E9
02B
189
235
5D5
6DB
615
2B1
29E
566
695
6AA
025
04D
29D
5E5
7E5
577
11C
09D
088
6FF
085
1F9
688
26B
28A
262
2A6
5A9
182
6CD
735
6DD
5C8
79D
116
7E6
039
733
646
070
7EE
19E
6BD
71B
6D1
694
6BF
01E
133
08E
74F
0D0
75E
0B3
54C
1DC
7AA
0A5
114
210
13A
1B0
02F
692
682
7CE
58C
006
661
28F
255
793
7AC
7A5
7C2
216
1DA
6FB
7E0
002
707
2B6
1FF
74A
78B
6CA
74D
110
7BC
089
022
747
18C
2A9
069
12E
5F2
6D4
251
1C4
56E
04C
03F
67E
0E6
789
259
244
561
6B2
730
1C9
7ED
0E6
13B
252
162
7AE
7D9
1B3
6E6
090
098
026
78F
7F0
0C5
0DC
120
1A4
0D4
5B1
738
5E6
10C
2AC
1EB
779
0AD
23F
5DE
6AC
6B8
75A
6D2
5DF
0C5
7FF
047
23B
7DB
61C
1F0
676
085
297
294
75F
171
18A
74F
60B
5EA
21C
25C
7EB
75A
092
560
0DE
272
23E
6C0
79F
0F7
261
084
7B8
292
6FD
068
057
028
64F
1CA
6CF
1EC
782
294
6EE
79D
19D
1AB
727
256
63F
7BB
7C0
0AB
61A
278
100
66C
226
587
1A7
1FC
7AC
12E
1AA
755
7B6
67D
088
5DF
74B
66A
1C3
0FF
1EC
0CC
112
688
63E
6A6
15F
56C
1F3
797
5BC
58B
057
7FE
1CC
1FC
13B
698
1B5
72B
770
025
5C0
117
27D
292
116
108
70D
076
25D
0A3
20E
591
754
6ED
021
773
711
5B3
2A6
7E2
101
670
212
755
76A
084
1A8
545
13C
7FE
297
178
1AB
57F
0C2
26B
08D
1BC
646
5BF
6F9
15C
210
583
61C
0D9
184
685
15E
5B1
564
7A2
7F2
0E0
0A6
0C1
147
7B9
138
7EB
12A
697
664
1E7
2A6
5F2
1BF
5E9
7DF
1D4
147
0B7
21E
07B
0F6
601
024
790
01D
07D
25C
14E
026
2A4
7DA
1B6
76F
582
78F
255
186
24E
28A
570
769
5F4
2A8
0F8
5E7
1B3
652
660
7B5
78C
05E
780
54B
155
687
562
21C
173
23C
7CD
009
0D8
13A
17E
659
07D
24C
14E
17B
023
596
7FC
17E
722
002
1CA
70B
102
6F4
031
0C2
7BD
19D
687
679
26C
063
689
186
279
033
02B
256
190
17A
587
595
2B0
058
152
0DA
6C5
219
206
0EC
114
5C4
661
14F
1C9
55A
656
6DB
7E8
0C0
55E
7A7
775
046
0B9
2B4
26B
77B
770
700
68A
6B3
717
7D0
748
06C
079
269
133
78D
64B
5C9
24B
58C
223
07A
115
07B
2A6
73B
10D
1D3
690
18D
184
61D
797
170
212
686
163
184
1A7
600
27A
5F3
24C
78C
6A3
121
17D
6C8
664
631
5BB
119
60B
061
799
23A
6CE
1AA
702
566
001
260
09E
079
798
1F8
193
026
7ED
631
74D
787
6C1
5AE
297
73C
16E
1E3
730
662
7B5
750
110
5F8
54A
145
6E2
106
076
7CF
208
574
143
561
749
27D
0E0
18A
07F
014
047
7DA
0C6
59C
173
580
278
24D
0D9
72C
030
5E5
681
798
772
282
65E
212
136
1F4
125
585
7E9
7EE
192
57B
151
612
0CD
2BA
7D7
67D
115
78B
238
141
17D
671
59F
695
1A8
7E5
669
72A
20B
1CB
235
60D
785
148
57C
6F4
56E
6F5
1D8
04C
22B
7E9
5E2
6DD
58F
770
13D
775
6F8
07E
1C3
12E
251
187
626
585
7FB
099
2A8
093
76B
5DA
736
26F
5BE
1D9
07F
087
278
7C9
28C
7C9
11E
03D
169
76B
0B3
061
582
214
1D1
1CE
5FA
707
77A
5D8
57B
0D2
596
07C
6AB
756
230
182
5C9
68C
222
6FB
033
19A
16C
149
29B
0DD
782
25C
6C8
25F
740
284
236
6C9
088
295
7D1
0A7
22A
5EE
132
282
12A
0B4
038
212
63A
596
006
225
661
09A
131
68F
195
000
22F
272
662
5C3
1CF
74A
6C1
061
270
649
14E
07C
7D1
22A
6F6
06D
712
5EE
757
0D3
1AE
5FA
109
044
5DB
7C7
740
0E2
000
2A0
191
013
619
6F0
6F0
6D2
68F
146
7A3
716
5D7
555
772
666
0D3
5C8
053
263
1D9
570
210
586
621
6FA
08A
237
168
668
260
008
780
1CF
038
1DA
60E
249
1B5
191
233
13C
194
697
053
02A
05F
154
130
5D5
787
7F4
04B
643
077
1A2
006
5FD
245
0F3
660
269
29B
6F1
1AE
06E
78B
726
2A3
1FE
76F
16E
6BC
13D
085
228
6F1
0A5
77D
0C9
1B8
7C2
7A9
7DE
04B
0A9
0AD
5CD
5FD
5F5
0E4
16F
645
092
083
125
197
192
12E
014
06B
5CF
64C
6A1
10C
246
648
741
0A3
0E9
684
6EA
7E4
04B
2B4
543
71A
059
5B5
731
227
77E
66D
0B7
7A3
5DB
7EF
1AB
630
7B3
144
641
2A5
7F3
1F2
291
72C
093
6F9
61B
184
75F
0DA
642
1E0
561
65D
290
5F8
5F5
208
109
724
7FB
784
270
711
671
7E1
65E
6A1
5E2
57B
5EB
106
23C
6C8
69C
11C
76E
58C
1D4
256
76E
762
0CE
6E3
6C7
6A1
587
784
051
23B
6F3
65D
16D
652
56E
02E
239
24D
1C3
179
0A7
713
63C
7CB
6B6
22B
157
7EB
650
6F2
239
663
7C2
0CA
071
6CE
5DC
799
76C
58D
138
263
5BE
288
1BA
096
5C4
0C8
6ED
72F
56A
22B
562
65D
2BD
5B8
59B
69E
5E4
01E
769
621
64D
5D7
666
5F0
0EB
583
741
050
0E0
660
009
7CE
1A3
74C
067
049
6BE
114
753
268
0FD
628
26E
231
00F
5BC
08D
0A4
76C
676
6D0
557
276
563
6C1
275
7C5
762
6B7
716
0BF
138
5AF
77C
2A4
256
02A
26F
602
751
16B
5B3
022
558
05B
746
0B2
196
0EF
0CC
101
7B8
167
061
01A
6DD
197
20C
163
1DF
279
77E
73F
6FF
16F
13A
7CA
0E4
0B4
10A
06C
7F9
78B
015
03E
7C6
717
275
562
100
628
1FC
046
10B
741
5AE
1FA
2A4
68D
1EA
052
108
716
6B8
69D
595
203
718
7BD
15B
29F
047
0C1
54B
56B
681
5FF
5EF
06E
113
681
052
247
6F9
730
729
1E2
56D
040
59A
17B
556
1D0
562
230
61D
78C
6F4
6B2
279
570
151
5D8
7C2
5F2
2AE
558
1B3
59B
164
1C6
6C0
06C
66B
2A4
78C
103
592
790
234
7E0
1EE
0A0
609
0C5
67F
625
21D
5A2
7E5
721
004
27F
08B
1AE
290
5EE
5B2
243
132
7F2
648
273
27A
79C
024
5A8
681
0C7
258
6E6
54F
627
109
1EE
0E5
60B
77B
21C
171
6A5
627
75C
1B6
5BF
711
22A
555
7DA
0FA
172
156
6FE
1D2
0EE
5AD
1FE
17C
22D
5F5
71A
201
669
580
6B6
72B
673
15B
283
6CA
015
2B2
646
6E7
66E
77A
5EC
660
0B3
0A0
65E
04A
0D0
629
170
644
15E
756
03F
239
790
0D7
057
7B7
132
110
67A
122
6A4
5E5
629
158
0F3
571
2AA
6DE
166
633
6FF
669
2B2
280
1E4
201
019
041
637
0CF
264
153
6C1
566
755
56D
294
0CE
6BE
637
041
003
765
268
645
150
034
6F6
11A
09F
74C
19C
027
5C7
0D8
237
78B
542
54F
139
2AA
6A2
5C5
202
59B
136
651
5E7
7F3
598
626
761
680
18E
5F7
298
14E
05C
5ED
26A
0F6
10F
569
543
68E
6D7
681
7E3
1DC
6E4
776
58F
566
239
5BD
0B2
226
5F0
263
1C2
244
29F
729
205
5AC
668
078
7F9
6B5
0F1
767
18A
74F
180
23B
1AF
7E1
64C
0E1
7DB
0BA
5BC
6A4
057
2A1
2B6
663
543
1E8
1FD
0F3
250
163
187
7F1
602
586
177
099
7B1
7AF
066
05B
768
766
279
1C3
5FE
13F
6F4
676
7FE
7B9
75C
1CE
255
00D
108
09C
1AF
696
6F5
5A8
2A8
2AB
025
54D
00D
205
61C
59E
7F6
060
1DC
67C
652
1FE
7CF
174
1A0
7F6
59C
2B6
27B
6C3
65A
5F3
71C
71B
0CD
62F
65B
066
05B
71F
139
088
026
157
769
005
276
620
20A
7AC
7F0
099
254
039
272
1DC
5A4
0FA
77A
7D0
621
137
05C
0B6
5F5
1C8
0C0
005
7DD
23A
645
232
6AE
5F5
24A
262
29A
17C
742
095
6FC
5FE
7E3
09B
139
5BA
67C
606
04F
2B9
718
679
020
196
208
726
26C
22A
726
7B5
11A
26A
79D
586
07C
7B7
574
0D1
08A
0D2
633
0D9
68E
61A
1FA
259
1DA
1F1
71D
246
266
0F0
10F
70C
6E4
626
1A7
15D
2B1
290
180
0FD
573
265
673
7C8
1DB
6EF
7B0
1D0
78E
083
5CE
586
16E
558
034
081
1F0
55B
6F6
0E3
637
75F
5CC
291
294
1E8
544
1CC
0BD
55D
08E
20A
2BC
2AD
15E
010
5AC
58A
650
007
1BE
770
56C
79D
014
68A
6E1
560
020
27F
21B
68B
6F5
731
58E
68A
0D4
5E2
7D6
038
112
0A3
1DC
61C
1AC
751
0F2
7CE
5BC
22B
721
200
6A0
565
1CD
0FD
76A
7B4
73C
08C
03A
11A
754
0B9
0F6
014
02A
627
155
2A7
60A
1DE
765
5E1
155
197
625
1C2
76F
6A6
606
585
127
6A7
68A
127
715
69F
782
1A1
7B4
1AF
003
6E6
785
5F1
090
613
601
1AD
0AD
5B3
0E2
164
0BA
6CE
282
059
550
24C
1EB
645
07E
10E
5FF
089
1E1
1B4
5B2
694
15C
03E
1CA
7B5
6BC
144
23B
140
0CD
66F
129
76F
583
605
556
712
6A0
55A
5C6
647
244
283
5C6
65D
249
797
61C
102
21F
69C
787
1EB
023
68F
626
005
6C2
295
203
193
1A2
2B6
7CD
18C
02A
5BF
7D9
079
60B
65C
0B0
57C
66A
1AD
00D
07F
087
6F2
06E
6E4
1B5
5DD
691
09F
71D
142
6D4
6DB
54E
0B2
7D6
15A
1F5
55A
170
12C
753
1BF
7E0
1FD
621
253
139
608
7A1
5AD
683
2AF
5EA
713
045
705
647
140
7E1
6AB
6E2
279
0A2
68B
04E
29E
203
72B
7E8
062
771
0EA
129
638
19E
079
17F
058
247
67D
1B8
695
5FB
699
7B6
010
766
188
61E
031
7C1
1ED
5A1
70B
17E
169
672
67B
662
574
671
091
631
5EC
0ED
219
7FE
051
672
559
0F4
698
2AC
5B8
6FA
634
06B
61F
79E
7D7
6B2
021
63C
552
793
62D
075
664
6DD
676
55C
570
2A4
177
6EE
072
27F
279
06C
255
604
75A
10B
131
7DA
5B2
64C
228
267
126
1A5
036
094
127
1F2
5CC
77B
5F9
764
615
0B9
25D
611
78E
258
720
7D4
0DF
0C4
673
6DD
72E
760
1D0
1F0
6C8
7EC
57D
089
5E3
64D
1D6
28D
55F
11D
097
631
5BD
744
6CB
66E
1DC
788
252
084
66D
683
576
7A3
00A
57E
7DE
255
095
6E6
556
672
219
626
11B
16F
5BD
588
79C
042
5F1
27B
008
564
557
5BD
599
6E6
6A4
081
6F0
112
64C
5D7
232
0A6
23F
0B8
1CE
245
24D
1F5
0A5
7A1
73C
283
1B5
0D8
665
5E5
7E5
11F
6A2
117
03E
03B
544
0FA
171
695
15D
591
195
042
063
5E8
097
153
79C
663
019
671
589
03F
049
032
1C7
0F4
7B2
578
095
1E0
023
224
29F
612
732
2A7
70F
730
5ED
727
168
65F
640
1AA
1A4
1E8
743
633
022
731
711
7BF
183
1F1
6B6
2A3
29F
278
78E
5C1
174
244
1ED
193
056
704
592
289
74D
5B9
774
179
687
15F
218
27B
145
671
0FA
7F2
7E1
261
6D0
25F
239
7BB
05E
012
0CC
6C5
719
681
18B
266
759
1CF
688
57C
169
1D6
710
6BB
5BE
22B
17F
577
08C
5E7
036
296
7EB
635
597
76D
6A5
66F
285
106
7BE
0F0
6EA
63C
55B
12B
0E4
01F
081
14D
7F9
6AC
62A
741
781
058
1D1
7DF
71C
1AD
200
598
0A3
61D
6B2
5F6
14F
231
098
7AA
17F
663
60A
02C
797
140
049
7DC
00E
7EF
7BF
70A
22E
67A
14A
7BF
223
560
7E1
263
271
7A1
012
1FD
29F
1AE
648
269
7F1
77E
6F6
5F5
666
0DE
76C
0F8
637
0D8
204
234
565
26B
799
7D5
01E
1CD
1A8
095
14B
0DD
76F
009
20F
5E1
799
62B
698
0E0
153
0D7
71C
5F6
7DD
7D0
78F
29F
7DD
6FA
6C6
70C
733
0C5
6B7
5A0
7CE
270
22A
142
758
655
157
65C
18F
141
22B
579
15F
6B4
0A0
570
547
196
01E
0F3
567
1BD
110
24E
2A4
16D
17C
13A
5C8
0D0
7E0
746
750
049
045
0A3
7C1
102
234
772
13C
629
581
7E8
5F7
1D9
0BF
681
7FB
03F
138
188
56E
022
5FB
7FB
1A8
1E4
6EF
1DE
0C6
7FB
228
7B5
648
06A
640
0B7
0F4
693
5A3
251
6FE
2B5
7C0
165
0AC
15E
128
135
67B
767
5BC
7E6
289
18D
584
071
0AC
5AF
65F
73B
6F5
58E
77B
641
667
0CA
104
1CE
0A2
5A4
6F9
54E
088
26D
29D
7DD
73E
12B
19B
065
0E9
5A6
6CD
12A
73B
5BD
67C
120
264
6C1
23F
7D3
17F
0C3
779
630
257
0E4
5B4
233
7EA
72E
13E
2AC
082
226
555
16C
730
2BD
5AB
244
7B0
107
6F6
0D8
298
7F4
27E
5FF
686
1D7
170
187
5F9
542
661
615
64D
760
179
5FC
1DC
549
601
09B
0DC
5F5
5A0
626
624
07C
6F6
733
2B5
57A
5B4
166
5C7
6ED
63A
785
6E7
68A
5D9
740
7F3
72D
006
7F0
22F
119
7FB
610
5CA
773
7FE
0E2
223
242
092
01E
087
255
6DC
72B
1EE
1A7
1D3
0AF
21B
20B
5B6
771
027
0DF
0AA
613
0C1
672
650
561
1CD
162
13E
083
576
58A
29D
6CD
7B2
0CE
23E
0B9
619
266
556
5D7
54A
01F
611
551
7AB
6F1
57C
630
766
18F
19C
1AE
783
1C8
063
70B
241
6E0
1D2
13C
03C
068
661
0A4
036
261
708
7D6
1A1
08E
6EE
72C
23E
11A
1FD
5EA
01E
0B1
047
5D5
1DF
0A1
759
149
56D
1BC
5F7
023
16A
77F
594
65B
0CB
15D
586
5AC
0D1
0CE
17D
58A
1C6
6DD
7F2
24F
76F
009
775
607
1AA
795
79D
63D
735
72B
1D7
10F
6C1
7CB
078
143
0E8
27C
7D8
7D8
663
6C3
0FB
710
556
5DF
283
17E
59B
161
00A
71E
137
665
1C3
2A7
632
066
0FD
29D
7D0
1E8
638
7FE
170
72B
1CC
583
6C5
2A9
104
06C
680
179
5B3
7E5
156
59F
290
20D
684
690
01D
764
0A3
707
5CF
5B7
14E
218
13F
77F
79C
0E1
0BD
7EF
62A
23F
5BF
17C
76C
67D
106
6DD
1DE
266
06B
21B
5D8
19B
7DC
6A7
161
714
6B2
1C9
2AF
033
0D4
636
710
774
1BE
552
290
587
549
0EE
588
06A
0E2
713
6B0
28A
60E
057
6D8
000
10F
5E9
18D
23F
599
0D3
5BC
10D
5AD
6DA
1C5
678
138
6E8
05F
054
169
258
6A5
57B
716
58A
6CB
569
725
676
08E
7FE
072
138
783
218
797
007
0B1
74C
7FF
7BB
217
660
1C9
65A
7E2
03D
0C8
5DB
211
5EB
267
5C6
19B
686
767
0E7
25C
11A
6A7
5BF
6C0
13A
656
6BE
7D1
13E
7B4
793
688
23F
277
057
579
674
6C4
0AB
6FF
1F4
618
12E
5AA
724
69E
09F
5BE
19B
1C0
115
205
1F1
0F3
76D
09A
578
59C
0B2
0E9
234
6CF
298
75B
70E
750
1B8
203
02A
737
148
026
5A7
7FF
614
0BA
582
102
028
6B6
5B3
25E
0B5
176
0D9
7BE
004
270
5F1
57F
0F1
0DC
5D9
646
594
143
13F
1D9
0AA
618
195
09D
669
6FF
69F
71B
02B
5E3
025
211
033
64A
6AA
187
010
0A3
685
796
0A1
696
09C
0D4
28F
219
62E
05E
1C0
76D
685
033
6DD
796
59E
091
224
5AC
725
1F4
05C
046
01E
1E7
667
7EF
7E2
667
241
08A
7C5
0BA
1DC
169
58E
11A
035
24D
061
7F4
617
1A2
149
082
085
580
5E1
7E8
0F5
63E
00D
79E
00F
6D5
29D
238
0FB
66D
2A5
761
64C
1EF
1B9
219
10F
276
5EB
1A0
28B
115
249
5A7
7ED
630
55F
26D
551
659
655
13C
019
015
0D4
021
0B5
602
17A
150
64F
63D
60C
246
615
008
6F2
02A
14B
191
273
295
033
61D
587
6CB
5AE
787
0F6
1A4
72D
5B6
066
274
17A
064
594
10C
088
22B
622
209
199
04E
028
13E
0CB
7AD
657
694
78A
6E5
008
1AA
7CE
767
765
673
5AD
642
720
71F
1D4
7A6
293
1C0
76E
66F
6C1
781
24A
124
269
6B2
1BB
04B
28E
036
621
55B
0AC
196
191
6E5
660
02B
0B0
005
6DF
721
1F6
22E
121
587
6A5
744
654
2BB
22E
5E7
61E
0CA
6AA
5C6
209
5FA
050
18E
6CF
19F
097
245
216
27D
040
629
6BB
5F0
6CF
257
0ED
58A
1CF
5DE
572
0AE
5EC
5B6
5F3
2AA
58A
04F
2A2
734
583
553
024
0A9
13A
578
73B
7A7
728
684
086
07B
07D
26A
706
6B9
1E2
615
1FA
2B1
5B3
70C
28C
2AF
5D1
5D0
5B6
224
16D
1B6
0C1
25D
6B5
796
19B
654
625
115
5BC
1D2
1EF
5E2
693
6E1
69C
0BA
00E
295
1FC
23F
185
0FC
14A
64E
1DC
7E5
684
1B1
71E
776
151
240
1F8
0D2
6D7
5AF
71A
7AC
5C4
1DA
597
065
0AC
620
78D
103
661
169
7F3
155
1A5
545
765
094
094
70D
7C5
27E
7AE
60E
7D4
5B4
0EC
0E1
061
0B4
068
273
061
077
6EE
54F
134
29E
73C
245
0E3
685
73D
0BC
621
6E3
7E2
113
0BF
149
76C
12C
5CE
168
6C4
772
60A
6E3
7A9
604
21E
038
207
05A
027
625
755
69F
66C
018
7C2
5F9
6D9
1C0
5B0
563
0C0
0D4
749
0AF
6C0
1E2
031
76C
202
0A5
6E3
27E
081
689
29C
6DC
708
5FD
610
20E
57A
7B7
0F4
062
135
607
041
174
2B5
705
254
775
635
5E2
5EE
11F
165
1DF
154
2AA
188
57C
255
784
093
7B8
127
590
774
21C
570
73A
16E
19C
6B2
161
56E
2B6
732
6D8
07A
0C4
1BC
148
134
12E
1CC
751
05F
1EF
683
6BA
636
042
6A2
232
6E3
6EC
5C8
6A8
580
283
1DA
6F8
5BC
04E
172
5F6
22F
576
60E
19F
665
236
7EB
295
64B
258
10B
193
58C
0DA
543
088
5CE
570
724
1F7
758
70E
5CC
5B6
658
7EA
205
7FA
20B
7C8
71A
12D
13F
133
7F5
7E6
6E4
6E6
65E
743
0AC
7EB
625
740
625
1A5
574
2A1
267
56E
6FB
15D
17F
5B8
795
69A
7F2
5BA
1A6
547
79B
7BA
097
0AE
188
684
1B8
0AF
162
269
732
196
046
088
086
046
1F6
29B
66E
5AB
6FC
560
75B
7E9
2BC
7C6
15F
620
644
207
6A0
27F
037
1D2
7FF
032
0C8
549
26A
633
23C
70E
757
737
780
68F
593
0F4
72E
5C5
7D2
111
659
73F
124
7B5
639
565
75E
212
101
0FA
740
5E4
167
1F9
6EC
64A
0CA
0CC
586
0F6
007
786
0B5
684
230
272
0C6
126
5F5
69D
6E5
079
71B
640
116
667
577
7D1
604
6C1
607
57C
6B8
05C
0CB
0FB
6FD
09A
0CA
0B0
282
7F2
14A
710
78D
0B4
209
73C
7C1
715
1FF
57E
72D
258
158
1CC
595
1CC
175
273
70F
23E
70D
63D
65D
7DF
243
6E1
7AC
254
25D
642
74E
1ED
7DA
0AC
6AE
189
28F
69B
5EF
064
09A
6AA
7D5
1EF
055
200
058
187
10B
079
63B
68A
049
5CF
728
5E5
192
59C
03F
2AB
74A
68E
149
0BA
16F
7C0
0A7
002
077
0E4
13B
276
69C
65A
164
6B3
105
66F
7BF
6AB
0EB
013
54D
6A5
124
25A
2A5
246
296
7CB
679
1B6
5A5
0A5
54D
240
1C4
58D
245
02D
210
1B8
2A8
16C
6BC
7E6
766
09D
7F8
7C5
54B
695
6E6
060
6D0
57C
168
135
729
5E4
061
64A
6D0
1A5
255
272
25E
0F4
5BC
119
6BD
765
0FD
2A9
20F
08B
7F6
5CC
623
781
693
552
75A
736
7B6
148
5A6
0A7
7B7
58A
6F8
265
0BA
1F1
58D
03B
111
1EA
1F6
1E7
04E
0A1
71A
77D
613
249
7E9
7EF
6CC
78C
73C
787
7B3
5AB
194
5E6
110
26C
65E
055
7D8
20A
246
19D
082
6CF
6DD
6FE
686
07A
17A
6A9
5CA
175
7BC
2A7
7F9
72E
5DB
682
6B1
0A2
265
057
04A
28A
1D7
258
1AC
052
0A0
6FF
285
799
017
607
1D1
7C3
027
15A
7E1
2BD
612
692
1D9
16C
6F5
580
25B
6A0
11C
59D
64A
619
25C
557
0E9
1B7
1A3
56D
7F1
152
6BC
562
6A4
7D2
6F2
003
09D
55D
5F1
01A
684
640
08D
76D
1C6
13F
2AC
7EE
14D
0C8
6AC
294
634
1D6
67A
1B2
1EE
237
0D5
00F
5E5
03B
1D2
602
7FA
72A
28C
296
6D6
269
0F4
7EA
078
013
273
726
1E8
621
070
66C
6F9
6EF
6BD
259
067
5E3
12D
046
6BA
6F5
297
7B0
75D
108
2B0
2BB
72D
542
0CC
5B9
775
611
78A
665
751
11D
24A
0D9
735
00C
766
204
710
76C
59A
21A
796
595
2A3
6C2
15A
6E0
6F9
7A6
0E0
15A
115
7AE
74E
7BA
563
1A9
5AF
6F8
01B
05A
02A
586
220
158
6C3
243
63E
21F
062
244
23E
5C8
20E
6CF
7D1
1E0
60E
0B4
28E
2B3
689
298
079
17B
154
0B0
600
280
6D8
766
26E
6ED
587
13E
681
04B
774
581
761
1BF
237
628
0EA
799
6DC
0C5
7EA
57B
095
0CA
130
6A1
742
713
134
1FF
12A
7B5
74D
673
120
11E
210
5FA
109
7DF
7DC
602
6C5
78B
050
05A
5ED
5FD
627
1BC
002
053
5BF
052
256
624
074
1BA
171
69E
5B8
5F0
175
168
039
6C9
66C
753
0A6
0E5
12C
595
5FC
790
25F
5BE
20D
101
210
60C
035
70A
04D
7FE
6C8
1BA
05F
28B
2A2
110
0F8
677
2BB
6DE
0F3
245
629
256
01B
02E
555
0CB
7D6
6D9
20B
556
299
047
114
56A
225
1A5
16A
279
61D
576
6A9
28F
6FE
18C
188
188
672
653
739
7F1
678
231
06A
0D9
090
0C9
132
7FF
7F6
058
7F8
686
723
77A
6B7
0A9
5C3
602
0CF
030
5B1
1C6
22B
759
18F
097
69F
5EF
150
704
242
02A
61E
07C
712
574
20A
1D9
677
736
206
62A
084
094
6B2
73E
153
278
5AD
084
093
5FB
1EE
0BE
622
798
137
6EE
08D
280
0D9
5DA
1E1
1DD
1FE
269
154
70E
6C4
592
0FD
569
163
5A3
07D
1B2
5A5
545
163
662
5A6
0F7
203
78B
0C2
74B
0D0
119
17C
7FB
2B8
5EC
65B
292
642
0B3
252
1F0
1EC
29B
175
7FF
63E
0D4
185
085
02B
557
125
58A
664
639
1E7
25E
1D5
068
729
79F
7E2
668
20F
249
71B
553
1F8
105
1E2
5E6
60D
0B9
0BD
11F
5CC
14E
5D9
059
79B
698
7E5
7D3
276
02E
704
794
0F0
5F0
583
069
209
06D
744
6A6
0D9
629
6D3
0C3
111
0D7
0AD
0C4
1B6
0EB
0BA
267
6AA
0A0
721
191
0EB
76E
0F9
5B9
582
049
090
788
71D
59E
2B8
796
6DE
71C
79E
79A
63A
70A
5C5
7BB
258
256
06F
0EE
697
029
2AD
6CC
6C0
070
0F9
6A1
1D5
577
0E6
129
783
16A
029
202
154
590
2BC
044
658
7A0
084
56F
5A1
625
203
22A
5D4
615
751
1FA
778
734
7E2
15D
088
0A9
5D9
04D
074
6DE
7B9
2BA
78B
760
6C9
75B
6A6
105
7F6
5D8
078
099
0D2
26E
5A8
5F7
5CE
7A9
15D
0DE
652
7E4
74C
715
5E1
2BC
7CA
7B0
14E
0F1
62F
17E
610
01A
7EF
192
54E
6A6
7AA
7FD
12F
598
74B
5AE
66B
692
0F0
723
579
034
22F
03F
768
15D
632
6DB
0E6
1E5
018
245
70D
108
560
019
199
153
159
6CE
599
145
0CA
126
0F9
6ED
140
227
267
68B
6ED
168
7B7
1F7
674
6AF
0CA
03D
1FE
541
618
7D2
5EE
581
6D8
59D
718
701
6E6
5C9
6DB
106
556
76A
5C5
2A5
197
7BA
288
14F
0EB
1A2
0A7
789
1F9
7DC
270
711
217
10F
28C
62D
620
0FE
1FA
550
12C
174
2B6
79D
7BE
1BB
7D8
03D
724
1EA
17D
571
698
672
654
786
569
64B
092
727
56E
548
1C9
5B6
068
101
1F0
57F
602
684
767
64D
05C
1C4
5B8
7BE
0A3
5AE
031
1A8
548
6E6
5F0
1EB
707
0F6
65B
743
704
658
617
1FA
1D3
783
72F
698
759
23A
0C3
7DC
7AD
7CE
6B4
290
6A6
1C5
724
634
587
23E
2A4
5A8
1B2
1AF
13D
77E
299
0B4
5D3
081
671
24F
048
71A
001
023
193
034
559
285
56D
139
269
192
7B6
736
6A0
189
0E1
0E0
036
758
12D
737
10D
256
580
5F8
7F4
7CA
5AD
62F
682
2A7
0A7
16C
604
027
090
0EE
16B
6C6
131
233
721
1BA
162
5D0
1D0
727
582
5E4
5CD
19C
7C0
64E
61C
670
06C
0F5
083
048
623
224
0D9
006
7A3
22C
714
1C7
188
5EE
611
227
1C8
0BF
0FB
25F
27E
6FD
007
08D
25F
208
657
064
5BB
2B7
772
648
09E
19C
67F
01F
009
00D
6B3
207
5D5
77D
61F
20A
1B5
0EC
6C3
145
1C4
0CF
665
655
200
70D
06F
0E0
7AB
254
75C
56D
24D
5A0
1CE
548
7C4
0FF
226
1FB
04C
256
775
7C1
2A3
792
192
063
57A
241
663
0A9
0D9
77B
777
2B0
27A
5AB
18A
5A9
672
1DA
7DA
219
05D
0B0
066
5B3
5CE
282
223
271
5C2
121
033
6BF
7DC
11D
29F
05B
2AA
04F
208
7D0
1A9
687
1E4
0F4
5B2
7A7
666
148
5E2
1E8
7C0
7B4
1A0
1DB
07D
00A
73D
7DB
256
753
02E
6DC
2B4
06E
259
76E
7C0
021
7E3
095
6AF
12B
167
1BD
00E
270
030
789
1A3
745
10A
12B
70D
16A
1A4
022
14B
192
078
7AB
1A8
6EC
13C
76E
619
20C
059
574
58F
047
0C2
156
220
5CD
0DE
6C5
15E
199
5F8
620
15D
60F
290
762
08E
5AF
7C2
16D
031
56C
5C0
706
571
2AA
5D6
5AB
616
553
709
5B1
66B
714
153
640
5B3
27F
7AB
15B
1BF
217
782
643
65F
0A9
6DB
57B
226
7F8
74D
7C4
0FC
578
15D
74A
283
02C
240
6F3
573
604
625
72A
272
5FE
0A3
043
097
05E
7C8
563
5B1
68E
115
215
25A
714
0C8
758
284
0CA
5DC
7A7
060
044
6B3
245
07A
59B
19B
62C
56B
5F9
0AB
557
7F8
64C
6EE
57D
65E
5E0
023
737
6AF
234
0F8
049
084
172
62C
694
27F
746
75D
7D3
014
554
70A
7C2
6D8
75A
21D
5AF
75C
268
60D
053
70A
20C
549
5F6
7F4
09D
78C
1E7
61D
1DD
2B9
77A
1F6
185
001
6D0
66C
73F
103
130
60D
21A
0CF
0A4
236
62F
5CE
256
6B3
7A0
01F
0BB
295
086
104
2AD
16D
5DD
754
07C
1E8
564
56E
1C7
764
0B0
571
587
7B3
299
69A
632
104
560
67E
5DC
6FD
00E
26C
593
295
6E8
725
1F8
668
61D
0B7
08F
11B
28A
71F
7A3
764
229
581
025
588
6E5
295
29D
1F3
188
26F
20A
27C
616
280
06C
602
7AB
782
700
756
644
6E8
08E
0C5
21E
195
671
198
1D7
252
0B2
025
0B0
061
0CB
297
653
1E3
2B9
5AE
65A
0B0
5EA
76F
27A
2B6
6A7
0DB
792
7B4
08C
6A0
1D4
7A1
0D3
061
0FA
67E
1FC
0FD
226
7AC
140
094
0C6
27B
295
11F
182
65F
745
075
7A7
547
58A
68B
234
0EA
176
014
0C0
793
050
22B
631
10E
1D8
15E
647
26E
5A4
79C
00B
653
780
067
6DC
792
232
7EC
0A0
23B
15A
16C
04E
190
7E5
67D
08F
2AA
11E
639
175
270
575
5DB
26C
009
175
58E
7C0
098
6EA
29F
1E9
712
098
6AC
1F5
205
658
28E
6B5
0B3
21D
736
565
205
7E2
006
183
5BC
0AA
1F7
67E
554
001
2B5
0BA
627
04A
6BB
20E
5CA
198
07B
07F
642
009
72C
674
559
5C9
620
0EE
1BD
650
57D
5A7
159
0DF
7F8
1E7
7ED
08C
603
064
0D8
259
62D
68D
1FC
05E
020
70C
791
19C
1A6
03A
5F5
074
2B8
7AE
0DE
0C1
7F3
64D
170
164
748
5A9
2A7
7B6
198
5CF
6AD
06C
182
7FA
78E
79B
201
0E4
176
5C7
784
7C7
577
700
7CE
289
7E5
099
1DE
17B
062
5FF
722
1A2
7E2
7B0
6A9
280
744
0BC
26E
299
71B
259
100
145
21B
229
10F
1F5
57D
170
733
5DF
2A8
12D
7E5
0D6
175
141
0FA
65C
78C
704
735
5EF
5C9
0C8
207
72D
094
1BB
591
561
02E
6B7
5DE
0F6
5E1
607
0AE
56E
5ED
566
166
015
271
72B
12C
0EC
5DA
000
587
739
217
147
09A
005
57A
762
1EF
1F8
56D
091
190
578
0AD
276
262
056
1F9
6ED
185
2A0
2B7
7BE
683
747
237
13D
210
1A1
055
0C3
2BC
25A
78D
2BC
6E7
6D4
023
616
1D3
56A
087
1D5
60A
5DA
75D
024
69A
29E
69E
06D
149
743
7E9
0CD
1EF
1CE
612
293
204
567
0BF
2B5
1DD
68A
6E9
5AE
251
2A4
62B
5D8
7C1
56B
08C
1AB
6EB
5C0
61C
1EA
194
0A7
71E
68C
7C6
0F4
1C0
15D
627
6A9
2A0
648
5E3
679
7E0
708
66E
5E0
56C
69C
651
095
117
160
5B8
5FD
6F7
168
621
057
6A6
6F0
226
741
597
769
0F6
744
21A
6CB
7A9
78B
0BD
578
567
185
6DA
5AD
255
06F
7C0
0E2
115
098
052
12B
05A
6AC
5D9
223
64A
237
291
61F
71D
7E2
198
5B1
217
1D6
681
615
200
270
02E
59B
578
7E4
778
236
0CB
61E
76F
07C
0DE
582
6EC
028
043
6F0
002
567
736
6B2
6A7
58F
1B7
1CB
101
22B
7D8
658
567
7B4
69B
612
77D
1C7
6DE
09C
751
17F
581
22F
59B
060
76B
614
1C4
63B
545
188
17A
672
6F8
7CA
69F
709
134
710
7D3
551
2B6
0CC
6D9
596
672
7AD
5D8
567
797
57B
097
1B7
160
1F6
71C
06D
07B
07C
747
543
01B
5FD
599
54E
5B5
72E
286
199
65A
1AB
748
5D1
1CD
24B
6B6
5F3
050
683
595
053
779
654
29D
12D
6AB
097
0CA
65B
04E
680
05B
745
270
712
0CB
655
59C
293
5B9
1CA
061
1B9
193
5DE
049
5F0
05D
08C
747
221
058
787
230
251
24F
61E
11F
087
6FA
653
67F
74C
154
263
61B
1FF
1D7
578
78C
782
14B
663
13D
1C5
213
29C
5C0
6ED
60B
05C
14D
032
5B5
06B
67B
116
079
664
66B
1EC
76B
6A3
16A
0C6
704
14F
21B
097
7A9
59A
064
567
609
1AA
7A0
2AE
595
70D
565
7C9
216
131
5CE
5BA
70E
1D8
089
1F1
28F
011
171
58D
2A6
202
24A
55A
2AF
655
67A
574
23E
01A
14F
17E
55E
242
564
18E
54A
006
6F8
574
716
260
1D7
665
742
5E6
1B3
26E
1E5
0A8
2B8
104
571
0B4
280
203
7E8
7AD
795
1B6
278
009
0FF
729
051
723
02E
248
0F9
5D2
7D9
1F5
594
1AB
637
7F8
710
08D
09F
5B8
045
7A6
54E
03B
7A9
097
166
774
7C3
5DA
6D7
656
228
6EA
641
628
663
18C
127
20C
6C9
61E
22B
160
2A6
110
1C3
690
25E
6F5
641
781
19A
5A7
5C2
6F9
179
544
69E
161
29A
21C
6C1
6CB
622
768
0D0
622
775
288
7E7
13A
74A
19F
250
233
155
045
73A
174
294
200
24A
712
7CE
5A0
2A5
6AD
1BE

