BC90CB29
3D210F0F
3D251A00
BD823C00
3D5F4A12
3D7A7EB7
BD54E6E2
BD85F740
3D2F0069
BCBE7297
BC50A676
BB613F4B
BD432010
BD961240
3CF8DF7A
3D8196D9
3D02C5E3
BD4194C0
BD04B6E9
3D20407D
BCB62414
3D90A783
BD8BD556
BD177532
3BDD50A9
3CF9B995
3CA66FD6
3D9D7C2D
3A7A58F7
BCCB9021
3CAFE825
BD9EA9A4
3D238FBD
3C4C7086
3CB70260
3BC679CC
3D95970B
3BC4156E
BCFBC1AD
3C2BA7B9
3D1375C9
BD6718A8
3D335E31
3CFE49B2
3D307BFE
BD3F3E03
3CBB0A2D
3DB08AAD
BCE31D71
3C8A6762
BD8BD44A
3C164A5A
3D68EF78
3DB671AC
3D79FECA
BCD3C57A
3DBA5EBB
3D6EAE9F
3D3D0F1F
3D84638D
BDB0E2C1
BD907076
BD9ECD4B
BC356FB9
BBC42635
3D6B4203
BCA7BD49
3DA65061
BDB9BE4D
BCA413DB
3D25F41B
3D2D1394
3B17635E
BCB7A5F4
3CD1F1D0
BD00B88D
BD87631B
BB7DF3B6
BBA4766C
3D9BC4D2
3D119696
3DAB4A66
BD2FBA02
3C447E4A
3D961FE2
3C027B70
BC9C9B41
BDA52B4E
BBF3DC05
3D308FEB
BD27AA69
3CF55582
3DA13EC4
BDAF6838
3D6631F9
BD5058DE
BCC3675E
3DB0D951
3BC436FC
3C7F2A17
3D340F67
3D8D5A5C
BC9D92B8
3CB24E9C
BDBB2D4D
BC832767
BC02CB21
3D4CAB3F
BDB27ED8
3DBB6673
3D007EE1
3CA1187E
3CB00FFE
BDA89F41
BD0F7A92
BC216E7A
BD73BA77
BC9D4520
3D8BECEE
BD76ED67
BD408FA8
BB0A47ED
3DAC2939
3C9A5A8A
BDA55087
BD24D7F1
3CD6D7E9
BD1DC832
3D46D506
3D2832BA
B8D3CFF6
BC185F07
BA7A58F7
BC3CBA30
BB690BC8
BCEB56FC
BD66CA04
3C001B43
BD787379
BBCCAB3F
3D9BC44C
3C940358
3C3317F0
BC8B6FA0
BCF9E7B8
BC272A7C
3D349BE9
3D46C00E
BD4DBF05
3CB53501
3D61D430
BBF53C58
BDB224AB
3D89D302
3D2DCC21
3DA22813
BCA22707
BCBAFFB0
3D88DB8C
BCAD1AEB
3A23D70A
BD8D490E
3C1A415F
3C364E05
3C8CC144
3C2AC53B
3D8AC5C1
BD05260F
BD463E08
BD94E65C
BCB3C819
3D88EC53
3B2EFB2B
BD22F167
3D8AE643
3D34D8BA
BD513837
3B820E63
3DA56712
BCD41D8F
BD5E03F7
3A1D8C6D
3D8CCA2E
3DAA8006
BC5BAD3A
BB8ADEEC
3BBEAD4F
BD994079
BC5898B3
BDA8A04D
BDA5625A
BDB9B1B8
BD871D60
3DB7C5EF
3C3C382A
BAE3EF28
BD87E73A
BD5F223A
BD2CC921
BCB8E2A0
3C494706
BD551A43
BCC0980B
3BD4F590
3CAA411C
BABDEC5F
3D105187
BC2CAFF7
BD620360
BBDF1E08
3DA7A0F9
3DAF37FC
BC13532E
BD9B1423
3CEFCDEE
BD481909
BD5EF523
3D62DD7B
BD5818C6
3D8342AB
BD4BC7B4
BD9EF955
3D445458
3DB3A9B0
3D5A9542
BD445ED5
3CEAE3A4
3D366F93
BD91E6CD
BD790C91
BD742353
BD85D639
3DAB8AE3
BD936BD3
3D5654D6
3D6CE13F
3D7F0FE0
BD9B341E
3D88BC17
BD61F3A5
3D945C79
BDBA9EB2
BB73CB3E
BD0CE5F7
3CCB1466
BD67C5AC
BD69CCB8
BD6E9036
3D164734
3D8876E2
3DA1A47B
3CE2456F
3D87BEDB
BD8D338F
3DAB61FE
BD384018
BCA4FCA4
3C9C0874
BD85E354
BDB33333
BDB35979
BB12BC30
3D836B90
3CC01E69
3CE21965
BD838D1E
3D9E35C6
3D8D9168
BDADE871
BD6B0A70
BD3BADC1
BCC8FFB9
3D8E65BF
BC2009F6
3A27C5AC
3CD14C23
3C1B951C
BD74ECA7
BC6D1394
BD745BF2
BD88E92D
3CDB573F
BB62C12B
BD5C91D1
BC9B62C7
3B9DADFB
BD74B945
BDB9B888
3D7A3EC0
3D34C4CE
BD1C23B8
3DBAA25E
BD8E1156
BCC386D3
BD790EAA
BD4650E7
3D5EDBF9
3D496894
BCFFD3F6
3C582FD7
BD67A744
BD47368B
3C041249
BDA1376D
3D6A8B8F
3CC15D2D
BC1F01B8
BDA3A084
3D9F1306
BD3D5BAB
BD9F4C2B
BCE75FF6
3D1CAAFC
BD858AB9
3DAE9F6B
BD948883
3B8CCDD9
3D1E4D5E
BD8039AC
BDAF5BA3
BD7AE9AB
3DA2A90D
BA749492
BA5B2703
3D4BAA58
3DA39607
3D91B824
BD95525D
3D1BB16C
3903126F
3D832EBE
3DA8C9B8
3D54C554
3D0752DB
3D440075
3D263843
BDB2A51E
BC452A41
3D2CC1CA
3DBDF19D
3CB95810
3CF04FF4
BD40E9D5
BC7DB4CC
BD9FAEBC
BD9357E6
3D0B4E12
3D1C22AB
BDBA4C62
3CD6FFC1
3D7C0097
BCD271BD
3C53FE19
BD5420B4
BCC2F1ED
3D5289DB
3D958213
BC92684D
3D8DDC62
BC3CEC85
BCB0489D
3C4A2984
BDB2D906
3DAB8412
3D8218DF
BCCBE836
3DB4E7EF
BD0485A1
3DB5FBB5
3DA6AB9B
BBDC3372
BD5801B4
BC8D66F1
3D676FB1
BDA2D7B6
3D015D2D
BCA5FC7E
BCE9728A
BD59D452
BCF53C58
BBA6A876
3DBC5586
3D8A454E
3C0B8AE3
BD33FA6E
3CCB252D
3D3E08AF
BD81B64E
3D85E3DA
BC54BAD8
3D629739
3D8B4E98
3CBB2357
BD029E0A
3D1A1987
3DAAC647
BD602A78
3D8980B2
3CFF2E49
3D9A81DC
3BA8DA7F
3D9B7F17
3D7C5CDD
BD9159C5
3D8F398F
BD07B99D
3D996D09
BCB71759
3C438F36
3C3D3C36
3DACB74E
3CD10D39
3DAF8B59
3C8A8F3B
BD468555
BC4C20D5
BD976FF4
3D82D278
3D0B0E1B
BD17CD46
3D50D5A6
3D82C237
BDB2B2C0
3D98BD66
3BD3E921
BBAA3AD2
BBFE36D2
3CBC07EE
BD94C33B
BD1DD5D4
3D979F23
3DA7A7CA
3DB70CDD
BCDF9BDC
BD837E6F
BD2E9CCB
3C97F844
3C6A8113
BD20AFA3
3DB2DF50
3D8217D3
BD1BF056
BD00B88D
3D95B036
3C2A68F5
3CC81F54
BCCF0B6B
3DBDB552
3D8A582E
BD30EB25
3DAE4FB9
3C993F6C
3AEDC3BD
3D51A976
3DAA1DFC
BD82D517
BC93660E
BD34506A
BC85D95E
BB145F9E
3C5844D0
BDBDAC69
BD88B652
3D95B574
BCF41F21
BD7CFC40
3CFED84D
BC9693C0
BD85718F
3D8C9AFE
BD733765
3CE225FA
3DBC9EED
3CE61AE7
3CDB76B4
BD99085F
3DAB9021
BD710668
BC4AAFBC
BD42D8C3
3D58BF7F
BC836007
BD54DC66
BCC80410
BD5A9542
BD209460
3DA030C2
3CD8B3F6
3A0C825A
3D41E03F
3D796E16
BD0B34E7
BA57BE98
3DBA2F8C
BD925461
3D125248
BD9592DA
3DBDBE3C
BD8D18D2
3C11F2DC
BCB0446B
BDAFBC1B
BD05EF63
3BB167EC
BCC8C500
3D7D49D8
BB35781C
BCE74AFD
3D050DF1
BBF4B620
3DAEDCC2
BD380FDC
3CE6E86C
BDAF28C8
3CC024B3
3C2A044B
3D8ABEF0
BD280F13
3D277A2D
3D305D96
3D170F7C
BCE581CF
3D0738A4
BD4242D0
BCE2EB1C
3C8C88A4
BD926202
BCAC01E7
3D8BFB9C
BDA77FF1
3D898FE7
BBD184C2
BD209353
3D82B496
BD7AA151
BD332485
3D50257D
3B298AA8
3D2A5A47
3A854CDB
BD7E058A
3D4404A7
3CD249E4
3C204D12
3C056E69
BD8595BC
3B2C29BF
BDB832FD
BBFFB04F
3DB15400
3D43CF2D
BC8281BA
BC36F199
3D15CE9E
3CC2B51C
BD15F677
3DBDE269
BD845BAF
3D1B9410
BD4F9C20
3CAF7D31
BD7677F7
3D72A066
3D382D38
BDB23B36
3D66AFCD
3D9E96C4
BD45479D
BD2ED45F
BDA78C00
3D3E24FF
3DAB9E49
3D17C0B1
BCBDF2AA
BD8C1CA4
3D998FA3
BC8AF1CC
3CB00BCC
3C417A89
BCDB5526
BCD96207
BCB3A68B
3C8DF15A
3D3D3911
BCA20BC4
BCCBD124
3CEF0282
3BE46CFD
BC88E79B
BDAEA961
B91F6230
BD18FD5D
3DB2E947
BB5338F8
BDA0D888
3DAC471B
BC82949A
BDBD206D
3D5C8430
3C6B8950
3C9272C9
BD9AC3EB
3CB42EDC
BD3929ED
3CC666ED
BD72AE08
BD87570C
3D905D10
3C073797
39095D0B
3D14E4C9
3D91EC0B
BCABC2FC
BC27A850
3C445CBC
3DA75CD1
3DB5208E
3C8D1959
BD5E646F
BD988A8B
3BD4C33B
3D3BCD36
3D94E443
BD2C8B44
3D5A2E7F
3DB41E15
BDB4D163
3D38444A
BCA7C17B
BD220685
3D59BD40
BD9E98DD
3D677708
3B32A6B1
3D52DCB1
BD3B19E7
3D5F87F0
3D816378
3D74A665
3D167DBB
BD2FC47E
BD8901D2
BD76AB58
BC6C636B
3DACF399
3D356FB9
BCCE746D
BDB1465F
3D3B6567
3DB00368
BDBC9F73
3D0C0486
3D837718
BDA4C059
BC744913
BA1AAA3B
3D948BA8
BCD4ED2D
3D8ED890
BD833722
BC5B3398
3DB1EFB7
3D5593E6
3D6B9B24
BC710A9A
3D6F1FDE
BD9586CB
3C23A4B5
BD31F8A1
BD5CF67B
BD0EA077
BC5783E0
3D659E1F
BD6F86A1
BDBA82E8
3D574B40
3DBC7608
3D931F47
BDB3660E
3D927BB3
BCF0D413
BD98C08B
3D803AB8
3D8BF877
BCCE95FB
BAC26139
BD52A62B
BD8F5665
3CFDEF85
BD500B46
3CF39B02
BD078961
BDB12FD3
3D8D6345
3D92DF50
3D1D3ED5
3C27DAA5
BD35B813
3D9A58F7
BC4692F7
BC2F5FD4
3D8EF241
3D9DBA0A
3D8779A7
3D189268
BC906035
3B56A162
3C85F4A1
BCE91C8F
3BCAD57C
BCBD09E1
BD9B0575
3D76134D
BBE1693C
BC895F24
BD4213A1
3D8FB86F
3C208399
BDAEA0FD
BD3DC055
3C2B0C89
3A57BE98
3D881A15
3D82A6F4
BCFD49D8
3D145309
3D99D452
3B4CBC06
BD47980F
BDB723EE
3D18E10D
3B857F30
3D94F052
BBADA33C
3DB65882
3DA3571D
BD95F352
3D3166E0
3D112BA1
BD46CDAF
BD7F0457
3D3DB3C0
BD1B951C
BD567DBB
3D01EABC
BC7926C8
BD4573A8
BD7EA705
3C87E38F
3DB69A91
BD9CC8DE
BC7D2E94
BD1627BF
3D9930BE
3BDBF8BA
3D01E57E
BCADFF82
3D3DC6A0
BD7FCB92
3D96C8B4
BD4E24BC
3C70BAE9
BCAD46F6
3C3CE853
BD0BC9CD
BD938B48
BC65BC88
BC0DA3C2
3DB1B9B6
3D953AC5
BDB55C53
BDA6948A
3CEE1156
3DBAD8E4
3D4D3BF3
BD68027E
3DA837F8
BAEFBB0E
BC9A9542
3DB1CDA3
BCC2DCF4
3D4900C5
BC36B2AF
BD88387E
3C14FF00
3CAD16B9
3CF51CE3
3D5F43C8
3CACDC01
3D9C0E39
3C99AC79
BD85AE60
3D3953DF
BD8E7F6F
BD13165D
3D9019F4
3BEFFE2A
BD5CE9E6
3DBC92DE
3D5A2B5A
3D6EF1BB
BD00CF9E
BD858DDE
BDB016CE
BD0CD749
3D920297
3D74916D
BCB05101
BD8CF6BE
3D41ABD2
3D665493
BD1080B6
3D3FE6D6
BD1C5E70
BC94BDFD
3D2120E2
3CAE3822
BD4CC144
3D9C5500
3C8AC7DA
3D2DC4CA
BDB3BA77
3CDD13D7
BD6924F2
3C43CE21
BD5B3073
BD001C50
BD9B35B1
3DBB9064
BDA92E62
BD40EAE2
3DBA9542
BB03EC89
3CD9FD37
BD819B0B
3DA0A287
3D90ACC1
3D67EC78
BCDFB720
BDBA5C1C
BD825636
3CEF544C
BDAA0A0F
3D895E18
BD85EDD0
3CE84CF0
BB8E581D
3C453F3A
BD9FE4BD
BD6F5DBC
BD967903
3D2B399F
BDA34DAD
3DB48ECE
3D608E15
3DA80E8D
3C427200
BC8726D0
3D31886E
BDA977C9
3D29D628
3C647560
3CF9BDC7
3D60AB71
3D17D7C3
BDAF5126
3D43B1D1
BD87DE51
BD863066
3C573861
BC9EAFEE
3D2BBFD7
BDBA6CE3
3CFCB4F2
3D60791C
BD42A23C
BDADC22B
BCC53D21
BA606530
3CCA9260
3CEF77F2
3BE84AD8
3B7E9B7C
BD829D84
3DAA83B2
BC6132B5
3D3BFE7E
3BE18ACA
3DA939EB
BD111E00
3DB6B6E1
BACC1440
BC4A07F6
3D3C675A
BBF40E5A
BD5C12F1
3C610CF6
3D0A9AC3
BDBC0FCB
BB56C2F0
3DB9CE07
BD761FE2
3DAE8427
BC6275AB
BD006AF4
BD2E99A6
BC2B0857
3D2C16DF
3D5361DD
3CBA40D9
BD2501E2
BD6D666B
3CA4B76F
BDB06AB1
3D41C4FC
3D9F1A5D
3B3EA4EC
BDA15F46
BD815DB3
BC2CB85A
BD557CD4
BD54CA92
BCE6EEB7
3C5E19FC
3B3FB15B
BD7D1138
3D465C70
3DB375C9
3D332592
BD2A1E82
3D84F65A
BD414C66
BD8B5BB4
BBBF9831
3BF9A8CE
BDBB40B3
3D788FC9
BD7C1377
3D7369BA
BDA1EFFA
BBA9B49A
3D269DF9
3D9CB685
3DAD9381
3DB4FBDB
3D127D46
3BF73C0C
3B630447
3D8712E4
BD409A24
BD587B57
BD6A1837
3D41ECD5
3D855C10
3D3E64F5
BD3A52AC
BDBD0E13
BCF9D2BF
BD3DA72A
3D0215BA
BCBAFB7F
BD1B8562
BD211DBD
3D56C615
BCCBEA4F
BD6CE24C
BCE28AA4
3DA1E0C6
3CA8F191
3C4DA2B6
3C339E28
BD012F0A
3DADE6DE
BCC1F645
BD1C3266
3D404A73
3C13532E
3D8B9CB7
3D84DA0A
BDA9B952
BCAEE632
3D4B8E08
BDBCEAF2
BD74EEBF
BD6A5B53
3D10A99B
BD37EA1C
3DB74FF8
3D80E411
3D351698
3D98B47C
BD63D4F1
BCF1F9AD
3C44B902
BCB8C75C
3CAAF145
BD4E6080
3D5FEB8E
BD9AA716
3CFD0F1F
BBB7CBB4
BD4792D1
3D026890
3B19F1AE
3D6394FB
3CF125DD
B9A2877F
3CC22468
BDAAE6C9
3DB662FE
3C9BED31
BD2491B0
BCE75361
3D4CDEA0
BCC6DC5D
3DA2F48C
BD90F94D
BD6D6DC2
3D1AC68B
BDA600B0
3D8913A5
BD8568A5
3DA3D1CC
3A9F83BE
3D31D92B
BDAFDF3B
3C4F28C8
BCCE91C9
BD45F9DF
BD92E6A7
BD94794F
BD857E24
3D2F4CF5
3BADB403
3CB2745C
3D17DBF5
BD9285A9
3C506FEF
3D1376D5
3C0D3283
BCA94574
BD196E9C
BBFE8AB5
BC30CCBC
BC0F81E9
3DA81F54
BD860914
3C86A6E3
3D173EAB
3D8A5508
B90B75EA
BD36CBDA
BD483559
BD616F87
3BE30447
3DB05101
3D88F53C
BD4F16F4
BD233CE6
BD027419
3C949625
3C922B7C
BC05C67E
BD9BB16C
3D25ACCD
BD875A32
BDAB49E0
3D1DDF44
BD9DE93A
3D8C2720
3CA263D8
BD9F6DB9
BD1F98B7
BCDF3D7D
3CCA4B12
BA5130E0
3C8D8CB0
3D141206
BD043C3A
3D2059A7
3D14573A
BCCB0186
3C26937D
3C5B3398
3D2D81AE
BBC57E24
3D718117
3B1A88AD
3DB74257
BAEF34D7
3D1578A3
3C82E87D
3CDEB314
3D686402
3DBE1438
3C8BA83F
3D90763A
BCA1A71A
3C10470B
3D08850A
3DB6C3FC
3D98E087
3D45F6BA
3DB5F56A
3DBA29C7
BD3C04C9
BD4D7CF6
3D643AA8
3D207C42
3D45B079
3D3B30F9
BCBAF31B
BD032980
BD7FF9B5
3C2708EE
3DB3AD5C
3DB434A0
3DB517A4
3DB036CA
3CACD7CF
3C7E9B7C
3D8DC4CA
3D42E01A
3D83810F
3D8CAF71
BD8B5782
3D856FFC
BC15E17E
BD0A8C15
3D7EC248
3CB7457C
3D2CF41F
BDADECA2
3D7C19C1
BD2A087D
BD76EE74
3D6D0918
3D910F52
39AC7DA2
B9B13598
BD43D039
BD9BB0E6
BD4A5CE6
3D3455A8
3D64A8C1
BC7C0097
BDA89B95
3BBA732E
BCEF5665
BD89F9CF
BDBCBDDC
BD37A3DB
3B7FB8B2
BD857215
3D2DDBDB
BD15E9E2
3D7B7308
3D686940
BD929132
BC8C88A4
BD6FE1DA
BD8C4BD3
3DA4A277
BDA51330
3DB26A66
BCFF1F9B
BD85260F
3DACC815
3D6FF3AE
BD717269
BD1BAD3A
3D03B70F
3DA25F20
BD173861
3D1F255F
3D99C172
BD9A81DC
3D79C737
BC3CBA30
BD39C62A
3CB18117
BCF97247
3CF5E41D
BDB74DE0
BA895D0B
3D53586D
3D3168F9
3D7E5322
BBE47560
BBACC0BE
BD6CD8DC
BD00C62E
3DBBB83D
BCCAFF6D
3CA68B1A
BC41EBC8
3D688052
3B46A3BE
3D815012
3C53F184
BD798634
3CCF227D
BDA5E02F
3C30813D
BDA080FA
3DB0728F
BD8FDB90
BDB152F4
BD0A0A0F
3CDA2510
3CC3760C
BCE642C0
BD5FC2A9
BD9724FB
3D933765
3D523A2A
3D9ED8D3
3D2FB19E
BD92C062
BD8EC0F9
BDB44674
3D7124D1
3D8FE79F
BC103212
3DB0D951
B9E496EE
3CA2A6F4
3D473FFB
BB85FD05
BBCD63CC
BD3FEC14
BDB3D20F
3D98B1DD
BD97CFE6
3D1567DC
3CF57710
BD85F202
3D10C910
3D671045
3D99C62A
BDAC319C
BD994424
BC106035
3C70B285
3D8CF313
3D02D6AA
3AD759EF
3D60C7C1
3DBCC426
3DB62414
BD497204
3D3A2489
BD9E0A42
BC947CFA
3B61A3F4
3A55A5B9
BB18A223
BC44588A
3D99B131
BCA7E953
BC10EED0
3C0B6523
BDB16D2B
3D983276
3DAF72B4
3DA8A15A
BD647454
3D830660
3D6FA93B
BC396AF0
3CA491B0
BD382F51
3CD1DABE
3D854F7B
BDAD9DFE
BDA8DEB1
BC6E06D9
3D80724B
3D4C0DF6
3DAB2AF1
3CE04C06
BD3D1DCD
BD833F85
3D26BC62
BD94801F
3987442C
3BE34FC6
3C6DFA44
BDA68124
BD7D5BAB
BD8CB296
BDAA84BE
3DB3250B
BBE4B87C
3D8D655E
3D619C9D
3C090D5A
3CB1337F
3C4CDD94
BCEB441C
BC5117B5
3D98B8AE
BDAA3C64
BD3BCE42
BBDE1199
3D6161E5
3D2C15D3
BDA02EA9
BD476F2A
3B5C11E4
3BDC981C
BBC60CBF
BCD0891A
BD805144
3D2D666B
3DAD2DCB
3C8C692F
3D67BB30
BC2D4F59
3DA2A561
BDA57215
BD722079
3D4BDEC6
BD7F1B69
BDA8C500
BCE481F5
3D4620AB
BCD4DC66
BD8E0221
3D04A0E4
3D0C8041
BD0F56EB
3CD73A79
3C897A68
3D5945B7
BBA83B1D
BDA4E1E7
3D756862
3D2DDF01
3DB6F2A6
BCBC2DAE
3DAE68E4
3D7607C4
BD680E06
BD224895
BD89D0EA
3CBAAFFF
3CFA0B5F
3CD0CE4F
3D79A177
BD8D51F8
BD63FCCA
3C61F3A5
BD041EDE
BD0E7BC4
3DB769A9
3D18E64B
3D5CC858
3C026245
3D9AE686
BDAFBDAD
3CD4C986
3DBBE5DA
3D1FCB0C
3DA26F61
BD7E75BC
BDB46801
BD315C64
3D390D9D
BC939EAE
3DA33C60
3D906573
3D944DCB
3CDD41FA
3B03EC89
BD219546
3D986552
3D5C7582
BD677A2D
3C15182B
3C49539C
BD705532
3D8065B6
BDBC1590
3D972CD8
BDA3BFF9
BD4F2CF9
BD0BF1A6
3C1CF13D
BD4E032E
BD84D877
BD9D3133
BC9C8EAC
BCF66623
BD48722A
BD094C44
3D77ED42
3D791B3F
BBEF0AE5
BD041BB9
BD8FEBD1
BDAC5F39
BD8B73D2
3CDAD96A
3CFE0264
BC019D24
BD46B26C
3BE97072
3DBB5D89
3D9E8C48
3C124AF1
3D5DACEF
BD4CB3A2
BD91B153
BBDE3B8A
3D38D930
BCE61AE7
3CFAA25E
BCD84B1B
3D260D45
3D98E3AC
BCCA558F
3D96F976
BD4A01AC
3D9C7608
3BA3CEA7
3D7E4474
3D9B139D
BD61AB4B
3CC764AE
3C873DE2
BC078317
3DB00DE5
BCC55001
BD9DD5D4
3D48C1DB
3D512557
BDABECEE
3D902CD4
3D10F51B
BD20FA16
BDA6AA8F
BC97EFE1
3D3EDFA4
3BD44567
BC46F36F
BD829F17
BB8A5050
BC7F3F10
BD381A58
3D664E48
BDBA4CE8
BDA8BDA9
BD7E0264
BDA2A6F4
BD17470F
BD76D331
3D502689
BCCFBB95
3DA8A82A
3B1539B9
BDA961C3
BD2EEFA2
3AECFA6A
3D1D9903
BD959360
BD4B167F
3CE4D3BF
3DA003AC
3C2643CC
3D6F6C6A
BD6822FF
3D3063E0
3CE6772D
BD9BE554
3D3C6B8B
3D64AE00
3D8EA316
3D882060
3D1D755C
BDAFC611
BC72A9D6
3D1A32B1
BD5C4DA9
3BAAB8A6
BD6EAA6D
3CB4202E
3DA53975
BDA544FE
3D7AF102
BD8F2389
BD5E3001
BDAE4862
3CBC9258
3D694DD7
BC63B03E
3C83B3EA
BCE0C9DA
BD6AEF2C
3CAAA3AD
BCC347E9
BD8C82E0
BD8DACAC
3D16440F
BD5A921D
3DA56D5D
BD0A4096
BD31A4BE
BD16F438
BD8F2D80
BCE4BA95
BDAC4263
BD5756C9
3D5ECB32
3C0ED1BF
BD231833
BD87C958
BD5E96C4
BD7E4BCB
3D805A2D
BD700043
BD735D25
BD7076C0
3D9C66D3
BCCEC637
BD7F6901
BDBBB731
BD89491F
BDA9B0EE
BD47DF5D
BC2DCD2D
3D886C66
BD98C543
BD043915
3DAE7686
3B4942D5
3C7DA405
BDA39043
3D2743A6
BD0EC0F9
3CD89EFE
3D647560
3D6ECF20
3AD887EC
BCDF676F
BC996B76
BDB7995F
3CFF79C8
3D6E642C
3C2786C2
BAADEEBB
BD8D71F3
3C7038E3
BD0A808D
3D9020C5
3D2FFD1E
BD489D28
BD183409
3CE1522A
BD18CC14
BDB04E62
BDB9841B
3CEAA2A1
BCEF0CFE
3D27B5F2
3C924074
BD48B439
3D04C166
BD1A048E
3D50BA62
3CFE6D59
BBC069E8
3D33B42D
3D828C37
3D601798
BC1DDC1E
BDACFAF0
BDAA52F0
3D872B02
BDA79AAE
3CE1E0C6
3D9B17CE
BCDA964F
3BE15875
BC68C048
3DBCCD10
3CBC07EE
BDA2F72B
3D79E8C4
3DBAD8E4
3D8CEF67
3D74C4CE
3D05564B
BB566F0D
3DAC5DA7
3B613F4B
BD28448D
BD10DF16
BD7EED46
3CF56649
BC055DA2
BD3D0397
BDAFA509
BA1FE868
3C4929AA
BDBB8024
BD7B1184
BCD8E64B
3D6EA20A
3C921EE6
3D09ADC9
BC5BF488
3DBA908A
3D55B574
BCCA57A8
3D97B84E
BDA129CC
3DA766C7
BD7E8039
3DB32DF5
BD234CA1
3CD0EDC4
BDB5A4AD
BD1E99E9
3D53B3A7
BC67429A
3C5BF488
BD375C8E
3AF776C5
BB9118C2
3D320A74
BC5041CC
BCB1465F
3D4F8E7E
3C54994A
3C9CCD96
BD32E382
3D6FE3F3
3D3ECEDD
3CED5065
BCF531DB
BD3A365D
BD50A351
3C96D091
3D6B24A7
BD0C2A45
BCCEE17A
BD8D57BC
3D970C56
BC3A94BC
BD635B4F
3BF04146
BD374CD3
3DAB9FDC
BCB76F6D
3D832EBE
BD027D89
BC9F81A6
3D88C932
3D72F124
B9BFE3B0
3C179182
3C92A737
BBD7518B
BD611BA4
B9A0F4D8
BDA77037
3D8FAB54
BCE7685A
3D229C78
3C8919F0
3D5EA359
3D399F5E
3C0A19CA
3DB0BD88
BD8A6224
BD9171E3
BD91CD1C
3DBD2BF5
3D8A3C64
3D6B0EA2
BBCD9620
3D02FF8F
3D8D7300
3B98CC14
3D839043
BD22CFD9
3D8D1BF8
BD3C419A
BC3CA106
3C0D60A6
BD414A4D
3D3F36AC
BD922186
3D9AE579
3D73D07D
3D0E10CF
BD4F92B0
BC88919F
BABF1A5D
3B975297
3C577B7C
BD538152
BD8D30F0
BD7C9470
BD5ED6BB
3DA4577E
3D3574F7
3DB64F12
3D9DA61E
BDA4FEBD
3CC4BD34
3D54C986
3C352C9D
BD38DA3C
BDB90D9D
3D9C48F1
3D5BCA97
BDAD6CB5
BD0C9214
3DA830A1
3DA41AAC
BCCCDFAD
BD4D130E
BD4359BC
BB8522EA
3D0D477C
BD7E5FB7
3D5DF224
3D2351DF
BD720968
BDBC193B
3D550CA2
3CF6AB58
3D7F9D6F
BC983947
BCBC621B
BD816C61
3C625C81
BD2A087D
BD89F384
3D92D5E0
BABFE3B0
BD7BDAD7
3D85A89C
BB07EBF2
BD7FD60F
3D9B7A5F
BDAD4E4D
BD4431BE
BC8D8CB0
3DA5CC42
BD9F8EC1
BD6D3B6D
BD1E2585
3BAD46F6
BB7CA42B
BBA88F00
3DA5D9E4
BD480E8D
3DAF7F4A
BD079A28
3CE3F35A
BD88301A
BCFE718B
BD8DEDAF
BC944CBE
3D8497FA
3D88D5C7
BD80FC2F
3CD13F8E
BDBB3398
3D3AD6CB
3D928BF4
3CAA2E3C
3D8F661F
3C1320DA
3CAE8E1D
BDB593E6
BD5E5D18
BA3A6267
BCA189BE
BD0F0B6B
BD3B42CC
3BD29132
BD440F24
BDAF0AE5
BDBCE7CD
3D930C67
3D134EFD
3D144999
3D3AF534
BDBC0B13
3D90E7FF
3D15885D
3CC2F406
3D9785F9
BCCC76D1
3CCAD363
BD5F7A4E
3D09CD3E
3D24FEBD
3CD590C1
3D12C27A
3D0B1034
3D1D6BEC
BBB7A1C2
BD9587D7
BD7F3494
BD8E1E71
BD81EABC
3D58969A
3D38E5C5
BD92862F
BD525BB8
BD857EAA
3D965FD9
BD077250
BD1219A8
BC5D7A9A
BCCF8F8A
3D4D91EF
3C7A8B4C
3D0C9214
3CCCA4F4
BDABCCF3
BD235D68
BD842310
3CA8D64D
3CCA9CDC
BD3E5B85
BD85C24C
BDB9207D
BD9C5DEA
BC6D30F0
BD5EFD87
BD16ABDE
3CE8B3B3
BD55CB79
BD990EAA
BD830C24
BC73E89B
3B16AAD2
BCB97FE9
BD788228
BC58D79D
3D90C6F8
3D3E004B
3D2BB01D
BD5D095B
BD43AD9F
3D19E94B
BB451117
3C2BABEB
3CD3910C
BDAA9DE9
BD752221
BD1095AF
BDA78D0D
3D321922
3D6D80A1
BDAF1C32
3CCE160E
3D4BE0DF
BD9EDB73
3DB75968
BB9E7FB2
BD8BF338
BDABE404
3D68869C
BC70A5F0
BC8CBD12
BA6F1349
BD640D91
3D0D8A98
3DA5B0FF
3D9FA2AD
3BF4B620
BCB0A4E3
BDB52FC2
3D81ED5B
3D271BCE
BD82EBA2
3A10F734
3CA21859
3BF8AD25
3CA3400C
3D5EE782
3D49624A
3DA1E365
BB11F2DC
3DA47CB7
BCA645E5
BD70403A
3D7265AE
BDB08894
BCB9E6AC
BDA7A637
3CDD1809
BD0BCDFF
BD80E8C9
BCF90D9D
BDA2D517
3C4D5F9A
BD91AD21
BDB7C676
BD597D4A
3DAC38F3
3D806855
3AED1BF8
3D24180D
BBEFF5C7
3DBDC055
BD0ED4E5
3CE10F0F
BD8B502B
BC6581CF
BB9BB6AA
3C8F81E9
3D20A527
3C5E939F
3C07C632
BDBB2464
3D86362A
BD184A0E
BDB3061C
3DABF551
BD91BCDC
BCA9A805
3D3B9BED
3D910236
3D1802C1
BD279789
BDACAA32
BC5A7B0B
BD9F6A94
BCD94291
3D1349BF
BDBC0A8D
3C8C9108
3D6B8738
BD76AB58
BDA2B40F
3DB1D81F
BDAD4D40
3D43DAB6
3C80192A
3DB8548B
BD822B39
3D958299
BD1FB2EE
3D7A2596
BC127D46
BD317269
BD1FDDEC
3D5FF3F1
3D9C3EFB
3DBD5022
BCC9E668
BD888C61
3D7E2E6F
BD3B1E19
BD0FA15E
3BBFB15B
BDB5DE59
3CBEC02F
3D74299E
3D2872B0
BD8CCB3A
BDA7FA1A
3CF57929
3CBCD9A5
3D8CAEEA
BD3A97E1
BD2BE059
3C0C9753
BD653B8E
3D7A41E5
BD455758
3D808D8F
BBF826EE
3D9620EF
BD38F367
3D5550CA
BD92F901
3CF587D7
3D9C6D1E
3C739086
BCE57FB7
BDA0DED3
3CD627BF
BB9C4546
BC9E7D9A
3D73A798
BC60DED3
3D3F5A53
BC64BCAE
BCCB1EE2
BD761CBD
BCCC1659
BC804966
3DA5A251
3D8CF851
3C823E9F
3D559924
3DB90082
BDB95EE1
BDAF4624
BDB2D7F9
BC5C054F
3D5D4A5E
3D330510
3D15AC04
3C8795F6
3DBD72BD
BCC195CD
BD95F3D8
BC2C42EA
3D2FA0D7
BCBB4B30
BDAFB118
BCBC408E
3D125CC4
3D05DA6A
3C1FD36F
BD845133
BDA93A71
3CCA3E7D
3D9947D0
3D601798
BD667621
3DB5F99C
3CCBAD7D
BDAC2D6B
BC1780BB
3DB497B7
3D994E1A
BD7BF0DC
3B6E7C4A
BDBE2479
3D447D3D
BD4D67FD
3DAEAE19
3D5BA909
3D91E322
BCAAB8A6
BDB5D91B
BC37F5A5
BD2B8B69
BD6F177A
BD890CD4
BC0DD1E5
BDA3A4B5
3D6786C2
BCE321A3
BD12AE8E
3DAFA93B
3CD625A7
3DB11516
3D22B27D
BCBA5E35
3D9654D6
BD775211
3DB96FA8
3D8FFC98
3CFBC7F7
3D5612C7
BBAF038E
BD6D98BF
BDB99BB2
BDAEC7C9
3D84F441
3C470436
BD46AC21
BDA0913A
3C9B2E5A
BD9609DD
3CF661F2
3D5E7C8D
BD8E5E68
3D9C04C9
BD0B1034
3D477037
3CE99631
BDA50ACC
3D8FAE79
BD0F42FF
BD96BEBE
BD699418
3D3A1B19
BD055B8A
BD41BB8C
BCDB9A5B
3D1014B6
BC851A87
3D8DB595
BA97C808
BD02B735
3D0E8965
BD5B8130
BD2EC8D6
BD9F25E5
BD95CE9E
BD19A73B
3D08051D
BD1A20DE
BCA99FA1
BD655C10
BB553049
BD8E935C
BD957D5B
3D0DA1A9
BD0A1166
3DAB0FAE
BDA6B617
3C4069E8
BD291A76
3CD82FD7
3D8FE2E7
BD90624E
BD5F46ED
3DBC1CE7
3D24EBDD
BD06338B
3D8C88A4
3D5E2BD0
3C2BB01D
BD9FE3B0
BDB5DD4C
BBFBA882
3D9B5393
BD4EAAF3
BDB90EAA
3CE38EB0
3D52A950
3D40D3D0
3CACEAAF
BDAAE643
BC46088D
3DBAA609
3D1A9A80
3D124BFD
3C560E95
BD7D61F6
3D3442C8
BC82602D
3DACCDD9
BD677C46
BCEAA6D2
BDB6084A
BBF29D41
3CBA6CE3
3D5D3565
BC7E5C92
BC2593A3
BD8D6B23
BD85F202
BD89D302
3C4AAFBC
3D1E614A
3B29BCFD
3DA81E47
3C045133
BD80BAA6
3D9565C3
BCD8C6D6
3D8CB74E
3C44E2F3
BD251E32
BDB430F5
3D4346DC
BD7E963E
BD96640A
BDBDB76B
BDAAA2A1
BD7D512F
BD72D2BB
3D10CC36
39BF5D79
BCCF7447
3D451548
3C7D7E46
3DB91362
3CF648C7
BDB7A1C2
BDBA4591
BD9B45F1
BC8E10CF
3D3687B1
3C2133C2
3D075925
BD4726D0
BC526FA4
BD383383
BD78811B
3D74ABA4
BDA56606
BCBFE197
3D91FA33
3DAD2E51
3DA8112C
BD5ADC90
3CF08894
3DABDDBA
BC318549
3DBDAF08
BDB912DC
3C396AF0
3D9BF50E
BCE6149C
3C825BFB
BDA557DE
BB203C4B
BD8AC42F
3C88E582
3D76F199
BDAB0D95
3DB64495
3D224CC7
3D9E939F
3C6DF612
3C87FAA0
3D88E68E
BD1B994E
BDB272C9
BDB74470
3D03E857
3D28C9B8
3DA46067
3C8C60CC
3C5A511A
3CE17A03
3D871CDA
BDBB6806
BD790D9D
3B1B1FAC
BD5C5A3E
BCF74CD3
BCEAAF36
3D20DED3
BC06A8FC
3C9476B0
BDB52C17
3CACE033
3DB0941D
BD8C3A86
3D990646
3D94E011
3D518B0D
BD8D9B5F
BDB5989E
3D4F3CB4
3D7955F8
3D44D877
3CBDB7F1
BC9D5A18
BC9CC74C
BDA8ADEF
3DB0E560
BD3E3B04
3D068987
BD87A850
3C95336E
3C87A073
BD225636
3D3CB4F2
3DA09BB7
3D9D6840
BD62B6AE
BD98CB08
3D9B890D
3D959DDC
3D1A37EF
BC3BC2B9
BCE3E6C5
BCA08E15
3D82ACB8
BD84A0E4
BD834331
BC6ADD59
3D03D578
3D896AAD
BDA0BED7
BD75F3D8
BD1D00F7
BC85AB3B
3D5C0443
BD156F33
3BB2D0A2
BC959C49
BD6FB3B7
3CB8476F
BCE94680
3C8CC9A7
BD22174C
BC58E001
BD1451FC
BC87DD44
BD48D6D4
3C8A19CA
3DB57FFA
BD5B3073
3D54BBE4
3D204AF9
BB21DFB9
3C69185D
BD9394B8
BD0F0D84
3D55A8DF
BD2706D5
3915F245
BCD84D34
3C831CEB
BC8CB6C8
3D24E054
BD1AFF2A
3C838195
3D23F24E
BD10EA9E
BD30DA5E
3C5A597D
BDA9552E
BD372E6A
3CF37FBF
3D157364
3DA98138
BD9EA24D
3C3C1ACE
BD9BF37C
3DB3B081
BD2B9B24
3D9C8DA0
3CD9641F
BCE5C0BA
3D9A6ACA
3D53D641
3DB57A35
3C1F9485
BD8AE8E2
BD94F1E5
3D1D1A22
3DABE1EB
3CE47DC3
BD1C6B05
3C57F0ED
BCC4CDFB
3C8578E6
BD930729
BD77D955
3D6CF41F
BD9A8262
3D07C526
3DAB5782
3D61AB4B
39627E0F
3D74E981
BC878961
3C39170D
BB8398A6
BD13F39D
3D3546D4
BD286A4D
3BDE7642
3CA0C283
BD711E86
BD2BC2FC
BD6B5D46
3D0BA51A
BD80B999
3DA34B94
3DBAB4B7
BD38561D
3D57DE0D
BCFFDC59
3CD53049
3D67A312
BD822EE4
BD4CA601
3DAF10AA
3D8F75DA
3D4623D1
BDAE429E
BC34BB5E
3D3C6973
BD038088
3DBA365D
3D854DE8
3D2EAB7A
3D5627BF
3CB72607
BD661284
3D57B310
BD9197A2
BB820E63
BD7CBD55
BC5AB5C4
3C33E575
BCE39D5E
BC6D84D3
3DA10D7C
BA612E84
BD29B281
3C4710CB
3C3A4D6E
3C839ABF
3D554C98
BD0E68E4
3D6178F7
3B9949E9
3DBADA77
3D5EC919
BD4AA21A
BC6774EF
3D6A9B4A
BD4EFED6
BD59018E
BD8855DA
3DA5204B
BD9C6E2B
BD102CD4
3DB4C87A
BBBF76A3
3D8408D9
3DB680E0
BD699418
3D9FC19C
3CB43D8A
BC0650E7
BD264F55
3CEE1DEB
BDA38DA4
BD9A1EC5
BD629D84
3D902A35
3C1EBA6B
BB4282C7
BC155B46
3C1085F5
3BD1D042
3B5B2703
3D7419E3
BDAA454E
BD14EC20
BD2D7D7C
3D22AE4B
3DA90DE1
BCF78BBD
BD5C7DE5
BDBA48B6
3B65C4EB
3D841355
3D301B86
BC9081C3
BD90C027
BCEF4E01
3D972E6A
BD70739B
3D85AC47
3D559D56
3DBAE361
BD8D46F6
3D3458CD
BDAC3C19
3DA6B69E
BC2411C3
BD9832FD
BCAC3223
3D1EBFA9
BCB994E2
BD78EC10
3D3B84DC
3CE3FBBD
3D80114D
BB650C5F
3BA28FE2
BDA31F04
3CD807FF
BC741AEF
3CE85986
BD655087
3DB7AFEA
BDBB2895
3D6E514C
3D9897A6
3D37867F
3D680F13
3D95B78D
BD9C27E9
3A57BE98
BCF075B4
BD2B94D9
3D998394
BCC128BF
BDB7D8CF
BD578D50
BCC0AAEB
BC6CBFB1
BC5B76B4
3D240421
BDB08D4C
BBE15875
3CBEDFA4
3DA880D8
BD16DA01
3D3EE808
3D1527E5
BDAEC6BD
BD1C193B
3BD07853
3C638A7E
BD8B4203
BD990C0B
BC30F6AD
BBDB6A1F
BD81700D
BD6837F8
BD976B3C
3D87D135
3D43914F
3C65AFF3
BDA49907
BD6E514C
BD9C8323
3D89728A
3C95464E
BCB47A5B
3D342EDC
BDBDE15D
3C66FF7E
BD503EA7
3C6514C2
3D854B49
BD82BF98
BD859429
3D279789
3D3670A0
BD33BD9D
BD5E353F
BDBA365D
BDB5E311
3D93CF70
BD919610
3D87674D
3C2C81D4
BD7127F6
3D20168B
3D805D53
BDA46BF0
3DA703B0
BDAE2DA5
BCC7CFA2
BCA7B2CC
3D3BAA9B
3D5CB9AA
BCE9AB2A
3D2D83C7
BD3ED203
3D8866A1
3D13A0C7
3D1EB207
BCA3D0C0
BDB20E1F
3CE935B9
3DACFA6A
3B8A1DFC
BB1E236C
3C8BF1A6
3DACD4AA
3D2AB25B
BDBCD9A5
BD744A1F
3DACF95D
BCF1ED18
3D909FA5
3D253975
BDAB0C02
3DA0370D
3D8518F4
3D1E0829
BD5DC0DB
3DAB545C
BDB31FCD
3DB88095
3D5F45E1
BCBFE9FB
BD2DDACF
BC4CC89B
3C81F538
3CD95571
BD6D7732
3DA3443D
BC24766C
BDB60957
3CA2A4DB
3D9AB7DC
3C890710
BB8F8E7E
3D93E35C
BD027957
3D9B8801
3D0B46BB
3C8B47C7
BCCC9646
3CE1F9F0
3C591EEB
3D926202
BD989EFE
BD1AF9EC
3C2697AF
BD3161A2
BD41F751
BDB57471
BCBB8801
BD9442C8
3CDC6C12
BD954E2B
3DA436FC
3D965DC0
3D02F512
BD33E250
BD8E7FF6
3D7CA42B
3D451C9F
3DAC6F7A
BC3FA094
BDAE6D16
3B880D80
BCC0D0AB
3CB1DF76
BD365882
3D300CD8
3DA702A3
3CA8C36E
BD8FE0CE
BC01CF78
BA8CA3E8
BD524BFD
3CFEAA2A
3D5D0636
BC291106
3DBCE421
BB4D0FE9
3C56C722
BDB034B1
BBF1A9FC
BD6D01C1
3DB6262D
3DB713AD
3C7A615B
BD5AC14C
BCAA044B
BCCE7CD0
BD43F706
3D379746
BD2E147B
BC62DE87
3DAFA15E
3DAC5E2D
3BDD0529
BDA8ABD6
BCB20B80
3DBD5BAB
BCFA072D
BD3E2C56
BD871AC1
3D83E293
3CA1E1D2
BC8F92B0
BC4729F6
BD699D88
BDAF3669
BDB63993
3A954A80
3C8C32A9
3D69AD43
BCDC7475
BD090E67
3DA087CA
BDA7032A
BD1FF92F
3C91819D
BC9083DC
3D8E0115
3CEE2C99
BD44CDFB
BD96605F
3D965CB3
3D8132B5
3D86B93D
BCE412CF
BC5C011D
3DBA8DEB
3CA45910
3C10C4DF
3D54E1A4
BCCD5736
BD7D48CB
3D8AD688
BC51AEB4
3D9A426C
BD96A833
BB188095
BD755AC0
BC072F34
3D210E02
BDAFDC16
3CE0A201
BC1BA5E3
3CD35A86
3D43C8E2
BC88D089
3A07442C
3D4ABF77
3C902795
3C9A8CDF
3DB7F0ED
BD3405F7
BC1D883C
BD25FE97
3C9E603D
BC201ABD
BCAB1F68
BBD1E109
3D2A044B
3D7E3194
3BC7E282
3D477575
BD676A72
BD91C758
3D366F93
BD237CDD
3CE40A6C
3D70D951
3D6CD078
3D516335
3D8A600B
BDB89268
3D426677
3D62AF57
BC3C6EB1
3CBD1EDA
3D3AF859
3C4E5B42
3D6B1705
BD9BA7FC
BD93E78E
BD76D97B
BCEECBFB
3C3224AB
BCD2E2FC
3D8F9DB2
3D9FA094
3D0E51D2
BCB1337F
BDB7C99B
3DA7E73A
3C034D27
BD7395C4
3CF28E93
BB977425
BD656580
BD58665E
BD8C5A81
BD963348
3D6E4C0E
3DA86D72
BD98E6D1
BD79335D
BDAF3669
BD84944F
3D819DAA
BCD89EFE
BD9B22D1
BC9040C0
BCB29E4D
BC3AF966
3D0ADABA
3B22120E
BD31AD21
3D962520
BDB9C066
3A749492
3D56E04C
BC8E6080
BD912DBA
BD850BD8
BDBBCEC8
BD662995
3D8DDA49
3D988EBD
BD842310
BC666CB1
BB58665E
BDAB912E
BD69D51B
BD8E3EF3
3D347C74
3CFA1A0D
BD5F58C1
3CFAF859
BC004D98
3AD62BF1
3A2137F4
BD312A0F
BBC36DA8
3DBB41C0
3D142E55
BD8DB9C7
BD5C7369
3CC794EA
BC8BAE8A
BB931013
BD6707E1
BD6FF9F8
BDAFDD23
3CF14552
3D5F3C71
3D8F73C1
3D93A68B
BDACF851
BD9B4E55
BD85C359
3BA4A8C1
BB75A101
BA4C35CE
BD053198
BCA8A3F9
3D3CD142
3CC0895D
BD115161
382BF76A
3D5409A2
BC591EEB
3D69EF52
BD1C62A2
BD84F8F9
BCD2391D
BDB9FCB1
3DB301EB
3BAC5C14
3D5AF3A1
3D688F00
3D26687F
BDB85A4F
BD71055C
3D28EB46
BC25614E
BD0D9F90
BC933E36
BBD25EDD
3D719D67
3DB5BD51
3D14D0DD
BDB71C97
BCD31B9B
BD36D331
3D64399B
BD8054EF
3CDE2AC3
3C046A5D
3C9F57B4
BDAB40F6
BDB7B741
3D99FE43
BA972043
3D7AEDDD
BD6CEDD5
BD31422D
3D9EE45C
3A6DC3BD
3CBE1A82
BCFB3D8E
3AE29F9D
BD90691F
BDA8B3B3
3D52BD3C
3D6D44DD
BD848388
3D916FCA
BC87DD44
3C3ED30F
3D245910
BD708CC5
3CA3161A
3C2593A3
3D118C19
3D9E6927
BCE0CE0C
BBEBEDFA
3DB67989
3C953BD1
3C6BA6AD
BCE97D07
3D4B88CA
BBE95FAB
BCC77143
3C6260B3
BD4E67D7
3D4729F6
3CE7D135
BC66601C
BD008D8F
3DAB5137
BC91409A
BD6EDBB6
3D877708
3CDFBD6A
BC550EBB
BD3A67A5
3D3FF8A9
3CDB8130
BC92428D
3D1C560C
3D362B6B
BD698CC1
BD90563F
BC902795
BBB3FEA0
3D4BA626
3D9A7C9E
BD8D972D
3BE0B0AF
BC726AEC
BD355DE6
3C44A409
3C724D90
3CFC02B0
3CFFC116
BB1A34CA
BDBC23B8
3D93C03C
39E410B6
3DAA7DED
3D9148FE
BD9C0336
3DA738A4
BCC5B079
BC8E368F
BC8B1DD6
3D391601
3C8A9BD0
3D33E682
3D40639D
BD20D888
BD172043
3D0192A7
3CE89CA2
BD2A4DB1
3D2B9C30
3C85E80C
BD8A7C5B
3BDDDF44
BCF0BD01
3D0BA0E8
3D5F40A3
BC41DB01
3B741F21
BC1BD406
3CFC3937
BD630B9E
3D9FA8F8
3CFBAECD
3CB3482C
BC1AAA3B
3C529564
3C13C89F
BD8CE033
BD5A4BDC
3D064778
BC7AF859
3D151937
3D3EDD8B
BD1040C0
3CD45415
BD87F23D
3CAED99D
3CCB923A
BD54B9CB
BD9A2F8C
BC9F98B7
3D17F1FA
3D85D6BF
3DBA82E8
BD83CA75
3D8C2BD8
3B97635E
BDAA2C23
BD96501E
BC459B80
3D27FD3F
BDBBABA8
3DB61BB0
3B56B229
BD55C63B
BCE18698
3CB851EC
BDAA51E3
BDAEB2D1
BD4B85A5
3D99335D
BC8D801B
BCF5D788
BDAF6380
BD09613D
BCD29BAE
3D05C24C
3D93DC8C
3CF45176
3D75D356
3D239F77
3D54F052
3CDFA00E
BC5D8B61
BDA0D131
BD679AAE
BD10DE09
3D7572DE
BDACBAF9
BD92C519
BC932B56
3C8E3AC1
3DACE358
3CFA13C2
BD0C4CE0
BC85F4A1
3D0D67FD
BDB9218A
3D2F6C6A
3C315B57
3D5A2A4E
BDA5F6BA
BDA5FA66
3D65332B
3D961240
BDAEB91B
3B0F861A
3DB7CFE6
BDAC84F9
BD5C94F7
BCBEEA21
3DAA91DA
3CA363B2
BDB58E22
BD5BDD76
BD3A7009
3C9B5E96
3BCEC41E
BDA7631B
3BF3A9B0
3A75A101
3D958F2E
BCF24745
3D5347A6
BB9B7BF2
BDABF3BF
3D9B62C7
BD1F7A4E
3BD22C88
3D739E28
3D7DCDF7
BDAD8905
BD7FF8A9
3D882C6F
3C2860DD
3C4E8965
3CF9BFDF
BC8A17B1
3D21C25D
3D57E564
3D50928A
3DA20E63
3D60D131
38E496EE
BD024E59
3AEC52A4
3D94C22F
3DA30121
BD7E2B49
3CD3E921
3B64FB98
3C8B7C35
3D0A83B2
3CBB7953
BC44588A
BD63B257
BDACD749
3DB6E9BC
3B716F44
3DBC664D
3DAEEE0F
BC8BE2F8
3B04E832
3D97C3D7
BD06E4C1
3C8127B3
BC0AF816
3D873040
BDBD6CF8
3D53AA37
BD1906CD
BD2BBCB2
3D230878
BD23D0C0
3BA64C30
BBB6D00B
3D445ED5
BD0C825A
3D955F78
3D01D9F5
BD9AAFFF
BC0F3238
3CB2C626
BC797EDC
BD15EAEE
BCEC7432
BCF7BBF9
BD4B31C2
BD9D8D7A
3C7FEB07
3D12FC26
3D85FF1E
BCEE4C0E
3C3AA583
3C9D12CB
BDB5D895
3D70A3D7
3D951698
BC6425AF
BD0A9AC3
BCF1AC15
3D1D91AC
3B104F6E
BD697072
3D1D1F60
3D82C7FC
3CFF10ED
3CD61911
3DA84274
3BD9DFDB
BDB008A7
3D28D973
3D493FAF
BBA1E81D
3D0F91A3
3DB7AFEA
3CA7E521
3D341180
BD108D4C
3DBD8ADB
3D1EB0FB
3D9D68C7
3C4EC850
BD72BFDB
BD9EAC43
3DBDF43C
BD2AE297
BD896F65
BDA4A948
BDA40315
BC3352A8
BD3649D4
3C307076
3C325F63
3D92A950
BDB87400
BD196745
BD2BFDB5
3D5D7FD8
BCB397DD
BC4432CA
3D359BC3
BD322E1B
BD8BE836
BCF7403E
BD627F1B
3C0DFBD7
BDBBC98A
BD5DE050
BD3BBE88
3C581ADF
3D2F6C6A
3D8448CF
3D9255F3
BC56F113
3C8EBEE0
3D5D712A
BD3CB70B
3DBC4977
BD609BB7
BC09CE4A
3DBA4B55
BCF7BBF9
3D84E1E7
BC58622C
3DBB7E91
BD52391D
BD89E1B1
BDB3F530
3DA88F86
3CACB210
3CEAD2DD
BC9C065B
BD4893B8
BD41C1D7
BD4F6F09
BC3E22E6
3CA3CA75
BCE48E8A
BD2FB3B7
BD3C371E
BC0BD231
BD3343FA
B649539C
BD8C7B89
BCB43D8A
BD8B65AA
BC93D103
BB8754F3
3C293F29
3C035159
3CA94574
3D3E7E20
BDA6BF01
BCBCBC49
3C3AC711
3D598288
BDA19FC3
3CD2B4D9
BD6B7CBB
3CAF72B4
3D5522A7
3D3AFC8B
BD6876E2
3C585DFB
BD85692B
BD0D79D1
BD87FA1A
3DB09635
BCB6A401
BD04FA05
3D3996FB
3D118091
BC47B02D
BCCD6C2F
3D4C9753
3DAD4D40
3D3E74B0
BD882060
BD92DA98
BC657109
3CC83665
BCCC5975
3D7D1245
3B90EED0
3DB58106
3D8BB3C8
3D2AD2DD
3C8D79D1
BDB7AFEA
BDB1A976
3D59018E
3D2BE597
3D2A6E33
BD61187E
BCD568E8
3CCBD556
3D6E9EE4
3D0141EA
BD06412D
BDAC7DA2
BD225D8D
3DB0C133
3B2F9229
BD99A06A
3D86C094
BAB1140A
3DA3393B
3BC47A18
BCD2D01C
BD314A90
BD95347A
3D5BB9D0
BD11E53B
BD903EA7
3DB83F0C
BD628672
BD1185CF
3D81DFB9
BD71D2E1
BDB6D97B
BBF44913
3D58D25F
3DA69164
3CA2DB62
BD5C92DE
3D7607C4
3D39628D
BCC89B0F
BD1C8430
BB693E1D
3D03AA7A
3C60EB68
BDAFE9B8
3CDAB5C4
BD538AC2
BD83AF32
BD768BE3
BC6A28FE
3D691FB4
3CE6CF42
BB40DF59
3DAA52F0
3D30B5AA
BD1B8024
BD81D5C3
3DA45996
BD1C1722
3D66B1E6
3CC1A47B
3D3AB218
3D6A4335
BCF8F25A
3DB1B9B6
3B634763
3CEFDA83
3DAE1B4C
BCB95A29
3D468555
BD7E3194
3D57FC76
BDA095F2
3DB55F78
3C211A97
3DA893B8
3DB2FC26
BCCAB820
3D683F4F
BD14A7F8
BD95C183
BD333CA3
BA8B545C
3A9E12A5
3CC48063
3D445CBC
BD19274E
BD820685
BCD29FE0
3BFEF7C2
3CD028A2
BC987E7C
BDACD856
3D0DC22B
3D430A0B
BD8775FB
3DAB5BB4
3C471D60
BB871A3B
3DA92924
3B36D86F
3D9D438D
BD727DCC
3DAD5305
3D041893
BD77E1B9
BD8DCA08
BDB53D64
BD1464DC
3C09E775
BC8B06C4
3D4BBD38
3C32E9CD
3D77B396
3B083FD5
BBC1094A
BDB68B5D
3C013CAC
3CA8BD23
BD21187E
3D1BA3CA
3D7A9197
3AA7C5AC
3DA502EF
3CC0F451
3D4903EA
BC8D1D8A
BC7D2A63
3C9984A1
BC44DA90
3D042310
3DB93D53
3D774ABA
3D2F911D
BD938716
BD6696A2
3D92AA5C
3DB7BE12
3CA7AE9B
3BA4766C
BC991FF7
BDBDB984
3D112EC7
BD8362A6
BD7EAE5C
3D956C0D
BDBACDE2
BDA47992
3C00AE10
3D81144D
3CDDF655
BAFE047D
BD7FA094
BB654F7B
BBE34FC6
BDBB6028
3D2E49F5
3D9094A3
3D621B7E
BD9A8262
BBB990B0
3C139EAE
BCDD206D
3CF4FF86
BCC50050
BD9B2D4D
BDA4C943
3D21144D
3B06162F
BDB5C183
3D0A265F
3D9E6DDF
BA1EDBF9
BD33B752
BD74AFD5
BD989614
BCF94C88
B991C087
3D9C1590
BD1375C9
BC42938E
39EE06D9
3DBCD4ED
3D924F22
3CE1C369
BD530AD4
3BB0856E
BDA3400C
3D1332AD
3DBDC619
3D6D5BEE
BDBC4C9D
3D89613D
BD95E17E
BD035372
3D731F47
3AE086BE
3DB40896
3DAF81E9
3D2E18AD
BC14FF00
BD0FBFC6
3C6603D5
3D2D45E9
BCAB1705
3C37D849
BBF1E4B4
BC9DB22D
3D20168B
3D84E2F3
BD468017
BD40F239
3CFFCB92
BD761998
3DB97679
BD82A90D
BD4C154D
BD5E7104
3DBC981C
3C93DD98
3C74BE83
3C9D94D1
BBA39C52
BD4D9B5F
BD462F5A
3D9ED634
3D01C715
BD853E2D
BCCEA4A9
BDA78A6E
BDA241C4
BA41B973
BCC81F54
BDB003EF
3B596207
3C20C6B5
BA0919F0
3D512557
BDA136E7
3C634331
BDB56E26
B87FDA40
3CD44FE3
BC5F9379
BC6D0F62
BB8BB0A3
3DA03FF7
3D79D90A
BD7A0E84
BD6D46F6
BD5A921D
BC9276FB
BD1539B9
3D4D6C2F
3D78487C
3D18244F
BC942F62
3DBB4AA9
3D2CD8DC
3CDD7A9A
3C106CCA
3DB8B71C
3D0B1034
BD18BE73
BDB359FF
BCB5653D
BDB910C3
3D45AE60
BCE95D92
3C034D27
BDA5C4EB
BD8C03FF
BD0D10F5
3BD2AA5C
3D1591CD
BCB193F7
3D72B346
BC9B2E5A
BD83F141
3DBB0037
BD9EC02F
3D865ADE
BD439043
3C8229A6
BC2237CE
BDB3E3E3
3DAAF2D8
BB75D356
3D3D5FDD
BD33A472
3D6131A9
BD9ACABC
3DA296B3
BD34FA48
3CFD60E9
BCF3E469
BD6512A9
BD814D72
BD713272
3D78F473
BD928416
BD158A76
BD828998
3DB64303
BD6B8D82
3CF39D1B
3CC10F95
BD52F09E
BC9C7369
3D7C31DF
BD234763
BD7A3982
BD3FDF7F
3D068124
BD0A936C
3DBA7C9E
3D9ED41B
BD2A3162
3BFE8251
BD9ADFB5
3D9DC400
3D474C90
3CFCD467
BD439BCC
BD0A59C0
3CCF7447
3D1CA4B1
BD2AAF36
BC055971
3C6F0AE5
3D2BCF92
BD941398
3C0D60A6
3D06C658
BD03D35F
3BC5197A
3CD08D4C
BD503537
3D714014
3D87485E
BD26FA40
BD68C587
3DAA2A0B
3C3D9CAE
BD963A19
3CE82731
3DA3FCCA
BBB9B23E
3DAAD0C4
3DB0F8C6
BB6496EE
3B9F2778
3C9C065B
BD0B8173
3DB862B2
BCE6B830
3D236E2F
BB8F6CF0
BAE2E2B9
BD82C344
BD989507
BC49363F
3D0679CC
3DA8A82A
BDA69058
BD0D76AB
3D2073DE
3CF12A0F
3DBC169C
BC1ABB02
BD35115A
3DAB6A62
3D0637BD
3D2019B1
BD80C522
3D959EE9
BDA7DF5D
3CD2A62B
3D4B9021
BD894A2C
BD4F7CAA
BD46D2ED
BD3B3B75
BD64AF0C
3D0A6CA0
3D60C6B5
3CCCF28C
BCEB5F5F
BD75B0BC
BD94F590
BCF49ADD
3D0EB463
3C2A1D75
BDA28A1E
3D9FCF3E
3C0FFB8B
BC3D48CB
3B562BF1
BD6EAC86
BB04D76B
3C4A9260
BD1421C0
3C56A162
BCCB6E93
BCBFC654
BD51BE6E
BD816378
BCBE61D0
BCD63ED1
3B9B1748
3D1E6ABA
3D22A5E8
3DB11D7A
BD1A4ACF
3CDDF224
3D3E6927
3ADCDB38
BDA73797
BCA43351
3DA78D93
3CDFA872
3D88EAC0
BCC89093
BD9E18F0
3D3311A5
3CB86B16
BD09A77E
3CF05426
BD682F94
3CB549F9
BC21016D
3D04FA05
BDB668C2
3CBDA72A
3D97FAE3
BD671EF3
BC2F9EBF
3C0E8640
3DA7229F
3C2D2136
BDAD759F
BDAB68CF
3CDCB146
3D44AD79
BDB1F1D0
3CA5D074
3D4F1D3F
BCE4F766
BD80BCBE
3D12135E
BBDD4845
BD155F78
3CC9FF93
3B06AD2E
3B20E411
BD0201CD
3D7B6ED6
BD9C0874
3D88893B
3D42DADC
BC814941
3D87DDCA
BCA5DF22
BDA28FE2
3D29EA14
3C972474
BB34F1E5
BD34F723
3D807703
3DAEAA6D
BCB3C600
BDB10907
3B6A8DA8
3D442203
BD466905
3DA012E0
BC0D477C
BC9C4977
BDA92CCF
3BC09C3D
BD6C8712
3D631D71
3CC666ED
3C54BAD8
3D558106
BD8A1E82
BC00B242
BC947CFA
BDA9CA9F
3D4D4025
3DAC1440
3DA5F06F
BC97BB73
3DA78184
BD9DACEF
BD5CAE21
BDA37DE9
BCA1CEF2
3BC50050
BDB09396
BDB62739
3D06FEF8
BBAF9A8D
BBAF2D80
BD8E019B
BD175D14
BDA9ECB3
BC8C5005
BD9BE985
3D8F81E9
3DADCEC0
3D1B4246
BDB7A5F4
3D91C21A
BD8962D0
3DB66730
BD8C17EC
BD662DC7
3C902364
BDB01648
BCDAD107
BC010625
BDAC6DE7
3D7ADE22
3B201ABD
3D95FB2F
3CD55608
3D18AC9F
BD816E7A
BD848494
BC57774B
3D7AD18D
3D6D0D4A
BCA27D03
BDB820A3
BD5D5D3E
BD984231
3D5E2EF5
3D481909
BDA6362A
3D3E0DED
BCB8BAC7
3BF32BDC
BDB5BDD7
BD0E0115
BCAC4F7F
3D84A490
BD23B8A2
BD3686A5
BD70F495
BD07075B
3D507B78
3DA6FE72
BC96377A
BD690DE1
3D952A84
3D58090B
BDBB4E55
3D727AA7
3D2EA0FD
3C69680E
3D91569F
BB0D9F90
BC33FA6E
3D144780
BD5333B9
3D8C204F
3C32031D
BCBB6CBE
3CA25311
BDA13DB8
BD7A7DAA
BD1F87F0
3D8BA7B9
BD8C7219
BD56CA47
BC3F6A0E
3D8CDC87
3DAFA616
3D2FB4C4
3D8066C3
BC9C10D8
3C799807
3DAD2913
3D59D239
3D4FB00C
3D6ACC92
3CBF401C
3D9BF834
3D8C4695
BD1ABF34
3D9AE792
3B61A3F4
BD17DAE8
3C629F9D
BD99EB64
BD71AD21
3CFAC1D3
3CE327EE
3CBB5E0F
BD5B62C7
BD14A0A1
3C9EB639
3B6EAE9F
BDBC475E
BA8B1141
BD89691A
3D297072
3CF1E29B
BD9A7F3D
BD9396D1
3D51C5C5
3DA8EDE5
BD6BB55B
3CEB313C
3D07F562
3CEE04C0
3C289FC7
BC7B224B
BCDEA034
BD3CFB33
3DBA48B6
B9A41A26
3C7EBD0A
BDB75C8E
3C77CAA7
BD40F239
3DA0474E
BDBDE82D
BD9D249E
BD82352F
BDB8800F
BC81ADEB
3CA57C91
3C054478
3D381E8A
3D8A86D7
3DBCD78C
BD9053A0
3D529564
BD2AEF2C
3D3ED203
BD9A0AD9
3CA85CAB
BDB66CF4
3C87B13A
3C0AF3E4
3B7ECDD1
BC7B1184
BD842A67
3CECB31C
BD4B05B8
BC8A808D
3D881C2E
BD28A82A
3C5948DC
BD9F2D3C
BD82E233
BB7C0D2C
BB9B0681
3DA1626B
BCF5DBBA
3D932618
BD970479
3D97E996
BCFFF36B
3B9D1F60
BCCCE3DE
3DB5B0BC
3BFF4BA5
BBE34FC6
3DA9DC72
3DA07E5A
3DB230BA
BDBA6CE3
3D5B738E
3DAE9BBF
BD1D8E86
3DB33227
BDB15F89
BD78A19D
3D013661
3D4EDE55
BD2075F7
3DA34E33
BD700FFE
BD9AE3E7
BCD651B1
3DB28416
BD57507F
BD637692
BC5B2703
3D5DBDB6
3C1780BB
3CF68DFC
3DBE14BE
3B3D449A
BD6D0C3D
3D96B3BC
3D6D3B6D
3CAE87D3
BCB17050
3D5CB146
3D71FBC6
3B73775C
BD56DC1A
BD628AA4
BDBC10D8
BDB723EE
3D07EBF2
3CF38C54
BDB39C95
3D84F7EC
BD7AEEE9
3D666CB1
BCDE8F6D
3DA20D56
3D6C1E36
BD31172F
BCCFACE6
3B288F00
3B02E01A
3CC79B35
3CCA148C
BDB5C28F
BCA8CDEA
3D8738A4
BD8BF7F0
3BA8198F
BD874C90
3DB78705
3DA0CC79
3CD887EC
BD031DF7
3DBC6F37
3DA63BEF
3BF47B67
BDA699C8
3D28522F
BC03C6C9
BC6353F8
3D9D7F52
3CB27CBF
BDA888B5
3D21B7E1
BD27A0F9
BD8BA9D2
3DBE18F0
BD6ACFB7
3D8E25C8
BD18537E
3CFDF3B6
BCD0F840
3D8DAF4B
3D01A36E
BB85A922
BCE8D973
BD6A0BA2
3BBF9831
BCF1800A
BD9394B8
BD832A06
BDAE7B3E
3D9632C2
3DA6F694
BD688ACE
3D834331
3D7D6627
3D6D7B63
BD1AA609
BD40713F
3D812AD8
3C013CAC
3DB28AE7
BCF763E5
BD344E51
3D3AA8A8
3CF8E7DE
3C877250
3D46759B
BCADEEBB
BDB66517
3D56A162
3D836C16
3C65A35D
BD0626F6
3B0D3AE7
3DA393EE
3BBBCB1D
3C3291B8
3CE43244
BB9F16B1
BBF50A03
3C97DD01
3D2D3C79
3D558A76
BD430C24
3DAB2FA9
BD8E9FF1
3D8C7FBB
BD9EF6B6
BC32FA94
3D793682
3B92F6E8
3CEC93A7
BCE2AC32
3DB30835
3DB84125
3D375537
3C9D81F1
BD096AAD
BD4117F8
BD202D9D
BC458EEB
BD203E64
BC510F52
BD6D1F1D
3D3B3D8E
BBB3C3E7
BD188A05
BC321C47
3C6ABFFD
3DAF08CC
3D0F3776
BD1321E6
3D9190D1
BC18F1D4
3DAF4F94
3C5CA8E3
3CF0D62C
BB2C6CDB
BD9480A6
BD175E20
3D1BC44C
BD96A7AD
BD3F3CF7
BDB9DCB5
3D489E34
3D143F1C
BCCFCA43
BD9A13C2
BD642D06
3D32A27F
BD3EA1C7
3D8407CC
3DB12557
BAE7BC3C
BD0866A1
3D147E07
BD8728E9
BD887DB3
3CD959A3
BD8F4517
3CBC89F4
3DB03A75
BD23A084
3D970479
3CFCF3DC
3D706C44
BCE412CF
3DBD81F1
3D718762
3DBD944B
BD186FCE
BD6965F5
BCF7036D
3D4829D0
BB5B0575
BB71E4B4
3DAD60A6
BD7F4BA5
BD94A665
3D2A9931
3C9CC31A
BD6FDA83
3DB5C28F
3D92E276
3CBFF690
3D10E022
3D175F2D
3D9C2B95
BD19A416
BD015A08
BCB3482C
3D14AE43
BDB30729
BCCFD2A6
3D71CEAF
BD423854
3D34A87E
3C88BB90
3D445FE1
BD836D22
3D8610F1
BDB490E6
3D3687B1
3CEE88DF
BC1029AE
3C2E70C1
3BD288CE
3D7DE508
3D4F4949
3DA99E95
3CF3D5BB
BD691969
BD358C09
BD5DE8B4
3D383276
BDB4CF4A
3D89A911
3CA81345
3DBD1915
BC803CD1
BD11B0CD
3D24DF48
BC38BEF9
3DBC193B
BD207810
3AB71B8B
BDB8FBCA
BB2F709B
3CF0AE53
3D2D905C
BD931DB4
3CF75105
BD34666F
BC4204F3
BD26FE72
BDB8F3ED
BD91A438
3A95F245
3D6F1349
BCC562E1
BDB5A8DF
3CFD30AD
3D63A3A9
3C9554FC
BD9C0768
3CDD2F1B
3CD3825E
BCAF0175
3D1C8861
BD8CDE1A
BD91ED9E
BB9C779A
3DB67EC8
3CF86A0A
3D6A1A50
3D8F75DA
3C7EA3DF
BCCDA09D
3CB671AC
3D9DEDF2
3D55831F
BD489A02
BC3E596D
BD3B5F1C
BD73FFAC
BD406078
BD805575
3D4E25C8
3D9CB70B
3CF1FFF8
3D794424
3D512557
3D9EE243
BC07C201
3A4C35CE
3BE453D2
BD871DE7
3C615CA7
3D320C8D
3D41615F
3DB5EB74
3D3AB325
BD586DB5
BC1845DD
3C5A4053
3D8B5AA7
3D550B95
3D1388A9
3D762952
BC965908
BD07C632
3D0E7BC4
3D1248D8
3D820E63
BB70C77E
3B3AD7D8
3B880D80
3D951C5C
3D02BD7F
BD3B9171
BD9404EA
3CEA3593
BA634763
3DAD6D3B
BD00E7BC
3C9BF9C6
BBF893FB
BD1083DC
3D40A5AD
BD4E10CF
3CC32442
3B05B185
3D9E2153
3D7E39F7
3DA589AD
BB232F45
BD5592DA
BCEB1811
3D25B856
3D62E0A0
BD5FB613
BD96A726
3DB58213
BB6874C9
3D27AB75
BDA13B9F
3CC4E50C
3C70068E
3D902364
BD31550D
3C4111AE
3C36D43D
3B8E3EF3
BC9B584B
3D2B55EF
BD3240FB
BCA7AE9B
BD98433D
3C9B4FE8
BC3C382A
BD972FFD
3C852503
3D8E2F38
BD1D4E90
3CB62846
BD9CEBFF
BAF81E8A
BDB7D06C
BD55D80E
3D7776C5
3C579075
3DBABF34
BDB14F48
BD7D7C2D
3C77A0B6
BD96D2AA
BC0A8F3B
3D1A9329
3C82363B
BD672431
3DB0984E
3DB0A02C
BC462A1B
3D786C22
3CCA5DF2
3DAEA423
3D8FBEBA
3DBBE015
BD1BFCEB
BB87CA64
BD271583
3C81797D
3AA393EE
BD37FF15
BD8F398F
BDB6134D
BDAB86B1
3DA47B24
B93ED741
3DB79FA9
BD5680E0
BC751698
3C80713F
BD32FEC5
BD1069A5
3D8EFE50
3C399913
3DA9AED5
3B5AC259
3D417CA2
3C68101F
3C9D798E
BDA5ED4A
3D15970B
3CC06E1A
3C8010C7
BDACEF67
BDB7DC7B
3D8B72C5
3D1EB745
3CC5FBF8
3D94BE83
BCE1AA3F
3BBFA094
BD6C9082
3C1CCB7D
3D82AB26
BD302C4D
BD37EE4E
BD9B0BBF
3DA38866
BBFA0514
3C0D5C74
BCAC7970
3D49ABB0
BB23F898
BBD8F4F9
3D47DF5D
BC98FC50
BD74F50A
3D6E2435
3B7CE747
BC1070FC
3CE26916
BD1F3733
3D4DB489
BD757929
3D975FB3
BAD130E0
BC797AAB
BCA4BBA1
BDAC55C9
3D7D3E4F
3D5DE9C0
BCBC4F3C
3AF5C28F
3D110907
BD446B6A
3CA25311
BD31E18F
BD1BD838
BD36A61A
3D9098D4
3DAF0175
BD89A4DF
BD9125DD
BDA1AD64
BB0D3AE7
3DA7778E
BC38A5CE
BD4FC82A
BDBC6089
3D967F4E
3DBDA72A
3D49A88B
BDA61F9F
3DA25B75
3D1757D6
BD8D759F
BD371FBC
BAD306A3
BB3A6267
394F9E38
3C89A88B
3CC51117
BDAA5721
3DBD9EC7
BD732AD0
BCD6605F
BA3B6ED6
3CC8BEB6
3DB3A711
3C88D2A2
3DA4C48B
BD1DCD70
3BCDD93C
BD207A29
3D52ED78
3D21DC94
BD313598
BD61DA7B
BD0957CD
3D0EAD0C
BC822BBF
3C9B60AF
3CE1DA7B
3B795D4F
BC1A73B4
BDAEDE55
BD395704
3D518091
3CA62889
3C0D8A98
3D325A25
3BFFC979
BD379852
3D820360
3CC0CE92
3BBE2718
3DB5B036
BD9E529C
BD4BF7F0
3D9A2B5A
3DB96AF0
3DBB46FE
BBABA387
3DB334C6
3D981E8A
BDAF11B6
BB82D7B6
BCEA1405
BD8CBC06
BCE0AC7E
BCB8BEF9
BC5A9C99
3DBD5A18
3D8A1D75
BCA01ABD
BD153CDE
BDB41744
BD39BAA1
BC183D79
3D6F6C6A
3C3E596D
BD8ECD08
3DB44780
3D8205FF
3CF531DB
3A24E37A
3CB07F24
BD2F9A8D
3C81FFB5
3D300CD8
3D3D45A6
3C3228DD
BD8F648C
3D5DA6A4
BB61F7D7
3D92A7BD
BD1629D8
3D878855
BBC9C0A9
3D52BE49
3DB8C198
3D14BBE4
3D0F92B0
3CDE0B4E
BC5ED6BB
3DAD35A8
BC84FD2A
3D31800A
3D5CBCCF
3D43EFAE
BBA27F1B
3D8562E1
3CE4A59C
3C92FF4C
BD2DCE3A
3DB817B9
3DB33D29
3D978898
3D876534
BCDE9186
3D260E52
BD8A3726
3B19AE92
BDAEF4E0
3D03FF69
BD49C1B5
BCE80BED
BD356217
BC3F9C63
BD90D62C
3DA0A4A0
BC6EFA1E
3D9110E4
3D8C60CC
3D8ED45F
BD126D8B
BCA1D96F
BDB269E0
3D38AC19
3D6046C7
3DA868BA
BD4BAF96
BD5EABBD
3D5BDC6A
3D9D5022
3D9CC7D2
3CBECAAC
3B95E9E2
BBA91D9B
3DB4F590
BDB393AB
3D334D6A
BDB1537A
3D066D37
BD51697F
BD71A08C
BCF3519C
3D818A44
BD927AA7
BD5F6988
BC82CD3A
BD6A411C
3D512125
BC19D884
BBD740C4
BD1C11E4
3DAB495A
BCD6B010
3D43FD50
BC84FB12
3D83E7D1
3D7E76C9
BC263B69
BDB8C543
3D26A22B
BBA400FC
BD638434
BAD0EDC4
3D8E9681
BD96C93A
3D176CCE
3D45069A
BD4C47A1
3B0CF7CB
3CE7A0F9
BD925892
3D8774EF
3D9584B2
3C3DDB98
BD94F50A
3D3F572E
BD2974A3
BD915AD1
BD7DDFCA
BD8BB3C8
BD4A2CAA
BC09CA19
3C86C871
3D0FD4BF
3AB47C74
BCEC3548
3B9A3D2E
BA4E4EAD
BD988D2A
BD7BF1E9
3DA13900
BD692F6F
BD884DFD
BDADFBD7
BDB7BE98
BC032767
BC6F5665
BB2DDDF4
BDB845DD
BDAE8FB0
BDB5F139
BD98AA00
BC416590
BCE29B6B
3D0678C0
3CFD1351
BDAED02D
BD271CDA
BC822DD8
BC397785
3C9424E6
3DAA8199
3DA3ED0F
BD741BFC
BB378034
BD497529
3C54B6A6
BCEB228E
BA8BB906
BC445458
BCAE07E6
3D6A0EC7
3DB4ED2D
3D19DCB5
3D9BE015
3D1F58C1
3DBDADFB
BD8055FC
BD80B780
3D45692B
3D5A597D
BC415098
BD76F199
3D9F2D3C
BCCBA0E8
BDB4D270
3DB4BE83
3D5D712A
BD3B4F61
BCF71002
BBC02F30
3CB58AFC
BD8A17B1
BD27A95D
3D0C1765
BD167232
3C869403
BD2353F8
BD36A726
3DAEBA28
3D5DFDAC
BC882CF5
3D076295
3CD7DE0D
3DA89870
3DAAFB3B
3C982ECB
3D9CB5FE
3D0DC444
3DB1A6D7
3DAC7DA2
BD3FE197
BD374257
BDAE5D5B
BDB25AAB
BD011A11
3D4AB1D5
3BE1CDE6
BDB76EE7
BB2D57BC
3D3D21FF
BCE8D10F
BD8B1E5C
3CA48D7E
3D628CBD
BD9C4546
3D5CBBC3
BD60CF18
3DA42A67
3DA469D7
BD9C0CA6
BCA8F3AA
3D8B723F
3DA21427
3C6F3908
3DB42678
BDB94C88
BD8137F4
3D49E450
3D935009
BDA68662
BDA22036
BD0E171A
3D4EBCC7
BDBD36F8
BD702603
BD0C1CA4
BC1FA54C
BD8FAC60
BBCBAF96
BDBA62ED
3DA44285
BDAAAE29
3D505AF7
BC94E3BD
3D385F8D
BDB6C93A
3C40DF59
3D8E9574
3D9A6480
BD359BC3
BD6B2BFE
BD26B2F2
3D663C75
BC1014B6
3BA76102
BD00D90E
BD720429
BD9EFBF4
3D2D97B3
3CF5946C
3D946FDF
BD59A73B
BD38305E
BCC60675
BCA03A32
BD89D734
3D90A4E3
BD2EEB70
BD6685DB
BB864884
BD2D655E
BD6A1512
3D83979A
3DAA7265
3D726BF8
3DA62FE0
BC7A2AD4
BDB03105
BDA574B4
3D39335D
3D6070B9
BCD4DA4D
3D1AD320
BD0215BA
3C33C819
3D90A1BE
3C68A71E
3D96F3B2
BD751266
BD38B695
BDB15D70
BDB6A1E8
BD7EE4E2
BD3E3F36
3D85FC7E
3CA26E54
3D20125A
BD4CCCCD
BC61B4BB
3DBDD54E
BD55A7D2
BDB14FCE
3DAFF21B
3D814489
BD9E5109
BDB80ED0
BDB1465F
BD884838
BCB28D86
BCF8769F
BD86809D
3DBA1D32
3BBBDBE4
BDA44AE8
BDAB063E
BC60B0AF
3D8D56B0
3C1E44FA
BC985AD5
3D5A21EA
BD976146
3D708CC5
3C09A459
BDB933E3
BD122FAD
3DAF405F
BCAF05A7
3C27AC82
3D1E8922
BD8073DE
3DBA322B
BD010731
3D6541D9
3CBB8801
BD822EE4
3D80F909
BDB7A67A
BDA7B6FE
3DADB1EA
BD76965F
BD6E7F6F
BCA08180
BD4C2614
3DB8FDE3
BB90FF97
BC007FED
3C86BBDC
BB67DDCA
3D8AC4B5
BD26FF7E
39734507
3D4A137F
BD996B76
3D7C1CE7
BD88C9B8
3D987486
3C958FB4
BD0AD363
BD76C376
BD8F062D
BCB7FBF0
3D026CC2
BDBBBBE8
BD95158C
BDA6AB9B
BDA4EA4B
BA9C7FFE
BCA4095F
BD912663
BD349CF5
3D11E647
3DB7B0F7
3D8E5471
BD9100A4
BD873605
BD2073DE
BD828F5C
3C2EFB2B
BDAD6F54
BD000432
BCFFF584
BBD16335
3D1BED31
BC984E40
BC8A58B4
BD2BFCA8
BCB1C001
3CC6EB0B
BDB19158
3DB82774
3BB588E3
BD7B3B75
3C0CB07D
BD6328FA
3D1436B9
3D4B5DCC
3D6E43AA
BDAF2BED
BD0080FA
3D5054AC
BD903F2D
BD8A686E
BD3825E1
BCECF851
BBFE6927
3BEB5F5F
BBD2F5DC
BD43AC93
3D838434
BC80ECFA
3D7A7115
3D2F709B
3D70BF1A
3DAF7C24
3DBD5A18
3BBE058A
BDA410B6
BCEBDF4C
3DA9A1BA
BCDA63FA
BD845910
3DA373F3
3B3A0E84
BC2936C6
BD801472
BD0C857F
3DB9B025
BD3508F6
BCBF3387
BD64766C
BC99F3C7
BD61CEF2
3D253EB4
BDA087CA
BD832E38
BDB94318
BDA0192A
3D72C1F4
BDAE8D97
3C80C309
3A2D8A11
3BB7995F
3D2BC947
BDAC6823
3D919F80
BDB61134
BDAC918E
3D8B5E53
BC3AA583
BBDDF86E
BD337FBF
3DAA53FC
3D4B630B
BCCDD2F2
BDAF50A0
BD42528B
BD996207
3CDE58E6
BD3B1077
3D2FE500
3D380CB7
3CB3B539
3DAE0E30
3D4CCDD9
BC5712A1
BCFED634
BDA1FF2E
3DB5970B
BD99AD86
3DB14E3C
3D99F01C
3D0A4B12
3BFCEFAA
3D973190
3D9BA3CA
3D562AE5
BDA21F2A
3DB6ECE1
3D956862
BBEEC7C9
BD558538
BC21E81D
3D928177
BCFF2A17
3D10B30B
3D144AA5
BD9A5333
BD12F5DC
BB84DFCE
BD92C0E8
BC8FADF3
BD9DD3BB
3D549C6F
BD1B078E
BCBD61F6
BCD7C0B1
BD47E282
BD132F88
3D5FAB97
3D14E7EF
3C46D1E1
3CE5668C
3D9A604E
BD4316A0
3D4CDA6E
3BFE3F36
BD8E4218
3DB122B8
BC23CA75
3D68F6CF
BAAA21A7
3D82FAD7
BDB8298D
BB613F4B
BD774257
BDB73FB8
BD4B3D4B
3D1B36BD
3CF3CD57
3D6C8605
3C5AE3E7
3D9D94D1
BD1714BA
3CE805A3
3D25119D
3D8339C1
BD714120
BD78C005
3D4430B1
BD229952
3D9FAB11
3D53FC01
BC9FB3FA
BD4E379B
3D8663C7
3DA579F2
BD2496EE
BD9314CB
3D81669D
BCB98202
BD88E68E
3C9F5BE6
3D2657B8
3CE6BE7B
BD806530
3B04A516
BCAF5771
BDA0BA1F
3DB8B9BB
BAC197E5
3D93037D
3DB58C09
3D29F59D
BD97E026
3CEFFE2A
BDAAFEE7
3B3178B3
BDA0F6F1
3D8B7B29
3CDF30E8
BD0A9479
BD6B2D0A
3DADC098
BD33CB3E
3D9BD0E1
3D439368
BD3FB04F
3C7BD6A6
BD6CADDE
BD3C9DE0
3D81E14C
BDB03537
3D22CDC0
3D164841
BDB7FF9B
3D3F6C27
3D4692F7
BD35A74C
3C596638
3D4BEC68
BCFB1184
BCCF80DC
3D39591D
3D9D3459
3CDA1CAC
3D5842B7
BCEED02D
3D144029
3D8C100E
BD04A409
BCD7FF9B
BCA37CDD
BD0BC8C1
3C999136
3CD3FE19
3DBBF37C
3C4319C6
BD11B4FE
3A68C8AC
BD090603
3CC1F85D
BC9F8A09
BD96AD71
BD071F79
3B9A0AD9
BAF6AD71
BD87D242
BCFA8D65
3DB8E087
3CDD5F57
3C54738A
BD174E66
BCBFD0D0
3BA5A46A
BC822FF1
3DB03212
BCECA687
3DB6C15D
BCEB52CA
3DA9AC36
3BC4D65E
BD689225
BBDD590C
3DA22BBF
BCF85D74
BC1641F6
BC585597
BD83A3A9
BD3AE46D
3DA837F8
3D0EA290
3CEEAE9F
3C134699
BDB0BD01
BDB7342F
3D9781C7
3D2D1288
3DAF1BAC
3D5ED070
3D3C31DF
3D9E707E
BD83E100
BB5972CD
3D3496AB
3D5944AA
BD304FF4
3CEF6B5D
BD1DA598
3D2327EE
BD084620
3D4B7910
3CB24852
3A76F08D
BD5F2ECF
3D7D07C8
BD20242D
BC90ECB7
BDB147F1
3D18B2EA
BD5FE21E
3DB0EED0
BD736EF8
3C798740
BD10795F
BBACE24C
3DA0956C
BD7C4B0A
3CCBDBA1
3D7D7F52
3DB1C433
BCFD6B66
BD9B9842
BD240C84
3D818698
3DAC48AE
3DAFF6D3
BD842203
BAE1D649
BCEA9E6F
3CAFD545
BD106035
3D1EACC9
3C23F035
3D92085B
3DBCF13D
3BE57109
3DAC3A86
BB694EE4
BD96EDEE
BCAF9011
3BE23290
3DBB8562
3D08387E
BD761240
BA8CE704
BDB0D7BF
3DA1804E
BD98BDEC
3DA56580
BBC77DD8
3D0B1898
3B90470B
3DB63E4B
BD192429
3D14C986
BBD4AA11
3BE935B9
BDBE1651
39EE8D11
BDB6F4BF
BCDC0FCB
BD8CBC06
3D32E169
BD7FDB4D
BDB80CB7
3BDB8349
3D55DA27
3C979E17
3D82BF98
BDA14CEC
3D48ACE2
BDBD8516
BCF14552
BD4E38A8
BDB12D34
3C1628CC
3C9A6F82
3DB2F662
3D254717
BD7C3A43
BD782B1F
BDBB97BB
3D936DEC
3D9DF00B
3D7EF7C2
BD2A6C1A
BD9A0275
BD81EFFA
3DA38002
3AC38F36
3D817A03
BD4B2639
BD9D4307
BC826245
BD2A593A
BDA67E84
BD94C122
3C522C88
BDBAC8A3
3DAB4B73
BC91CB04
3B9D1F60
BDAA697B
3CC30B18
BD9B6AA5
BD186552
BDAAF923
BC85CAB0
3D4F6599
3D8F0A5F
BD100B46
BD89F948
3C8A84BE
BCC3E100
3D378141
3D87496B
3D886C66
BCD323FF
3BA4095F
BD860A20
BD8BE8BC
3DA95209
3D8A326E
BD7BF1E9
3D26CB10
3DA4CF8D
BD522FAD
3D8CD962
BD3A11A9
3C849CB2
BDA2F2FA
BDAAB9B2
3D196638
3C44EB57
BD5D1B2E
3CB738E7
3C4729F6
3DBC2EBA
BD7C2EBA
BD57D178
3D5B7282
BC786E3B
BD89D389
3D218373
BC7C19C1
3C804535
3DA327EE
BC9D7BA6
BA3B2BBB
BCCC5FC0
BDA9D7BA
BDA9802C
3D48765C
BD66E760
3C58A116
BB3FD2E9
BB77878B
3DB1ED9E
BD9502AC
3D209FE8
3D90B6B7
BD8B441C
BCC97FA6
BD9CDDD7
3C53A1D3
3D8C1A05
B985B185
BD869596
BD9948DC
BD868230
3C6D6BA9
BD016052
BD5146E5
3C89B739
3AD2E515
3D41376D
3D9827FA
BCA77A2D
3C3FB58D
3C52E0E3
3DB819D2
BBF88334
3D47D912
BD9660E5
BD807A29
3D5D6495
BC8791C5
BD333765
3D76F8F0
BC38561D
3D91E860
3D1F6662
3B53176A
3C8FDC16
3D0FF759
3CA96702
BDBADC0A
BC30C88A
3DAE0DAA
3D3B80AA
BCD49731
3DAEBE59
3C8999DD
BC8B7A1C
3CAF35E3
BD8477FF
3D713BE2
BC427E95
BD0BCDFF
BD216F87
3BB8F14E
BCF8D930
3D74506A
BC5A6A44
3D49E881
BD3A6480
3DA2DCF4
3DBC4D23
BDB4751D
BDA4DB16
3CB45283
3D80FE48
3D1CCEA3
BD862C34
BDB2745C
3CF69015
BDAB3700
BC3D09E1
39745176
3C58E864
BD3BD9CB
BDA92FF5
3D888B54
3B060568
3D097A68
BC6C2481
BD9EC67A
3D993682
BCF0520D
3C6C5F39
3D8B606B
3D19934F
3D2F89C6
BD6EDBB6
3B796E16
BD8A6C1A
BDB6494D
BCBBDBE4
3D89C5E7
BC8F9D2C
BDACB535
BBCE13F5
3C2A7158
3D48B86B
3CACF0FA
BD72D2BB
3D591687
3CD72FFD
BD40ECFA
3CDCD0BB
3C939863
3D35F80A
3D95FF61
3D999B2C
BD91B047
BCDBA6F0
BB4C78EA
3BE88DF3
3D5934F0
3D4F80DC
BDAD5065
3CAE1694
BD5AA609
3D7FFAC2
3CA16E7A
3CFE0EFA
3CAEA748
3B662995
BD192104
BD744B2B
3D432EBE
3D99C066
3DBC8191
BD4AC4B5
BC760179
3BEBEDFA
3D596A6A
BCF00043
3D988334
3CE4D5D8
3DADF373
3AD95140
3D300FFE
BDBD13D7
3C330729
BC1DC726
3CEDE332
3DAD4A1B
3D2410B6
BB5F266C
BD8E8F2A
BDA7D242
3CEE3D60
BDBDEA46
3D693F29
BB900C52
BD51C2A0
3D8B74DE
BC398C7E
BC0EB895
3BF88B97
3D9868FD
BD93C1CE
BD87839D
3D050269
BD158B82
BDB9DB23
3D80535D
3D8EBD4D
3C954003
3D8C81D4
3D4BBF51
BD3F76A3
BD502470
BD6A27F2
BDB1F70E
BCDA09CC
BCF296F6
BCAEA316
BD3D48CB
BDA4DEC2
3C3662FE
BB779852
3D808206
BCE42E12
3D9B456B
3D06FBD2
3C6147AE
BBC23748
3D882279
3D72F76E
3C486057
BD5DEACD
BD3296F6
3C3C903F
3D22706D
3DB74363
BD5C896E
3D9546D4
3D74F616
3D6DAEC5
BCF6F2A6
3CD3C148
BDA84381
BDB1D799
BDAF6838
3D80FB22
BD81511E
3D86F2E9
BBC9F2FE
3D9EA78B
3D2E6645
3CCB2FA9
BD3D1BB5
3D7D805E
3DA2BF98
3D6B54E3
BD47E38F
BC58CB08
3DBC432D
BD9A415F
3D82528B
BD635611
3D535A86
BD92B55F
BD347736
3DB4D163
BD99AB6D
BCBB44E5
BBC83EC9
BAF01FB8
BC2CA362
3DB4E1A4
3D7136A4
3C6AF683
3D76D43D
BAFA9C13
BDAED56B
3D8E1587
BCADF71F
BD5590C1
BBA515CF
BD7952D2
3DA22FF1
BD53AF75
BD87EE0B
BCC00FBB
3D900581
BD99157B
3D4841EE
B9388CA4
3D0BE61D
BD6AA088
3D77BE12
3D16CB53
BD2F9A8D
BD8E0EB6
3DA0346E
BD805DD9
3D05B079
BDA9D9D3
3B2DEEBB
BCB6A401
BDAFF002
3DB017DB
BCC4E50C
BC17D49D
BD3FC86D
BDA4EF03
3DB54C12
3BC0AD04
3B2A9718
3C1A133C
3D4A4F44
3C01387A
3D73A57F
3D8A88F0
BCE17E35
3D91E53B
BD2AA6D2
BDA39581
BDAFD007
3D87A9E3
3CB4D489
BCC1DD1A
BD2D373B
BC98D478
3D83AB86
3D4E7BC4
3D1CF56F
BD7B00BD
BD6278D1
3D755150
BCE77920
3D147065
3D933440
3C189DF1
3D3253DA
3C749060
3D31C001
3CDCB578
3D1E03F7
B9095D0B
BC1157AC
BD718549
3D704CCF
BCFF4129
3D835F81
3DA2107B
3C4308FF
BD9CC187
3D6260B3
3CD0B956
BD48DC12
3D1800A8
3DA0C7C1
3CD933E3
3CB55CD9
BDAC01E7
BC083772
3D4EB895
BD66CE36
3D4D690A
BC348909
BD5E43EE
3B921CCE
3D1BE2B5
BD675254
BDB612C7
BDA97636
3D934480
BC9D3672
3AC58687
3BBC2FC7
BD582880
BD13BC0A
BD7E846A
3D312A0F
3D65082D
3DACD63D
3D5886E0
BD5CCB7D
BD678F26
BB68101F
3D7F10ED
3CD04A30
BD123811
B9D1B717
BD5D9D34
BD9A53B9
BBCEEE0F
BC5E614A
3DBBD61F
3D254824
BD80E172
3C3CA106
BDA14A4D
3D66A876
3D87B5F2
3D9716D3
BD5A8BD2
BD00BCBE
BD7C2EBA
BC174E66
BD5E00D2
BD87A205
3C7EEB2D
BD63571D
3D1B5A64
3D0CCEE6
BCE4A16A
BD55475A
BCB3D07D
BC0472C1
BCBE63E9
3D3546D4
3D2BDE40
BD5F2CB6
BD95ED07
BDB0574B
BD0CE0B9
BD61AD64
BD4E368F
BD973F31
3DB784EC
3DBB00BD
3D0A936C
BD8ECB75
3C59EC70
BB288F00
BD86A65D
BDB4A0A1
BCB70260
BCBF22C0
BD06AF47
3C1420B4
BD58BB4D
3CBCEE9E
3D25E248
3DA497FA
BD3980F5
BDB66E87
BDB40703
BD6875D5
BD25CA2A
BDB909F2
3D49D5A2
BD20DDC6
BD98548B
BD37574F
BCE62BAE
3CDB63D4
BD8963DC
BBE5A35D
BD754089
BD039368
3CFD651B
3D388334
BDB0153C
3D9D9664
3BE95747
3D8F227D
3DA06FAC
BDAB46BB
3D7266BA
BB8FE261
BC924074
BCDB76B4
3D47F456
3D083127
3D336695
BDB33871
BB36D86F
3D596B76
3D08F217
BD4DDB55
BBDA0169
3DA4BC27
3C56D3B7
BD93C148
BD8982CB
BCC55433
BD18C4BD
BD97EFE1
BC9BEB18
3C90FF97
3CC38D1E
3D3DB4CC
BCACD185
3D03B3EA
3CACF0FA
3CDFDAC7
BD8A0E41
3D5CD3E1
3BD46F58
3B2222D5
BD4C49BA
3D86CC1D
3D28A937
3D29AB2A
BD372820
BCF63E4B
3C4DE1A0
3CFE3088
BD86BF87
BD704AB6
BC64EAD1
3D3D74D6
BCF620EF
BDB54FBE
BDB6DA88
BD468DB9
3C13EE5F
BD9DC9C5
BC88637C
3D43C7D6
BD80EBEE
3C8CC144
3D3164C7
3DA217D3
BD641F64
3C843E53
BD903D9B
3D9CCA71
BCA02108
BD06B485
BC350F41
3C556F33
BCC1D4B7
BD1ED4A2
BD8AC216
BD3890D6
3D6B7889
BD422FF1
BD76976C
3CC07EE1
3C93BC0A
3D371B8B
BCE429E1
BD90196E
BD54F052
BC7DF7E8
BDA80171
BD2E75FF
3DAC9D17
3D83F3E0
BB914B16
BD1E9079
BBAE2110
3C710236
BD76E3F8
3D666128
3D89D5A2
3A3F1A5D
BD8158FB
39FA15DB
3DA83D36
3C80D5E9
BB925786
3D72E7B4
BD3401C5
BCF97EDC
BD48711D
3D26F827
3D851C19
BC4B5FE5
BC98E970
BDBA26A2
3D48C719
3D748D3B
3D135009
3C973FB8
3D8394FB
3D964734
BD06C871
BC880B67
BD351DEF
3D0ED5F1
BACCDD94
3D8C4589
BDB53D64
BD50BB6F
BB59E83E
3D716C1E
3C287A07
3D209247
BD1D4413
3DACD6C3
BA3178B3
BBA55087
BD383BE6
3D9640EA
BD328D86
3DB09B74
3CF574F7
BC8CC144
3CF3CF70
BD7C6973
BD60791C
BC721F6D
3D162281
3D83BDE0
3CE0CE0C
3C53B6CC
3D5F7F8D
3CBC792D
BD9CC9EB
BCCCB3A2
3DA9F2FE
3D61101B
BD80346E
3D92D128
3CD0E779
3D098D47
3B57F0ED
3D94EEBF
3B5173FB
BDA33BDA
3CE2B27D
BD0DB9C7
BB9014B6
3D88FC0D
3D5FE436
3DB949E9
3C785D74
BD8AC109
BCDC768E
BD525DD1
BCC1DB01
3BB7A1C2
BD4F4730
3D2394FB
BBE9EE46
3B248F97
BD0316A0
BD2BF65E
3C04A948
3D037D63
BCC4EF89
3C1D4952
3D93A472
3CD19BD4
BDA59429
BD38E3AC
3D216F87
BD7B5AEA
3DA49342
BD1A1987
BD98AA00
BCA367E4
BDACB429
BCDDAAD6
BDA2FDFC
BCEB26C0
BD8FA377
BCC26BB5
3CE7CD03
BCED4802
BD63D4F1
BB389D6B
3D22A800
BCD5475A
BD6A8006
BD85F0F6
BD8E84AD
3CB31A09
3B5F15A5
BADAA0CB
3C38E087
39EAE18B
3D7AE361
BDAB33DB
3D93879C
BD371FBC
3D79A8CE
3D8F8D71
BC797AAB
3D570E6F
3D7DF2AA
3CBC1CE7
BDB45283
BD5A3D2E
BCE05682
BDB05C03
BDA085B2
3D972043
BC615012
BDBBA909
3D1CDB38
3C91BA3D
3C1E492C
BD20E411
3DA66341
3D727ED8
BB1F72F7
3DAA3055
BDB8F3ED
BDA21C8A
3C7BFC65
3D1B8024
3DB7214F
3D2132B5
3D6B313C
BD788CA4
3D91C433
3DA9081C
39EF1349
3C525248
3D42E44B
BDB00CD8
3D6B93CD
3DB71434
BBD666AA
BD851FC5
BDA1ED5B
3B524E16
BCF396D1
3D73BB84
3C41CE6C
BD89EA14
BD00DA1B
BD29CCB8
BD8B12D3
BD794FAD
3D8A6E33
3C365669
BC57FD82
BDBCC426
BCAAE4B0
3D3DAE82
BD79F666
BC7B506E
3C42A887
BD19B3D0
BC7B82C3
3DBE0829
BB848388
BDA48E04
3DAE5259
3D3B7846
3C8F3CB4
3DB7A13C
BD5714BA
3D1199BB
BD9FE21E
BCD4E2B0
3D48F96E
3D556D1A
BDA5B531
3D0CA4F4
3C9A4591
BCFD1783
3B79E386
BDBB85E8
BDAB9ECF
BCC091C1
BDB7E026
BC94EC20
BC0C868C
3D9D6840
3D1FEFBF
3B657109
3D3DEC5F
3CB7F38C
3D52E515
3CBFFAC2
3D96EEFA
BC46B485
3D9F5DFF
3D7F0889
BDAD91EF
3D9C7EF1
3C6557DE
BD165A14
BCA4E7AB
BC475C4B
3DAD36B5
3B5AC259
3D493533
BDB2A066
3D714552
3D21D96F
3D32C1F4
3D858E65
3D5FBA45
BD10FB65
3D092253
BD3A8A40
BD82BAE0
3D59CF14
BD90FA59
3B4D7492
3D582DBE
BD2FA0D7
3D831833
BCB20104
BB691C8F
B9BA1F4B
BD89906D
BD75E311
3CEC093E
BD47F23D
3C8CA81A
3D252BD4
3D231F8A
BD4E4431
BCEFC58B
3DB8BE73
3CB2D0A2
3C4EB789
BD7A1B19
BD5D29DC
BB35ED8D
BCA7ED85
3BF4ADBC
3B750A03
3CEFE2E7
BCA4723B
BD365A9B
3D96C58F
3D87A205
BC734507
BB728C7A
BD85D7CB
3D009E56
BD68BC17
3CF4CD31
BD09EBA7
3A97A67A
BDB86A0A
BD78305E
3DAC3F3E
3D3EFBF4
3D9B70EF
BD0A72EB
BCE26F61
BDB4E4C9
3D25DAF0
BDB5A5B9
3DACF95D
3D9D1138
BD5C8861
3D9CC294
3D8A8A83
3B40485A
BD138CDA
BDA3B603
BD8E9814
3D3A52AC
3DAAD4F6
3CF290AC
3D1B6F5D
3D0CFBFC
3C56ECE1
3D478FAC
BD5CD1C8
3D3BB518
BD73EDD9
3BFAB53D
BC804D98
3AB0D0EE
3D391A33
BD36B3BC
3B98A223
BC4FAEFF
3CD3B8E5
3D21A2E8
BD3E132B
3CD82BA6
3DBDB1A7
3CDBF488
BC659296
BD3456B4
3D58C9FB
BD84D6E4
3D44E1E7
BD7179C0
BBF44913
BD905A71
3DBBFE7E
BDAF51AD
BAF21709
3D61A60D
3C1B6F5D
BD858F71
3D8D2780
BD06D82C
BBFA7222
BCCB33DB
3D60F5E4
3C8F5E42
BD1F7B5B
BD861390
3D42CC2D
BD93CBC5
BD32C519
BCBF1A5D
BD0BEB5B
3CA773E2
BCFF5E85
3D99085F
3BA5D6BF
3D4C7086
BD86BB56
3D6E02A7
BCDD95DD
3D240B78
BD715B57
BD9B6ED6
BDB994E2
BD28DFBD
BD959FF5
BC5948DC
BAF1B25F
BD806B7B
BDBD1F60
3DB62A5E
BD1F138C
3D8DFDF0
3DAFB97C
BD79F01C
3D43C3A4
BD086AD3
BC2CA793
3D1BF37C
3D8E6213
BD422FF1
3BCFD08D
BC5FD695
3C5D65A1
BDA58256
BD56A26E
3CDAB9F5
BD90307F
3D7E468D
3D03E532
3D6324C8
BD829414
BD7FE6D6
3DB1AC9B
3D9C981C
3D8A0E41
3DBDFA87
3D9914F5
BD73E89B
3CFA52AC
3D209785
BB4E5F74
BCA24463
BC218BD6
3C7062D4
BCCB5782
3C3F3BEB
BD9D12CB
3D0B6523
BC995897
BC4E5711
BC560E95
BD32799A
3CC5CDD5
3D9E8145
BD3825E1
BDA6D938
3DB20968
3CF08462
3D86DB51
BC303E21
3DAE6751
BC09A027
3BDB7282
3DA34DAD
BD06F04A
3D96F08D
BC488A48
3D8BBC2C
3DA08073
BD4B167F
BD8D0EDC
3CA7264A
BC86E3B4
BD8F9E38
3D922963
3DAF3A9B
3CA70D20
BCC944ED
3D259296
3C15AF29
BC7DC593
BC90D38D
BD4C2D6B
BC9C5A3E
3C2FB3B7
BD82003B
BB2A8651
3D4DB489
3A8A265F
BD45DD90
BDB8FFFC
BD0DDE7A
3CE501E2
BC3E835E
BD365BA7
3D4DB6A2
3D9A8C58
BD911BE7
3CC8CD64
3C62B8C7
3C657109
BD436113
3DBDB8FE
BDA67514
BD8D002E
BD2BCD79
BD48A266
3DB377E2
3D9D6F97
BC039043
BD3C2CA1
3DA4180D
3C57C6FC
BCE2CBA7
3D6600B0
BD86099A
BDA747D8
3CE6A338
3DB1E7DA
3DB5F2CB
BD8EB789
BD37531E
BCE91A76
3D37D0F2
3D195AAF
BC1B6F5D
BD6A1837
3AA95853
BD11CB04
BC95464E
BD9FC7E7
3ACB295F
3C1014B6
3A7F9724
3CDA74C1
3D23571D
3D8DDA49
3DA48302
3CAD18D2
3D0E1E71
BD99A30A
3CB38716
3CCD9839
BD195571
3D7B05FB
3C777293
BDB0D6B2
BCDFA872
BCF2CD7D
BD9228DD
BDA600B0
3D71BAC3
3D96E3F8
BD900B46
BD8ADBC6
3D9EC248
3B1F0E4E
3DBD5A18
3CFBDAD7
3CA3443D
BC19D884
3D95B4EE
BD7D0BFA
3D90678C
3C06CA8A
3D805469
3C704146
BD446D83
BDB404EA
BBD0F627
3DBC169C
3CDD8F93
3D1A8AC6
3CD8D9B6
BCA7FE4C
3D79085F
BADAC259
BCAA23C0
3D764AE0
3D96F976
3C6BA27B
3D99D6F1
BD00CE92
3DB033A4
3DA92AB7
BD4CF074
BD895D0B
3D9EB181
BCDE82D8
BD715832
BA5E8F6D
BA79D2BF
BBF837B5
BD5A87A0
3BE978D5
BD88D541
3C073797
3C983D79
3C8EA5B5
BD11AEB4
BC072F34
BD5F3C71
BD0E3476
BCDE5D18
3D9EA811
BC115BDD
BB93D966
BDAF7122
3D4317AD
BCB4EDB3
BA5DC619
B88637BD
BDB1372A
BD443A21
3B6D4E4D
3DA2D730
BBEF3D3A
BD9478C8
3DB4F69D
BC810C6F
3BB6E0D2
BCB9D7FE
BCB70047
BD74D9C7
BD02480F
3D230015
3D7B05FB
3D97F280
3C5C8755
BD9BD2FA
BDA46E8F
BD995FEE
BDBC47E5
3DB845DD
BD05436C
BD97A701
BDB6F3B2
BDAF1B26
BD8CC708
BCD388A9
3D60C5A8
3B0EDE55
BD10B524
3DA2E87D
BC89246C
BB913A50
BD890A35
BD689763
3CC82BE9
3D83864D
3D7FA6DF
BDB807FF
BCFABB88
BDBD816B
3BD538AC
3CF1F14A
3D81E365
3AA2CA9B
BC361BB0
3D20DBAD
BD0588A0
3D96B767
BD22C237
3D862F5A
3C16FEB5
3CEAF252
3D6B734B
3D1F01B8
BD0E27E1
BCAC7FBB
3CD2E72E
3D2974A3
3D82699C
3D5656EF
BD404A73
3D4F27BB
BD923DD5
3CB89720
BC8FDC16
BBA8FC0D
3CE2D624
3B488A48
BD0C1227
BC9611BA
3CFE1544
3CC27A63
BD2BD5DC
BB6BFEC1
3DB3AABD
3D9A6BD7
BCA120E2
3D092BC3
BC80BED7
3CCF69CB
BD5F5AD9
BCABF983
3D0A6DAD
BDAC6717
BDB14EC2
BDBAEF70
3DA23E9F
3D1B90EB
BD982DBE
BC6C5F39
BCF17BD9
3D3F737E
BC2C215C
BCB4245F
BD728C7A
BD924AF1
BD7F0DC7
BB5DA48B
3D81AF7D
3D528177
BDA06EA0
BD48B220
3D0CCBC0
3B50DCFD
3D7911CF
3D835BD5
3CEEE526
BC238759
3D282F94
BC5EEFE5
BDB6C8B4
BC0AC5C1
BD9972CD
3D8DD830
3D03C5BD
BD8E5FFA
BD03BF72
BCC8F96E
3DB8D0CC
BC0EFBB1
BD4D90E2
BD972C52
BC48FFB9
BD2D9BE5
3D92A7BD
BD1D29DC
BCB7C782
BCE39B45
3DAA46E1
3CA98CC1
BDB7FA5D
3D015E39
BDB8E758
BCF0F7BA
3C120C07
3A6A5B53
BDA86595
BDB1E5C1
3C82D7B6
BDBA8262
BD850D6B
BD0CB07D
3A7F9724
BD6EF2C7
BD33CC4B
BD95C0FD
3CBE7D13
B9D6F545
3C905187
3D503212
BCD6F976
3D29131F
3DA20C4A
BD9CBDDC
BC5A33BE
BDAC8DE3
3D01B003
3DAD8C2A
3DA25F20
3DA64D3C
BD9AD320
BD0ED0B3
BDB77C03
BD0FBCA1
3D111BE7
3B36F9FD
3D92A0EC
3B9899BF
3DB49492
3D81ACDE
3D959CD0
BDBBD513
BD134BD7
3D39DF55
3CA9930C
3D77EF5B
3D10E454
BB144ED7
BD04CAD5
3D8A1E82
3D28DDA5
BC427E95
BD7AB863
3D94D7AE
3D527A20
BDB7585C
3C908C3F
BD078423
3D139C95
BD4FE47A
3D6CABC5
BC1D4D83
BD5D3BB0
BD3BE879
3CF69015
3DB67C28
3BBFCA86
BD0EE17A
3C4A18BD
BCCBF099
BD12F09E
3D4579F2
BD250939
3D07A398
3D65C704
3D6BA5A0
BD357604
BD9383F1
BDA9185D
3D288484
3C55B24F
BDB65F52
3D2A704C
BC9D66AE
3D7C46D8
BC32FA94
BD5F15A5
BD98C7E3
3DB7D9DC
BDB6323C
BD80BBB2
3D0535CA
3D02645E
3DBCAF2D
BC158D9B
3D24063A
3D7E1FC1
3D391C4C
3CBE2D62
3B8A8B09
BD0A44C8
3DA644D8
3D596FA8
BB1B951C
3D6D17C6
3CCAC29C
BBF68BE3
3D99BE4D
3BF64064
BD7D5348
3DB65B21
BD8174C5
BCFC2A88
BD540571
BDBB99D4
3D079E5A
BD5537A0
3D6CFB76
3D86002A
BD8DBBE0
BD59DDC2
BDB12019
BD838434
BCE748E4
3C8986FD
BDBA9004
BD99E6AC
3D24B125
3D2B649D
BCB25919
3D9BDF09
3D51C7DE
BD8096FF
3D9AB29E
BD11F81A
3A3178B3
3D619A84
3D2C0E7C
3BF2F124
BD67A0F9
BD2E2EB2
3D16BB99
BC882060
BD9BA909
3C4560C8
3D48D9F9
3D9FA765
3D18B934
BD94A904
BC7605AB
3A84406C
3D29A6F8
BD879703
3C66A338
3CBC87DB
BDB6D00B
BD94959E
3C857AFF
3D873040
3D7967CB
3DBC2EBA
3D8EF2C7
3AF12C28
BD727568
BC27DAA5
BC35BF6A
3D052503
BAEFFE2A
BD6DC4CA
BD3FBCE4
3D544BB2
3C1E2BD0
BC963993
3DAF9B13
BDBB55AC
3CB1422D
BCB4E981
BD85DBFD
3DBCC31A
BC3B0A2D
3D1018E7
3D3DC593
BD99420B
3DB9D020
3D9676EA
BCF7036D
BCDCF894
3D4DA1A9
BD33A040
3B12146A
3D85260F
3D61E0C6
BD10C5EB
BD8D5B68
BCCBAB65
BC847B24
3CFC08FA
BC3A0A52
3DAA3593
BD702603
BD9C5C57
3D2FCAC9
3D5C4DA9
BD31F256
3C7EEF5F
3BA55087
3D179D0A
3D4E746D
BC9DF762
BD605FF2
BCB67C28
3D121CCE
3CE7CF1C
BDB7DC7B
3D4D0247
BDB37B07
BC321816
BD47BEDB
BCABFFCE
3CB4549B
3DA2A993
3DAB65AA
3DBB6A1F
BB5887EC
BC75F0B3
BD4A87E4
BD9E9C88
BCF672B9
3DA71822
BDB323FF
BD5A469D
BD3FB69A
BD0473CD
3CA71583
BDA0DB27
3DAFE500
3CDFCE31
3CF064ED
3D461954
BDAB7132
3D4C197E
BD9377E2
BD1832FD
3D9410F9
3D771B8B
3DA6809D
3CF21B3B
3B8BEB5B
3D150332
3D450EFE
BC138583
BD5AAB47
3D0816F0
BD6F965B
3D8F733B
BD846280
3C5C93EA
3DA3F706
3CB7670A
BCEC892B
3DA1719F
BCDED4A2
BD0811B2
3C84CAD5
3D82B94E
BC0B1DD6
3DAA1837
39606530
3C9641F6
BD94C4CE
BD7C2331
3D55DB34
BDA070B9
BD980CB7
3D208BFC
3D760BF6
3D923359
BDBB163C
3D844391
3D582236
3D551505
3D69AD43
BCF78DD6
3D6FEC57
BD55DB34
3D2ACA79
BDB1DABE
BD475A32
BD29C66D
3CD29995
3D96512B
BDAFD75E
BD555608
3D9519BD
3D662CBA
BD5490E6
3D13F39D
3D8C83ED
BC0E4FB9
BD2FF7E0
3D8C814D
BDA0B6FA
3D653FC0
3D9BE879
3DACD078
BD1B5FA2
3D6C269A
BD9FB8B2
BD9EB745
BD21D430
BD70110A
BDA259E2
3D87DF5D
3DB5F80A
3D8FB092
3C717BD9
3BFCE747
3D5C7150
BD18F3ED
3D293D10
BC97DD01
3C1E6688
BCECE9A3
3D920E1F
BC8D2E51
3CD783E0
BD82424A
BC7F9B56
BD0B33DB
3CBEC02F
BD95D9A1
3DBD3F5B
3D76F2A6
3D7FD827
BD05A1CB
3D55A7D2
3C092253
BD2043A2
BD19A522
3C4FA26A
BD08E044
3CC3760C
BD61B4BB
3CF2CF96
3BA9B49A
3CDA708F
BD6D3E92
BCDAC259
BD9FE111
BC94C661
3DA625EA
3A893B7E
3D90A1BE
BDBC8B87
3CC42A67
BDB3AFFB
BCDA708F
BD2F1CB9
3ABD87B5
BC7B267C
3CAB29E5
BD215A8E
3D82E44B
3DAF3344
3BC154CA
BD4AB0C9
BD7EC354
BD933A04
BD496FEB
BD9908E6
BD222B39
BD305532
3BF7878B
BD94C900
3D6EAC86
3D1D7668
3D2BF445
3D9572DE
BC6F911D
BD9B2AAE
3A8DB057
BDB9CAE2
3C64712E
3CD35009
BDA82731
3C2B4741
3D75CBFF
BD7FEF39
3C5CFCC6
BBEE392E
3BDF82B2
3D093426
3D6F6B5D
BDA4E0DB
3CF31D2E
3B4A600B
3D3F52FC
3D41205C
BD49FD7A
3D880629
BCC44BF5
3D84D2B3
BDB37436
BD51D042
BD7AA68F
3D09CD3E
3D8BD6E9
BD9A4591
BD31E8E6
3D1E0E73
3D92806B
3D2276B8
BCD2439A
3D1EBE9D
BBDE2260
BD94506A
BD722D0E
3D4A47ED
BDA192A7
BD9C3CE2
BD97670A
BD9090F7
3C0969A1
3D8490A3
BD20370D
3DA66235
3D46FEF8
3DAB923A
3CB93682
3D9E2AC3
BC81F751
3D959792
3C742353
3DA6583F
3C8EDE55
3C880F99
3CFA1C26
3D570E6F
3D04AB60
BD67B1C0
3D81259A
3D0F398F
BD9B95A3
BD01A47B
3C9E0A42
3CAF6C6A
3C0A19CA
3CDA4485
BC6C204F
3CB0EC31
BB502470
BC95EE13
3DA7EBF2
3D73F855
BCDE6FF8
3D99FB1E
BADB6A1F
3D2699C8
BBADFF82
3C87A28C
BD3D36F8
3D1CFCC6
BD56451C
3D6E2974
3D5B1A6D
3D117614
3D0B4E12
BD786F48
BCEC93A7
3D94ADBC
3D9E004B
BC88E369
BCE2B8C7
3BDB0575
3D6468CB
3C82A77A
BD8012E0
BDA31AD2
3DBA0C6B
BDB79182
BD4E23AF
3BA24CC7
3CD60E95
BCBDF091
BC7F92F3
3DA13900
3D51AB8F
BD76A0DC
3D8C3090
3D839820
BD7EDE98
BBC093D9
3C9A47AA
3C619FC3
3A93D966
BC55B680
BD4A48F9
BC535222
BCE160D9
3DA37F7C
3D6B1A2A
3C22B170
BCFAB325
BB15AF29
BC2AF790
3DA50ACC
BDA8FE26
BD79B025
BD1F266C
BD6AA3AD
BD8CE13F
BD096894
BD37574F
3CEB5B2D
BCD989DF
3C474B84
BD88637C
3D529457
BD305D96
BD35360D
BD54B05B
3CBFDF7F
BCBC382A
BBE10492
BCC68230
BC89BB6B
BD8A8F3B
3CF1CFBC
3AD130E0
BC30F6AD
3D0CED4E
3D4EF34D
BD9A01EF
3C526FA4
BDB86C22
BABC169C
3D7A4E7B
3D6FCBD5
BD8ED02D
BD379B78
3D945D85
BD814A4D
BD366C6E
3D970DE9
3DA3AD19
3D7A2BE0
3CADBE7F
BD8CF851
3C7AF428
3BF5989E
BDA2699C
3DB49D7C
BCFB7A5F
3C33A259
3BD959A3
3C57D391
BD3023EA
BD2D905C
3D016F00
3A3673C5
BDA95B79
BD09DE05
3DAB5ED9
3B276102
BC587F88
BD33FEA0
3D1B7176
BCF89C5E
3D94CA92
3DB68B5D
BBA8C9B8
BCC4BD34
3D91C2A0
BDB9A49C
3D79B131
BDABEC68
3C38CB8E
3D415E39
BC04A948
BDACAA32
3D7FB7A6
3D9720C9
BDB4C87A
BD5B0FF1
BB9C66D3
BD04AA54
BD35D895
3CFDB4CC
BC047F56
BDB76CCE
BD21EA36
3BEF0282
3CE249A1
3D8A89FC
BC98FA37
3CDE6BC6
BAEF77F2
3D9AF188
3D45AC47
3B8FE261
BD7BDCF0
BD89A672
3D9A493D
BCB4C1A9
BCF939A8
3D9E9425
3C2BFFCE
BC1A62ED
3D1FE868
BD6A1512
BCFAA476
3D1D3997
BD8E6B83
3D525248
BDA476F3
BD685122
3DB6D091
3D7B86F4
3D3DC26E
BDAB990B
3C8DDC62
BDA1C0CA
3A5FDEF8
3D8201CD
B77BA882
3B2D14A1
3D9D7C2D
3D558B82
3DB99FE4
3D090A35
BCEE2C99
3D83BB41
BA8A04D1
3D43254E
BCA08BFC
BAB2C83F
3D1D041D
3D892DDC
BDB3293D
3D09ACBD
BBAADA34
BC9E321A
3D880065
BD8A936C
BD0EEAEA
3DA64021
BD1652BD
3D13BF2F
3C836439
3CF5AFB0
BD11782D
BD2497FA
3DB1C9F7
3C999568
3D8AD3E9
BD5FC6DA
3CEECE14
BDB2EAD9
BCD2C16E
3D87AF21
3D0E5E68
3DB62AE5
3DAA137F
3D92C5A0
BD4E8C8B
3DBDEF85
38FDC161
BD5B2B34
3C961C37
3D1F6988
3C8AEB81
3BDD7A9A
BD64CD75
3D9C18B5
BC8318B9
3C92F09E
BDB85F07
BB84D76B
BDAF34D7
3D036651
3DB7B070
BD37C676
BD9AD85E
3D179D0A
3D342246
BD69E6EF
3D9820A3
3D41A049
BD346024
381F6230
BD20D888
BA8CE704
3CC3C3A4
BC5C6E2B
BBB8B695
3D135654
3DA9528F
3D81094A
3DBB3398
3CC3F812
BD7E3B04
3D81932D
3DA676A7
3DB2E276
BD10F840
BD5FD695
3DA12F0A
BDACF7CB
BC41376D
BD20F909
BD0B5BB4
3BD8904F
3D842635
BD6849CB
3DB1D25B
BD830C24
BD2BF76A
3C07B56C
BD666128
3D93DA73
BCACD9E8
3DA9E450
3DB687B1
3B937D20
BD98B04B
BC0CC9A7
BD240853
BD6FFF37
BBC7D1BB
3C8DD1E5
3D9AF859
BABC382A
3D0A9692
3C88CE70
BDA0E6B0
3D66F2E9
BDA9D170
BD4D92FB
BD92220C
3C870DA6
3D0F9097
BCC829D0
3DAB5ED9
3D982A13
3CAA4B99
3D8F68BE
3C459B80
3DB36934
BDAAF923
3DBBCEC8
3D8F6838
BD6527A2
3BAD6883
BC346BAD
3CF405F7
3D54E1A4
BDA599ED
BCAE9EE4
3D1EF30A
3CEC6152
3D86C3B9
BB66E222
3DAA4D2B
B9AAEAFB
3DBB4352
BD3660E5
3CC6FBD2
3CD3A81E
BC95B78D
BD82CA9B
BD24ABE7
BCF3ADE2
3D3634DB
BD35D356
BD823C86
3D5D56F3
BD82467C
BBB13598
BD51AFC0
BDA7381D
BCACC921
3D8F648C
BBAC753E
BDA8FE26
3D75579B
3C89289E
3D994079
BD26655A
BCBE37DF
3DA18A44
BCA71FFF
BC2F5771
3D6B0FAE
3DB9F5E0
BC6CAAB9
BD99ED7C
3D9CEC85
3D35B813
BDA11A11
3D7ED741
BCD49B63
3C7C08FA
BD00BFE4
3D11FB40
3D5CD706
3D16DA01
3C6F911D
BC916EBD
3D8D8DBD
BD9F5AD9
3D3F2C30
BC2964E9
BCD204B0
BCFCD24E
BD905AF7
3D29B5A6
3CDC3372
3D07EBF2
3B91D14E
BD890471
BD0F9B13
BD802E23
BD167558
3D136502
BD519CE0
BDBCCB7D
3DB85A4F
BD98F68C
3DBA0AD9
BD25EAAB
3D2FD220
BDA52370
BDBB25F6
3DB4FB55
BD7BE76D
3CEC7219
3BA9930C
3CE4F334
3D589375
BC97BFA5
BD969D30
BDAE4EAD
3D470111
BD32BA9D
3D19DCB5
3D927350
BD19103D
BCA21EA3
3D78359C
3CF57B42
3D2D4A1B
3B5DC619
BDB4445B
BD3AA79C
BD151B50
BDBCF0B7
BDB21577
3CFF737E
3D3C419A
3DB12989
3D62467C
BD46748E
3D964C73
3C8AC7DA
BD71A7E3
BD7C664D
BDB25F63
BCE279DD
BDA862F6
BC08051D
BCE20EE9
BD48E9B4
3D6CC815
3D414C66
BD8409E5
BBB04253
BBC59FB2
3C6310DC
BD866DBD
BA1B3073
3D8B48D4
3CFE2E6F
BD0941C8
BD7C6DA4
3D8B7C35
3D721D54
3D512770
BC9E18F0
BDAA07F6
BD7A13C2
BDA7BDCF
3D90385C
BD546A1A
3AC4156E
BC94D940
3D58409E
BCF1DE6A
BD1C5A3E
BC6108C4
3DB49060
BC9CD1C8
3D85C67E
3D4A6656
3DA71C54
3B84DFCE
3D964F98
BD8B6A62
3D85C67E
3D8D71F3
BD55757D
BB90F734
3C448ADF
BD99A9DA
3CAE9CCB
BDB51A43
3C3B2BBB
BD0997C4
BC67253E
3D08F53C
BD417A89
BBAB0425
3DA706D5
3DAF1F58
BD96030C
BD615550
BD7FB7A6
BC9CE8D9
BD8F166E
BC092AB7
3C4E91C9
BD5807FF
3D9440AF
3D94C4CE
3D1E310E
3D1CF462
BD8CC5FC
3D85E6FF
BD1EE99A
3D8168B6
3D75DBBA
BD4BE404
3D055758
3D1425F2
3D08850A
3D5BD406
3CFF498C
3C9C3266
BD61D649
3DBADB83
3D158B82
3D4BC05D
BD2E3B47
3B88F862
BD36922E
BC27B0B4
BD1ED8D3
3D466C2B
BC894C44
3DB24FA9
BD136D65
BD827632
BDBBAB22
3D2960B7
3C55A188
BDB94856
BD802214
3D5FDBD3
BDAB6391
BCCB05B8
BC74A98B
BD53F291
3DA7A17F
3C84EC63
BD30BF1A
3BABFFCE
BCBFA2AD
3D84E593
BD34A665
3DA71151
BDA20D56
BC03E857
3D81932D
3DBA5658
BCD13F8E
BD044285
3C8F1B26
3D9C6434
3D5E41D5
3CC156E2
BC9A5A8A
3D799F5E
BD2E7E63
3C832336
BCBC7D5F
BB2EC8D6
BCD6366D
BC4F6BE3
3DAFD7E4
BD62E0A0
BCA426BB
3D09FA55
BD9DACEF
3D107208
3DBA072D
3D1FD8AE
3DA6D2ED
BD937197
BD046413
BC8A1166
BD89142B
3DA8240B
3B5EA034
3D25F41B
3CBE7D13
BD837A3E
3D63DA30
3CD0635A
3DBAD4B2
BD9074A7
3CE33ACD
3D81847F
BCABB44E
BD1615EC
BC498A22
3DAFFB8B
3DBB994E
BD5CDB38
3B1C3CE2
3B774470
BCEFD007
3CD96207
BDB5C52E
BD0E6080
3C96BB99
BC967664
BCF8AD25
BD919DED
3DB2BB23
BC85FAEC
3C15CC85
3CE98DCE
BC40B999
3D954EB1
3DBC9364
3CAC96CC
3D6D0D4A
3DA9F40A
BB93C89F
3DA4B4D0
BC42F838
3C64ABE7
BCA0C06A
BD5FA440
BD658B3F
BD361672
3BA55087
3D06AA08
BD34538F
BD8C43F6
BD7C0D2C
3C8EB032
BD7B4E55
BD9D5DC4
3DB0ECB7
BD553CDE
BD87A17F
BD565F52
3B3827FA
3C950B95
3C87FAA0
3D6C8D5C
BD2B94D9
BCDB3BFB
3CA5D074
BCCBCCF3
BD3633CE
BDA784A9
BD08F862
3C337436
BD454584
BB8BFC22
BD358C09
BD72EAD9
BDA17764
3D4C5A81
BD65375D
BD168406
3DA81238
3C3A9D1F
BCD4195D
BC873FFB
3CBD859D
3D07DB2B
BDA1B5C8
3D8A52F0
3D0ABF77
BCFC3505
BD8D8CB0
BD729803
3C9FF92F
BD451655
BAD19589
BC797AAB
BD859D99
BDB4B6A6
3D077681
3D066E44
BD86948A
BD829739
3DAB9021
BD015C21
3D7E1006
3BCC2507
3D7FAA04
BB8E68E4
BC8BD231
3BFCEFAA
BD8F4A56
3BA84BE4
BD90270F
BD12C6AC
BD284BE4
BC91793A
3DBDD54E
3D5610AE
3C960D88
3D1208E1
3C0D0460
BD40E065
3BB78034
3D9D6CF8
3BFA9C13
BD7A5F42
BCB01EAC
3CBFB15B
BDAC4B4D
3C1DF549
3D91372A
BD2BC409
BD1A4BDC
3D6CB85A
BDA9845E
3D84B6E9
BD11E42E
3D7AB863
BCEAB799
BD937B07
BD53458D
3D6C2374
BCFEB075
3D10CC36
3D814D72
BD295960
BC55E4A4
3DB6C509
3D9E3B04
3CEEED89
BCC486AD
BD773B00
BDAC76D1
BB068BA0
BDB91B3F
3DA9CA9F
BD6CA9AC
3D858E65
BD99A848
BDA70B8D
BD118F3F
BD45CDD5
BC1DADFB
BD8C7219
3CA3B363
BD830878
BCC827B7
BA36B6E1
3CFC8B00
BBE7EE91
BD8B3893
BD116A8C
3CCDF8B1
3D80D23D
BD9FCC18
3CAE8C05
BD435697
3DB9D2BF
BC56FDA8
B993D966
BD72ABEF
BDAFF10F
BD18D584
BD85CAB0
BD4D2C38
3D14F590
BCCA46E1
3CC6E2A8
BDB553EF
3DB3D6C7
BD6822FF
3D4CDC87
3CF09310
3DB35009
3D0FCB4F
BDA7CE10
3DB89D6B
3D4C7F35
3D171088
3B9C8861
3D2BD3C3
3D8E9468
3DBBCDBC
3D104923
BBB20FB2
BD298351
3D7EDA66
3D384BA1
BDB81062
BCD742DD
3D9B7069
BD8817FC
BDBBDB5E
BCC26352
3DBCDD51
3DB6D091
BD876D11
3CFB0F6B
BBF47304
BD00C62E
BCF1A7E3
BD67FF58
BD0B9885
BD29424E
3DB5AFB0
3DB20536
BD540CC8
3D0523F6
3C1A2835
3B9667B6
3BD6D3B7
BD437C57
3C8CF5B2
BC6FB6DD
BBE0E304
BD9CDD51
3D91A4BE
3CCE7254
BD5FAEBC
3ACD8559
3DA9906D
3B9320DA
BDABFDB5
3D76AE7D
BD722C02
3CE6772D
3D83400C
BCA3A4B5
3DA8F430
BD55A294
3D908CC5
BDA41030
BC49795B
BD46088D
BC7A9C13
BD06AF47
3CDECE57
3CEE9BBF
BD668C26
3D0A18BD
BC86B9C3
3D970DE9
BD021AF8
3D7C0F45
3DB8066C
3A858FF7
3D70F6AD
BD346DC6
BD97D6B6
BD63D4F1
3CA7BB30
3C17BFA5
3C075D57
BD426890
3C5BF8BA
3C94F26B
3D92B55F
BC69A2C6
BB54024B
BD3519BD
3C3EAD4F
BD691106
3C6B91B4
3D1701DA
3DB2BECF
BD8ACC0C
3CBFD502
BAC996B7
3D2F0CFE
BDB4A234
3C861A61
BD5DD6E0
3D2E1262
3D798740
3D0CDD94
3C9B7176
BD6CA46E
3D09D5A2
3CA3486F
BD8553AC
BD9D4413
3DBD9125
BDB5ED8D
3CC6887B
BC44EF89
BD280E06
BCBDA943
3D38A7E7
BD8BC6A8
3D76DEB9
3D027B70
BD9D377E
3DB1DF76
3D9BB0E6
BB1ACBC9
3BB7F5A5
3D40D90E
3CBBCB1D
BC7FEB07
3D27A205
3C8CC576
3DA7210C
3C0BF7F0
BD37FE09
3D175F2D
3D8686E8
3D054153
BD10C910
3DB606B8
BD5000C9
3C71CFBC
BDB1DF76
3DBC7F78
3D342353
BCAB734B
BD94BCF1
BCD72581
3CA7E953
3D884407
BD6FD439
3D5CAF2D
3DAF81E9
BD9D6840
3DA74081
3C6A0BA2
3D9E2A3D
3D2833C6
BC190AFE
3D2FFB05
3DBD1D47
BB881E47
3D7D89CE
3D5FA440
BDAFAEFF
3CB30F8C
3D79B77C
BCEFA3FD
BCDBE5DA
3D898EDA
BD804428
BDA78E9F
BD2E7818
3ACC78EA
3B6FCBD5
3D1F9379
BD8ED890
BD865C70
BD28661B
BCBD6E8B
3D611DBD
BCCB70AC
3D8644D8
3D7A1C26
BDBDD97F
3D2E30CB
BD370260
3C9FCF3E
3D17689D
BD324852
BCB40F67
BD746131
3CD1E322
3B93B7D8
3CD6A594
BC3D5DC4
BD904684
3DA1C151
BCE0C9DA
3B4E4EAD
3DBB9CFA
3CFA97E1
BC61B8ED
3D661AE7
BC817FC7
BD11116B
BD9C2870
3D9CE209
BDB83A54
BCAF6E83
BDA50614
3C08D6D4
3D39B23E
3D9D73C9
3C5A7F3D
BD59231C
3D3D61F6
3D1D1E54
BDA44A62
BD78487C
BD8425AF
BDACA1CF
BA811B1E
3D8D10F5
BDB53826
BC8F9D2C
3D5805E6
BD71C10D
BD7E2E6F
BC342CC3
3B77878B
3D355582
BC86AD2E
3A41333C
3B8D434A
BD3CA537
BC8BB2BC
3D84EF03
3CC9D7BA
3CE20685
BC1F5169
3D1B4BB6
3DAE5604
BCD23704
3D06B7AA
3D08CE70
BDACFF22
3D88954A
BC7CC187
3D4CD856
3D367D35
BD07735C
3CA06C87
BDA93F29
BD61E604
3C25DF22
BD50470B
3DA4191A
BDB30271
BD76683C
BDAB2F23
3C231A4C
3D60C6B5
BBCB5350
BC6FB6DD
3D2E4C0E
3BFD0071
BBCAAB8A
BCA5F202
BDBCA85D
BC121038
BD50257D
BBD59D56
BCDF4C2B
BD2B7564
3D1908E6
BD82E2B9
BC36848C
3D5BCDBC
3D8CEA29
BA7B224B
3D095E18
3D0B9ECF
BDAA82A5
BDBDCCEA
3CFACA36
BCE06317
BCF88B97
3D9A3E3A
BDB44B2B
3D64A9CE
BCB83F0C
3D8E1049
BD818266
BBDCEBFF
3D7D34DF
BD8D46F6
3B18B2EA
3CC7B891
BD73D5BB
BC9BC98A
3D432010
3D91AC15
3DA8B5CC
3CB267C7
3CA99FA1
3BDFDEF8
3D0F0308
3D3193F7
BB869C67
3D6809D5
BCB3482C
BD22680A
3CE66CB1
3D61A826
3D4C660A
BDABC515
3C3FA4C6
3D3329C3
3A8DF373
BCF74EEC
3BEF2410
3CCA3E7D
3C078B7A
BBA85447
3D70574B
BD62E4D2
3D8B5F5F
BD6A2C23
3C69DD7F
BC902795
3D8F9EBF
3D939FBA
3D93E9A7
BB9906CD
3D964A5A
BD01A693
BD7892EF
BDB265AE
3D88051D
3DAAB8A6
3D008851
3D87A52B
3D8FA8B5
BC9A62ED
3D60FB22
BD96B010
BC41A049
3DBBA776
3C427E95
3D9BEEC4
3C94317B
3DA7C6B9
3C5ACEEE
BCEB97FF
3D8A6117
3D3BCC29
3D2C0F88
3D60791C
3D6E32E4
3D196FA8
3D7C0E39
3D66527A
BD77C676
BDBBB59E
3C816F00
BD9DB2B3
BDB139C9
3DAC89B1
3DAB007A
BD2A619E
BDA14728
3DA1FA76
BD6603D5
3C9C9928
3D931D2E
BBC16590
BD72F556
BD9C1B54
BD80A73F
BD8146A2
BDB0E23B
BD48B652
3D6718A8
BC7CCE1C
3C829281
BD4E1E71
BCE3A5C2
3C0B2208
BDA78D93
3D702928
3CAFB7E9
BD9A5B10
BDB063E0
3C4E1826
BD764E05
BDB173FB
BDAF9DB2
3C641D4B
BD883665
3CF01D9F
BCD39325
3D3B3E9A
BDADE332
3C38066C
BD99C843
BD1DEDF2
3D19E83E
3D0F7879
3B3502AC
3D93F317
3DA12AD8
BDA9FD7A
3B158D9B
BD10CC36
3DA64FDB
BD595AAF
3C85425F
3D9402D1
BDB4C2B5
3D3C5EF6
3D0C34C2
BCD566CF
BCF90321
3DB66730
3C6631F9
BC9DB22D
BABFC222
BB27E73A
3DA89119
3BC64778
3CA25FA6
BCF210BF
BDAC0DF6
BD98C32B
BD263843
3DA28E50
BD3F6D33
3CBA01EF
3C3530CF
3C768BE3
3B57CF5F
3C1D9D34
3C7C2EBA
3D68A82A
BBE81883
3C27C17B
3D54727E
BD0E11DC
BD4B46BB
BDAA5CE6
BD82B27D
3C299B6F
3C802E23
BD5527E5
3D9E8A2F
3D90D5A6
3D8A6DAD
BC3ABA7C
3D48E79B
BD8E4C0E
BD491080
3D70FF11
3D1DCB58
BC0066C3
BC361BB0
3D8E44B7
3D3A1D32
BC0383AE
BCBF162B
BD7CF701
3CAE9AB3
BDBA3FCD
3C51F601
3CB6134D
BC4069E8
BD79D2BF
BCC70004
BC2EF2C7
3CF967CB
3DB0ABB4
3D27913F
3D4A89FC
3D890FF9
BA488A48
39B673C5
BC982667
3DA578E6
BDAAD03E
3D5A1017
BD01EBC8
3D4E0115
BDB28F9F
3DAABFFD
BD602D9D
BD842742
BCE3EF28
BB95421C
3D34F82F
3C4536D6
3DB08249
BCDFE543
3D3228DD
3D0F13CF
BD4C9321
3C9715C6
3D739E28
BD4A6EB9
BD2D55A4
BDB6AC64
3D67D999
3C226E54
3C9C7369
BD52513B
BDADB37D
BB5434A0
3CF0C77E
BC05DB77
3C183516
BD80B45B
3D8B9453
BCC49342
BD045458
3DBD6063
3D8F0A5F
3C769CAA
BD8D22C9
3CE412CF
3D446C76
BD94A4D3
BD8D2A20
BDB63B25
BD7660E5
BD897BFA
BC2F9A8D
3BFF5C6C
3D9600F3
BD3DE615
3D023A6D
BD9EA3DF
BD0C60CC
3C03F4ED
BCDB0DD8
3BC13B9F
BBA86D72
3DA965F5
3D218698
BD262889
BD4117F8
B9A2877F
3C323DD5
3D07AF21
BD6044AF
3D9F3A58
BD992C8C
3CB32AD0
3DAEF673
B969D51B
BDAA454E
BD8295A7
BDA1943A
3C400DA2
BD858F71
BC9B6B2B
3DBDA61E
BD79A177
BD3F37B9
3D99B457
3D337A81
B9B3D4AE
BD288590
BCFDAC69
3D90DCFD
BB4069E8
3D9CA18C
BCBA7979
BD2FF195
3C75DFEC
BDAF587D
3DB22318
BCAD70E7
BD105293
3CD844D0
BD6C918E
BCFD1783
3CF496AB
3BD349BF
3D4D62BF
BDB65FD9
BCAA94FF
BD34CB19
3DB882AE
3D4ACF31
3D8A2A91
3DB12BA1
BC44BD34
3D8CD20B
3D924F22
BDA2C5E3
BD1698FE
3DBCAEA7
BB807358
3C5AA92E
BD84A6A8
BC422EE4
BD682D7B
BD8BB6ED
3D550870
BBB9B23E
3D74677B
3D5E657C
39B56755
3D4B007A
3D0AC4B5
BD253869
BDA0913A
BCE6AB9B
BD798202
BD891D9B
3CD2C7B9
BCB94D94
3C3E4042
3D284DFD
BD65C811
3A9741D1
BD6A3162
3DB4EF46
BCE82F94
3D86B3FF
3CDCB791
BDA01DE2
3C79E7B8
BCDD4845
3B170F7C
BD55B78D
3D949386
BDB4F9C2
3C826AA9
3D8B4203
BD9CCC03
BD1275EF
3D0D65E4
BD7A9197
BDB96745
3CD44BB2
3D6F6406
3D711A54
BD4EFCBD
BD3EE2CA
BC728416
3D60D888
BC626916
3D8FC1DF
3D7A83F5
BD96134D
BCD2D01C
3C3C169C
BC86338B
BD10AAA8
3D598E11
BD6EFA1E
3D103A75
BCB12902
BD62AD3F
3D7E1B8F
BBAA1944
3D412381
3CFDE508
BD74D270
3D937F39
3D1D8623
3C2426BB
3BF34507
3C67210C
3DA00DA2
BD5C5F7C
BD4E3CDA
BD344A1F
3DB1EE24
BD925AAB
3DB95FEE
3D3734B5
BD81847F
3D644C7B
BD36E71D
3B5141A7
3D553CDE
3C2E5FFA
BCBCFF65
BD80FCB5
3C4ECC81
BCA556D2
3A80F990
3D8C4934
3D3D7A14
3D8DEB96
BD886F8B
BC96F21F
BD81CDE6
3DB083DC
BD9AD9F1
3D73C3E7
3D0ACD18
BCD8409E
3C8D10F5
3D1885D3
BC1D7343
BD1A048E
3CDFDAC7
BDB1C64C
BD63C537
BC192429
BD0D4995
BC2D6883
3D786B16
BCDD8F93
3D6B313C
3CEEAC86
3C9E0829
BCD987C6
BD4CB6C8
3D8D234F
BDA13CAC
3CA18BD6
3ADE2AC3
BBA95853
3DAC68A9
3C8A06EA
BBF01755
3B9A8049
BD6A2A0B
3CD1FA33
3D112989
3D685EC4
BD160A63
BC2F2D80
39D4562E
BC919264
BAF21709
BCB24E9C
3D176EE7
BD60A30E
3D51F927
3D1BB8C3
BD886A4D
BD9D284A
BD2F6C6A
BD2F7F4A
3D153155
BD4194C0
3D523C43
3DA73EEE
3D76CCE6
3C483A97
3CFDF19D
3CE74D16
3D20BD45
BC817119
BD8B6849
3D26D15B
BD0DAF4B
3D46E3B4
BD535009
BB86BDF5
3D53708B
BD4316A0
BD14195D
BD1D26B7
3DB103C9
BDB93CCD
BD94D057
3D836007
3C14898F
BD80A958
BC88FC93
BCDD0529
3CC8E25D
BC309635
3CB4F3FE
BD98348F
3D61D10B
BCD42A24
BCC284E0
3B8DE2AC
BC9D51B5
3C6B67C3
3C4E208A
3DBA62ED
BDB9B025
3DB77EA2
BD989EFE
3D5DE482
3D516228
3B2B3EDE
BD30142F
3CAA4DB1
BD248627
3D55B9A6
BDAC3D25
BC3FCA86
3DA5D074
BC5188F4
BC38CB8E
3BCE0B91
BD666FD6
3D90C910
BCEFFC11
BC93A2E0
3D818A44
BCF13CEF
3D65E892
BC92F4CF
3C9E9292
3D785511
3D5FADB0
BCCE6C09
3A66AFCD
BCE553AC
BDA6A2B1
3D421F2A
BD46045C
3D5F58C1
3D350093
3D6B55EF
BCE1AA3F
BCD54541
BDB39219
3D699525
BDB5E0F8
BCDFD04A
BD895853
BCAE09FF
BD5FD263
3DB5D356
3D8CAF71
3D094B38
3BAA0019
3D44F095
3DA79789
BDB6B767
BCBF4235
BCC853C1
BC30C88A
BD746AA1
3BACC921
3D61D96F
BC89A88B
3D6D80A1
3D889A02
3D9908E6
BD9152F4
3B7A69BE
BCA80496
3D6CC4F0
BD9559B4
3D2E1BD2
3DBC610F
BD894035
BD816F87
BD1BDB5E
3DB8D691
BCF53C58
BDA35936
3D559818
BDAF1AA0
3C5C93EA
3D837825
BD679BBB
BDAF9874
3D9020C5
BCAB4B73
3DB8FBCA
3D65F740
BBC8C500
BD57763E
3B320FB2
3BBB44E5
BC4D2D45
BBE0C176
BDB45F9E
3D732DF5
3D3C6434
BD5783E0
3CC6BACF
3D075F70
3D5A9329
3CD095AF
3DA658C5
BD312F4D
3D9A8A40
3D087B9A
BD99EA57
3DBD7D39
BDB1FFF8
3CE37BD0
3D9FDC59
BDAA337B
3B08C60D
BDA0E304
BD5803CD
BD930B5B
3D8FD8F1
BD92FFD2
3B1D388B
3CEA337B
3D90B392
BD01DD1A
BD2E4D1A
BD0BF8FD
3D5D5F57
3D2AC216
3D573D9F
BDBD7236
BB7D199C
3C199568
BD43F3E0
3DB47736
BCCBBA13
BD94E337
BD8AD927
BD5FB82C
BD349F0E
3D2DA123
3D7BE447
3CBF5D79
3D511E00
BD8D2029
3D91055C
BDA1A826
BB0A58B4
3CBEDB73
3C0A6117
3D5D8E86
BD5B77C0
BD176AB6
3D907E17
BDAD6990
3DA33F85
BC5F223A
BD9931CA
BBAC8E69
3D759EE9
BD0470A8
3C9D6063
3DA36651
3CD6BCA5
BDBC4977
3D420818
BC437A3E
3CCCB5BB
3D8FA722
3D6085B2
3DBC5586
BBBE835E
BB9BAE47
3CF5A101
BC008851
BDAC01E7
BCBED528
3D941312
3DA70DA6
BD001605
BD7F6D33
3D93CC4B
3DB29CBB
3D2E74F3
3DAE3F79
3D0B2639
BC64FB98
3D435697
3D676102
3D92C7B9
3D14CEC4
3D1373B0
BDA72B02
3D9F8338
3D4CAC4B
BC396F22
BCADD9C2
3C15EE13
BCDAD752
3D78BBD4
3D3227D0
3D2AD1D0
3D5AC68B
BCDB0DD8
BC14E5D6
3DA4CAD5
3D935116
3DBB60AF
3D582ECB
BC25B0FF
3C647DC3
3D371EB0
BD970585
3D0486AD
BC86D2ED
3D3A40D9
BD05F17C
3D16E7A3
BD649D39
BD8B5350
3D8C1A05
BD5FC2A9
3D8DE871
3BC9C0A9
BD65B318
3D14F590
3C936827
BD6260B3
3DA46951
3D6003AC
BDA01366
BD8E51D2
BC6F954F
BD6544FE
BD3574F7
BCEEB2D1
3DBBAB22
BD1FD263
BC27546D
3C0F2171
3B9B7BF2
3C8AE74F
3D6657B8
3CA88F00
3B1AFE1E
3D662DC7
3D9B4C3C
3D95F352
BCB7B070
BD77F280
BD4B178B
3D0D90E2
3D9B7953
BD2D6BA9
BC0B3B32
BD1CC426
3B1CE4A8
3CD86445
BD377293
BD75B707
BD58116F
BD14CFD1
BDA6EDAB
3D8FFDA4
3CC8D3AE
3D4FAEFF
3D153AC5
3A6E49F5
3D86E654
3D989ACC
BD17A030
3D80D024
3D7079E6
BDB212D7
3C8D9514
BDA5796C
BC0244E9
3DBD3E4F
3DBD6BEC
BC2979E1
BD3C536D
3CB868FD
3D83393B
3BD184C2
3DBA8AC6
3D577964
BC6CFA6A
BD32CB64
BDBA3E3A
BCA3B9AE
BD7B341E
3D6E2004
3D0DC875
3C1E8C48
3D76C051
3D47AE14
BDAF1887
3CDE3DA3
3C820818
BCAE07E6
3CC54DE8
3D1AB085
BD623183
3D8C6BCF
BCB8D1D9
BDBA9DA6
BD6939EB
3D814728
BDBDD97F
BD74FA48
3D99578A
BCEB9C30
3CDFFA3C
3DBDCE7D
BD20620B
BD513511
3D79A177
3CFD0071
BD826677
BD9803CD
BBBB01C9
3B7062D4
3DB28955
3CD87B57
3DA2C55D
3CC8BEB6
3C2EF2C7
3D7FB268
BC1C12F1
3D999B2C
3D9DE93A
3D1EA24D
BD394EA0
BD906E5D
3B05E3DA
BCD02689
BD59B0AB
BDAA6D26
3D808744
3D477BC0
BD51947D
BD22BBED
BDAF5904
BD8B7AA2
BD79DD3C
3D777AF6
3D6121EE
3DB3D103
BDA5E248
3BC07AAF
3D0301A8
BD496AAD
BDB164C7
BD3456B4
BD8841EE
BB88509C
3D80346E
3DB43FA3
3DAC40D1
3D3EE5EF
3AE94EE4
B8B673C5
BD8D9BE5
BB2CC0BE
3C694680
3DBA3982
BDB31099
3D8BDF4C
BA0B32CF
3D8FA82F
3C51E109
BB8F42FF
BD586120
3D30691F
3D64851B
3C88BFC2
3D803361
3D40C309
BD48B86B
BD6368F1
BC58C2A4
3D8A9931
BDBB0681
BCBBB1F2
3D7211CB
3D28B2A7
BD24EDF6
3D93DE1E
3CAB5808
BD0EC637
BD9713AD
BD08CC57
3C733CA3
BCAE1694
BC0DA7F4
3CBAD9F1
BB8B545C
3C36DCA0
BCEEB91B
3D3F316E
BDA80629
BD959C49
BDB9A73B
BD9E175D
3CE5CB36
BDBB280F
BCFD0AEE
BD15B142
BC70D413
3DA0DAA1
3D064021
3D26F827
BD880CFA
BD69BF16
BCEC7EAE
BDB529FE
BDBC5586
3D32AF14
3B90470B
3D324313
BC97A67A
BDA0F55E
3CC7C73F
3D8B7889
BA963561
3CE1E710
3A5F9BDC
BCBBA344
3B4069E8
BBEC0725
BB9CA9EF
3D8A90CD
BD891212
3D4D4ED3
3C369553
3B1E12A5
3C8C5650
3CFAFA72
3D75DAAD
3D1B866E
BDA5A815
BD2BCB60
3C96A6A0
BCFB56B8
3DAEC311
3C41EFFA
3DB1F794
BD9E01DE
BC813661
BD87BF62
3D144999
BD05308C
3C3FA094
3D3C7A3A
3DAF4CF5
BDA49C2C
BCFE6D59
3C975AFB
3D67AB75
3D9B4917
BD715F89
BD3487FD
3D211DBD
BD878D93
3D1E9E1B
BCBDEA46
BC5C054F
BDAD0DD0
3DB2BA9D
BD1B64E0
3DB3F855
3D2EAA6D
BD937DA6
BD77164C
BD116766
BD203926
3D709B74
3D97824D
3CBF572E
39388CA4
3D2410B6
3DBB0468
BAFCD680
BD8B7E4E
3DB7B5AF
3D6C1D2A
3CC100E7
3C4343B7
BD147AE1
3CEE9143
BD5832FD
3D254717
BDAEEB70
BD168512
3D4D4FDF
3D8200C1
BD9717DF
3CA5B0FF
3DB7C6FC
BDADC098
BD5B499D
3C307076
BD20B806
BDB31551
3C6A8976
BD1F85D7
3DAD9F90
BD09374C
3CF1172F
BD8C154D
3D86FF7E
BDBBA2BE
BCFFC32F
3C93BC0A
3DA6F7A1
BDA152B1
BDBC87DB
3C992C8C
BC2AD1D0
BD8F8727
BD7D0AEE
BC9C022A
3D3CA42B
BD4903EA
BCB502AC
3BAF35E3
BD917F84
BD90AA22
BCB0C459
BD0520D1
3D8BAB65
BD539FBA
BD11B4FE
3D82A1B6
BCB55EF2
BD2BA16E
3D921AB5
BD2C80C7
BC66D58D
BD5653CA
3D6321A3
BC859A74
3DBCAFB4
BD9FE197
3CD5DA27
BCE468CB
3A5A1A93
BC433F85
3B0E8A72
3C5045FE
3DB9146E
BD5E774F
BD6C43F6
BD2400FC
BD6F35E3
3C52806B
BD95AD97
BD83A8E7
3C469729
BDAEBAAE
BD800432
3BFE9B7C
BD603D57
BC296D4C
3D7ACE68
3C8984E4
3D07D912
BAD9F905
3BF86A0A
BDB0EA9E
3DBDD7ED
3D3AB218
BD3395C4
BD098F60
BD8E1DEB
BD4A697B
BD7B3FA7
3CDEF417
3C25C5F8
3D9B1D93
BD138BCE
3D053D21
BD672431
BBDDC619
BC67C06E
BD592C8C
BD83C105
BD9491F3
BC58CF3A
3C8DCFCC
BDB2A27F
BD7A17F4
3D12189C
3DA60781
3C20F0A6
3D32C83F
3DAD6A16
3D9DC0DB
BD1512EC
3B1C2C1B
3BE6E222
3DACACD2
BDBAEDDD
BC62C98E
BC700ABF
3DA82060
3D3C59B8
BDA9A6F8
3D062B28
BD5D8E86
3D27264A
BD34FD6D
BD9DE1E3
BCD17C5F
3CB8F9B1
BD63B57C
BDB7A5F4
3D8FC3F8
3C7255F3
BD7AA36A
BD9AA9B5
3D44C7B0
3D3D859D
3D9A79FF
BD727DCC
BD8DAA0D
3C9D16FD
BC18D8A9
3CCEEE0F
BCAE3822
BD737FBF
BD8811B2
BD8B9778
BD854D62
BD837BD0
3CC68EC5
BC25A038
3CE73A36
3DB84D34
BD012F0A
3D96F5CB
BDA99AE9
BDAC9C91
39991794
3D30B179
BCFF9724
3D139757
3D37D630
BCC955B4
3D1208E1
BDA3CAFB
3D615FCC
3D7892EF
3D87EF17
3D83A648
3CAE5BC8
BD234FC6
BDA8B978
BD99D90A
BB1FF92F
3CA5DAF0
BD53FD0D
BDB398E9
3D103644
3D3A12B6
BCB69553
BC4F7015
3D1D4413
3DBA5DAF
3D92502F
BD5057D1
3D880496
3DBBFAD3
3DA929AA
BCC5C9A3
BC87075B
BC22120E
BD05015C
BD954A80
3D018612
3D0A0C28
3D59A73B
3BB8CFC0
3D7E1DA8
3D52274A
BD04B1AB
3D28BB0A
BD9F6DB9
3D3F79C8
BC777F28
3BF6DFC6
BC388440
BD7955F8
BD8F648C
3D272431
BDA4CE81
BD9673C5
BD96F651
BD3A2F06
BD867DFE
3C2732DF
3DB803CD
3D32F230
BDAA0557
BDA97529
BD01FB83
3DB7EAA3
BDB9B4DD
3C8780FE
3DB89DF1
3D3D7C2D
3D9F4667
BD1B4BB6
BBEF34D7
BD7414A5
BD9F633D
BD4793DE
3D928848
BD375EA6
3D3D0071
3D835B4F
BCF5CD0C
BD8B3700
3D482279
3DBA0E84
3CB74DE0
BD293D10
BD38A090
3CB8F9B1
3D841249
BDA1309C
3D14C76D
BD89478D
BD0727DD
BD4F0953
BDA9F9CF
BCAA5A47
BCB70AC4
3BC1EBC8
3BBB2BBB
3CFFA3BA
3D564A5A
3CE3022E
BD9B65ED
3B2F9229
BCD918A0
3D08E79B
3D7250B5
BD4B8067
3DB1EF31
3D0750C2
BB669F06
3D6363B2
3CD16766
3D863BEF
3D562CFE
3DBBBF0E
3D080735
BD315F89
BDBC48F1
3DBA26A2
BD0D844D
BD87E069
3D454EF4
BD321709
BD17D9DC
3BF84018
3D3A28BB
BD7121AB
3D85143C
3C4CAF71
3D8FC8B0
3D1E81CB
BC2048E0
3D59BA1B
BAF6AD71
BD2A5D6C
3D9B03E2
3DB08D4C
BD7FAC1D
3CE71690
BA6B24A7
BD4638C9
BCE236C1
3C9E4F76
3D9C022A
3D26D480
3D2BDA0E
BDB2074F
3CF398E9
BD120D13
BDA5B424
BD96F75E
3C33DD12
3D56ABDE
3C0A1598
BC7127F6
3D5EB745
3CE75361
3D9739F3
3DBD26B7
3D164628
3CF2FFD2
3C89CC32
3D95CFAB
3D107421
3D714EC2
3C8FB00C
3DB60E0F
3B3DA943
BD999E52
B9E1719F
3D05D95E
BD3C243E
BDB80E49
3D4F0521
BD17B528
3CA26E54
3D19274E
3D5C7DE5
3CF7C45D
3D638EB0
BD54306E
BD96390D
3D5A36E3
BDA2D7B6
3D612839
BD974688
3D8FA3FD
3D885660
3D9986BA
BD69CFDD
BD052503
3D0D5305
BCFCF5F5
BD8B5CC0
BD596207
BD58409E
BDB87CE9
BCDF47FA
BC05A0BE
3D9D4D83
3D522FAD
3D8A62AA
3D99EBEA
3D927137
3D7FF045
BCDACABC
BD91C8EB
3D8018A4
3DB71FBC
BD7C9BC7
BCFBB949
3D073EEE
3DBA6267
BDB67A10
3B8FC0D3
3DA9C993
3CF2799A
3B8B9778
BCAA62AA
3CC8259E
BD967664
3DB08249
3C4C3A00
3DB41637
3D891299
BD97B95A
3D90E4DA
3D094B38
3D21B08A
BD74C3C2
3DB2A844
3D621427
BCA9BCFD
3BE7924B
3D244418
BBE1DEAD
3DAE032E
3D64AADA
3D9FAC1D
3D888D6D
3D9C7582
BCF97679
BC863BEF
BD00346E
3D9BB7B7
BC1D27C4
BDA487BA
3D89BAE4
3D9729B3
BCE6EA85
3D94727E
BD88B3B3
BD713272
3DB9EE89
3B0D7E02
BC7E8AB5
BDA983D8
BCEAF89C
3D07D0AF
3D0D013B
3CE73605
3C1949E9
BD7BDBE4
BDA2EA96
BC54994A
3D5AD645
BCB6134D
BD1B749B
BD73647C
BDAD4456
BD9C5D64
BB9D0636
3D8AD0C4
3DB1F81A
3C0FDE2F
3DA0BCBE
3DB63800
3CABBECB
3DBD52C1
3DB8A19D
BD418D69
3D5245B3
BDB976FF
3C1E1B09
3D27B80B
3D14152B
BD88FB01
3DB22EA1
BCF3A366
3D937F39
BDBB2D4D
3D3F7CEE
BC9B9F99
3D12E72E
BDAC9E23
3DBB5AEA
BB8F5C29
BDB62B6B
3CA6AA8F
3D7F2F55
BDACD8DC
BD0447C3
3C4D184C
3D8767D3
3D8259E2
3B198D04
BC849668
BCC3AEAB
BD2FFB05
3C7B267C
3CDF4A12
BD620579
3C147CFA
3C31F256
3CBFB7A6
3D99806F
BD50ADCD
BCC284E0
3D47BAAA
BD2EFE50
3D8D9CF1
BD3C2CA1
BDB3C46E
3D2AB9B2
3CA2CCB4
BB502470
3CCFDD23
3D63C42A
3CD6EAC8
BDBC7D5F
3DB4EE39
3D3DC593
3C5F6124
3D9A743A
BD7BC2B9
BC26DACB
3D82F6A5
3D84284E
BD35F5F1
3D82F380
BD528F19
BCD62E0A
3C963FDD
BD2291FB
3D462802
BD14562E
BD2E75FF
BC80C954
3C4F073A
3C8BED74
3DB6BCA5
3D882C6F
BD210ADD
3AD4FDF4
BD12018A
3DA18CE3
3D2DB50F
3DAF3F53
3CA821F3
3D54AF4F
3C7AE361
3D9C9603
3DB0B631
BD01376D
3ADD1E54
BD03F0BB
3D2DFD69
3B326395
BD900714
3DBB9F99
BD23779F
BD49320E
3B004103
3D79B025
BC222F6A
3D629E90
3D93EBC0
3D46B26C
BC4A1CEF
3D45F8D3
3D817C1C
BD79CE8E
3D13DD98
BCEB4E98
BDB09AED
BDAC75C5
3D9AD96A
BD5B152F
BD3C2657
3D6CE13F
3DB24D90
3C4F80DC
3CC03DDE
3B03558A
3D25FC7E
BD0D2E51
3D14562E
BD535A86
3D83B257
BD0DF9BE
3D9B36BD
3D2A66DC
BD657D9E
3D9FC7E7
3CCC5111
3D798740
3D58AC9F
3DB46994
BB217B0F
BD93732A
3D4FC1DF
3CF99A20
3D286A4D
BC866C2B
3D25E892
BB3F6E3F
3D219EB6
BDB3F078
BC34245F
3D45F06F
3D38476F
BCBDB7F1
BCBB7521
BD99A73B
3D0ACD18
BC4B2D90
3DA99A63
BCE8DB8C
BBF08CC5
BDB5A7D2
3D79A5A9
BDB4C33B
BD8C319C
BDAE2435
3D632B13
3CEF36F0
3D5908E6
BD9F4880
BD36C7A8
3C135B92
3D39DA16
3DB42B30
BDA3E07A
3CADD15F
3D624CC7
BD9925BB
3D076D11
3BE568A5
BD19C9D6
3CF0AE53
BD5D095B
3DA0F12C
3DAF57F7
BCBB9CFA
3C8F98FA
BDB872F3
3D1DDB12
3D54801F
BCDB8DC5
3D5716D3
3D9F91E6
BBE64B23
3D8DC1A4
BD701755
BDAD306A
BDAD1C7E
3D9EC13C
BBF7E3D2
BD5B6D44
BDA74EA9
BCFA4E7B
3DB827FA
3C84AD79
3D294AB2
BD985511
3D39D5E5
BDB170D6
3D078D93
BD7775B8
BD1DB014
BDB8C4BD
3D87D5ED
BC68294A
BB710A9A
3DA0C176
3D7DB6E5
3AD9945B
BCFA1C26
BDBDF19D
3D01919B
3C879A28
BD2338B4
3DB356DA
3CE4712E
BC968D76
BC4EBFEC
3C743C7D
3C851EB8
BDB29B28
BB82B628
BD62FDFC
BDAF5904
3D374795
BDA751CE
3D18A116
BDAAA10E
BCE7CAEA
3DAD099E
3C85B185
BD9C5AC4
3D2BFB9C
3DB6A7AD
BD619DAA
BDBDB121
BC03CF2D
BCC71B48
BCC2A23C
3BE7B3D9
3D65B74A
BD96B6E1
3D9EC248
3D6C8712
3AE97072
BAD02470
3D94B9CB
3D287D2C
3D6FCDEE
BD0E7EE9
3C98CE2D
3DAE0FC3
BDA57F30
BD62A3CF
3D21A2E8
BD825311
BCB14CA9
3D305426
3D2DF506
BD1ADA77
3D8CCFF2
BD89131F
3D948E47
BD2DA986
3B34D057
BD9E1DA8
3D4B9885
3D6A1D75
BD779A6B
3DA6FE72
3D7D3D43
3D6AE4B0
BD46887B
BDBCE7CD
3DAA1273
BD127D46
3DA7F0AA
BCE80171
3DBA7C18
3DAA1405
3D4C5868
BD92702A
3C217F41
3DAA9D62
3B48BC9D
3D837500
BC1D4952
3DB4091C
BD6C1F43
3CC6CB96
BDB19AC8
3D90F6AD
BD3A3769
BCAEBA28
BC7F10ED
3CC16378
3D5AB192
BCF78BBD
3C1680E0
BDAF5A10
3DB5629E
3CDA1230
3DAF3669
3C43B0C4
3C55AE1D
3D966E87
BDA17E35
3D356862
BD0AD256
BCF7EA1C
BD9B1184
BD1C6F37
39C4156E
3D39B563
BD145D85
3BDF71EB
3A8B75EA
BC1AB6D0
BD81259A
BDAB14EC
BCCB9ECF
BD4A233A
3D8EFCBD
3CF2CD7D
BCB3B96B
3D8752DB
BC8E171A
3D9D5561
BCDB35B1
3D7D805E
BD901084
BD977E1C
3BCFF21B
3D84F095
3D802D9D
3D7606B8
3D830878
BD84C7B0
3D72E8C0
3C9CAE21
3D22C775
3C77C676
3CF264A1
BD64C405
BC99157B
BCA3BDE0
3DA0F2BF
BD2B6BF4
BD29B38D
3D8AF145
BD370479
3D50C4DF
BD64C72A
BDBDEACD
BD892BC3
3D8FBEBA
3D219221
BD1694CD
3D92FD33
3B919EF9
BD8C2BD8
BD758D15
BD03CE21
BDA3675E
3D9F993D
3D89E3C9
BCF93DD9
3D8C94B4
BC219C9D
3D8DFE76
BD3459DA
BD9E3A7E
BCDF86E4
3CEF77F2
BD92C27A
BD77BF1F
BC9AE925
BCD36D65
BD780779
BD969D30
3D990D9D
3D714CA9
BD4D8128
3D1E3433
BDABFB9C
3DA2749F
BD8FB97C
BD8C03FF
BCF2EAD9
3DB42891
BD8B05B8
3DA2EDBB
3DADFEFC
BD535547
BCB84FD3
3D00485A
3D954328
3D612C6B
3D5697F2
3CA517E7
3CCC5543
3D4A9153
BC9D1D47
3C13FF26
BD366F93
BDAF4B62
3DB16FCA
3CEA65CF
3D2A5A47
3C8A32F4
BD62B5A2
BD991FF7
BC9016CE
3C9A1DB8
BD8B0D95
BB858794
3DB016CE
3DBB6FE3
3D0AA759
BDBCB924
3C94F052
BD40A287
BD0C953A
3CA72218
3D915726
3C8F4730
3D24ECEA
BC72CB64
BC28F7DB
BCE8AF81
BC3BE447
3DAB33DB
3DB9ECF6
BCC7FDC6
BD15A8DF
3D6BB55B
3C8CC35D
BD9D284A
BCCD6C2F
BD8B13E0
3DAD9514
3D129457
BB94BBE4
3D657C91
BDAFA051
3D8670E3
3CD8537E
3DAD1BF8
3C6E49F5
BD492253
3D1AAE6D
BA78C650
3D1A9EB2
3CF51266
3B4985F0
BD181F10
BD4CE0B9
3D885DB7
BC83C6C9
BD2DE00D
BCBA908A
3D5C38B0
BD7866E4
3D61AC58
BD974F72
3D91A976
3BE685DB
3DA9BD84
BC690FF9
3DAC521E
BCDBC665
3CC6DE76
BDABBC2C
BD01B003
3DA9FADB
BCECD078
3D894035
3D7518B1
3D4F2389
BD98D152
3D8ADBC6
BCB606B8
3D978812
BD5099E1
BD2E147B
3BE05469
BAF4F93C
BDB0DA5E
BD8EDE55
3D32FEC5
3CC56D5D
BCC197E5
3D3ED203
3D8DA7F4
BD552D23
BCBA0C6B
BD4156E2
3B3CAD9B
BDB5FFE7
3D42DBE8
BD0F3DC0
BD585CEE
BCCA233A
3D99C51E
3D02517E
BD60242D
BD238866
3B39BAA1
BD598D04
BDBA1449
3D2FEC57
3D80663C
BDAD87F9
BDAEC9E2
BD98750C
BD55885D
BCCAD363
3C17D8CF
BDB77D95
BD6A5615
BC0B6523
BA88F862
BD68D435
BDB322F2
BB1ABB02
BD3DDEBE
3C42BD7F
BD5BF26F
BD577D95
BCE05682
3D0FB54A
BDB50764
BB34E11E
3DB5158C
BD1B6D44
3CA1EA36
BCFFC32F
3D47AD08
BCC5BD0E
BD73FC87
3DB96AF0
BD3EE5EF
BC5A87A0
BD30DD83
3D29B7BF
3C922531
BDA712E4
BD7865D8
BC449FD8
BC4B923A
BC43DEE8
3D88C155
3D14C33B
BB81FD9C
BD98023A
BC187400
BC0650E7
BD9796C0
3D010B63
3D229C78
BD47F024
3DA363B2
BBA24CC7
3D8EEC7D
3C1FB613
BD92B884
BCA6223E
3BE032DB
3DA6E19C
3C9B8ED2
BCA5FC7E
3CF65775
3B385A4F
3C13E5FB
3D3584B2
3D0D76AB
BDBD7B20
BD928284
3D8F09D9
BD191DDE
BD0B6E93
BD96D5D0
BAC9D9D3
BCF05858
BC8318B9
BD2A4FCA
3B9F4906
3DBADF2F
3C8142F6
3D79AF19
BC92FF4C
3D9205BC
3D9BEA92
3CE2F167
BDB6555C
BD9C83A9
3D59EA57
3D61F5BE
BDBCCD10
BCCE8965
BDBA95C8
BD4CC250
3CF4213A
BC0815E4
3D45308C
BBC08B76
3CFB938A
BDB85272
BBF48C2E
BD18EEAF
3B02CF53
BB6EAE9F
3AA54824
BD2D7625
BD86D267
BD06A7F0
BD9439DE
BC6A960B
3D9D883C
BC8A2878
BCF61ED6
BDA8B86B
BDBB2D4D
3D00E497
BB2AA7DF
3B9FF0CC
BD252370
3D84A7B5
BD88D6D4
BB1B951C
3C9E518F
3CB93682
BDB89268
3D976CCE
BD119589
BCE85FD0
3C5D2AE9
3CED5CFB
BC54CFD1
BD92F3C3
3DAF40E6
3C861416
3D34256C
3CC193B4
BD918FC5
BD50B84A
BCB68CEF
BD144135
BD534374
BDA2C98E
BBFDDA8C
3B5ED289
BD4F3FD9
BDAF0282
3D494706
BDA378AB
BD6E33F0
BD5A426C
3DA014F9
3CFE414E
3CA7F801
3D955476
BBC03FF7
BCC0C847
BD63B470
BDA22B39
3DB39A7C
3DA3925C
3DA2773E
BAA0D34A
BC9B5C7D
3D282A56
3D4240B8
BC79C62A
BD79FFD6
3D1BC87E
3DAEB0B8
BD8ED784
BDA8B08E
BC8D4DC6
3BFFC979
3DBB280F
3DAA83B2
BBC918E3
3D12C6AC
BCD57796
3BB1AB08
BDB842B7
3C9C970F
3D1888F8
BD661390
BD172EF1
3DA72D1B
BC8C38F3
3C85100A
3B95E9E2
BCE18266
3DB654D6
BD9A8EF7
3DAD63CC
BD84228A
3C06833C
BD60535D
3D4F3FD9
BD637260
BCCF398F
3C0B2A6B
3C00F55E
BBDF04DE
3C674F2F
3D12D55A
3D933A8A
BC409C3D
BBA85CAB
BC945B6C
3C2C53B1
BDA8B439
3DB697F2
BD690DE1
3DA43AA8
3AF8C650
3CF5A101
BDA220BC
3BDA4CE8
3CDDDD2B
BCCC985F
BDA187A5
BD6338B4
BD6744B3
BD34D057
3D230553
BC5288CE
3D90B956
BC89EFD8
BBB00FFE
BDBBABA8
BD4DF698
BDB84E40
BDAD64D8
3C6BC409
3DBD82FD
3CD40896
3D22046C
BBF42FE8
3CC3A42F
3CCB5BB4
BD41B64E
BC10B84A
BDB39000
BD162CFE
3DA73711
BB7C2EBA
3D0E160E
BC9081C3
3C8AB713
BD40EAE2
3D95FB2F
BD932485
BD6B313C
BD371C97
BC37B6BB
BDBB1B7A
BD34D37C
BBFD1138
3D9716D3
3D945F18
3D7D1676
3D85B20C
BBBFB9BF
3C94FCE7
3C3D7B20
BC59B1B8
3C6D527E
3DA6E979
BD8DE8F7
3D22AF57
3C86F694
BD877681
3C7B5D03
3D98BAC7
BD6392E2
3C906CCA
3D90B49E
BDBCA18C
3D835DEE
3DA577D9
BD7E3E29
BD83B03E
BD33D8E0
3D080304
3D2FF8EC
3CF1BCDC
BD5E58E6
3AF27BB3
BD21FD15
BDA86488
3DB8C975
BDB30F06
BD4DFACA
BB4CDD94
BDADDC62
3CE1B4BB
3D105293
BD4CBE1F
BDA0FB22
BDA20EE9
BC725E57
3D620CD0
3BA0A0F5
BC947065
3D5A87A0
BD5ECB32
3CB64170
BD856ABE
BDB7B741
3AC8ABD6
3D70E0A8
3D956430
3D6540CC
BDB2D667
BC4A03C5
BD27FE4C
3BA2E3C5
3D20C9DA
BD889DAE
BD9FE111
BD26DBD7
3C1AD42C
3D9B1C86
BC54738A
BD33DD12
BCF4EEBF
3D1F83BE
3D2ED02D
BC32EDFE
3B2F0BF2
BCDB20B8
BB6AAF36
BD5BB9D0
BCA54824
BB216A48
BD9FA440
3C5A9C99
BDBC0B9A
BAAC7DA2
3D35653D
BCA005C4
BDAD117B
BBC97529
BC7E8AB5
3D25FFA4
3CF6EA42
BD3AE89F
3D6B24A7
BDA26245
3D31593E
3D804B7F
3B064884
3DBA083A
BD632B13
3D2F0175
BC0E0C9E
3CE7D999
3D4866A1
3C685FD0
3CBF8B9C
3C87F024
BD10B524
3D309FA5
3D3E3C10
BC91537A
3D98023A
BCB55AC0
3D212407
BD1800A8
BCB2031D
BD49A672
3C3C0E39
3D5058DE
3C43E319
3C8A6B94
BDB532E8
3CF8CA82
BC9E8816
3DA41EDE
BD4DC444
BBFACE68
BD8826AB
BD0DA3C2
BD1BE1A8
3DAD3309
3D3502AC
BD8BD44A
3DAE696A
3D1EA572
BD828BB1
BCFDB09A
3C76F4BF
3CCAA327
BDBA97E1
BD072F34
BD81AE71
3DAC88A4
3D6D1D04
BC5C4C9D
BD68AB50
3D844524
BC87E9D9
3DB70EF5
BCE6A338
BD0A7504
3C181388
BD956DA0
BD2FE719
3D770AC4
3DA6EB0B
3BCD5305
3D923572
3AF861A6
3DB122B8
3D4E0A85
3D26E32E
BD6AE8E2
3CAA0A96
3D16A487
3D82F380
BD476295
BD7A51A0
BD140032
3DA56EF0
3C752FC2
BC814941
BD5816AD
BCA70D20
3CA7136A
3D78EC10
BD544BB2
3C344E51
BD63C105
BCD57DE1
BD664C30
3DA4180D
3C680BED
3BE68E3F
BDA2A4DB
BCEA337B
BD8448CF
3DBDB65F
BD11793A
BD2E1587
3D9A47AA
BCCAC6CE
3D26F60E
3CA24463
3D26D7A5
3D652BD4
3D876295
BD9C200C
BD84C2F8
3C6A033E
BD494D51
BB79A06A
BBC53B08
BCBAE46D
BDABDD33
BCB17EFE
BB206EA0
3C3FE7E2
3D92D773
BD97A67A
BD63A8E7
3CDE8922
BDB1A5CA
BD7A743A
3C03B603
3CD11BE7
3C531338
3D0ABB45
BD843569
3C2EDDCE
BD993922
BD2822FF
BD37A1C2
3D9AEAB8
BD7C86CF
3C45CDD5
BD9F7BE1
3D512989
BD28EF78
3C00D802
3D86C4C6
3D82CE46
3D9F8B15
BCCC319C
3DA3EB7D
3D42C0A5
BD9107FB
3DBB0707
3DA3F898
3D3FDF7F
BDAA9D62
3D0F5F4E
3D963F57
3D7419E3
BA21BE2B
3D877EE5
3D1B1A6D
3D6B9F56
BCE9D0EA
BCE3F35A
BD8F4624
3DB12FD3
BCF518B1
BD8F605B
3D8A3832
BC1AD85E
BD399913
3D687A07
3D0D6C2F
BDA2AA19
3D6BFCA8
BD96F9FD
3DB33B10
3B95B78D
BC34F616
BC70068E
BD97A67A
BD961805
3D9D06BC
3CABB235
3C28112C
3D8FAACE
BDA08BFC
BB8BC9CD
3C896FEB
BC8420F7
3DB02FF9
3C0409E5
3D34B1EE
BD67BC3C
BC1C90C5
3C30D0EE
3D434D27
3C892EE8
BDB294DD
BCE7FD3F
BCA3FEE3
BD8BC7B4
BC7CB0C0
3C397354
BCF822BC
BD282B63
3D58A00A
BD436DA8
BCBF5947
BBC00DA2
BC8F5C29
3C5C0DB2
BD53AA37
BBB88440
3C42E33F
3CD805E6
BDA5B424
BCCFAEFF
BD953501
3C1374BC
BD2BBA99
3D09DAE0
BD59578A
BD807464
BD128F19
3C529995
BD24BDBA
3CA9003F
BC95D91B
3D01C3F0
3D4AED9A
BD8BB44E
BD6A9B4A
3D23FCCA
3D1BFBDF
3C9D1B2E
3C8FDC16
3C21D324
3D8E4C0E
3D89B62C
3DBCFFEB
BC8B2208
BDA4D1A6
3C20BE51
3CC2070C
3CD9EC70
BDB2873C
3DA6E4C1
BC13BC0A
3D773190
BD6A36A0
3D88D75A
BD8131A9
3DB6D762
3D329A1C
BBD905C0
BD21C044
BD84DA90
3C8205FF
BC90880E
3D1804DA
BCC32874
3D822DD8
3D080304
BD9148FE
BD11AEB4
3C6A78AF
3D957D5B
3D8B1CC9
BD79218A
BD190C0B
BD900DE5
BC470004
3DB32618
BD9E4FFD
3C662995
3D3BECAB
BCB4D489
BDB1FA33
3C4D141A
3A5AA0CB
3D14CDB8
BCE62132
BD4D26FA
BD67008A
BC413FD1
3D5D5A18
3D9E85FD
3D5E6256
3D9E49B2
3DAA2D30
3D327243
BD5F6A94
BD97BB73
BD8C6AC2
BDBC2092
3BF3BA77
BDAE4E27
3DAE8295
BD586552
3D3647BB
BD388228
3CE78184
3B6EAE9F
BC9D4307
3D0DC012
3CBB1290
3D5AF188
3DB20EA6
BC8A393F
BCF0B8D0
3CF1A7E3
BDB26C7F
3B081E47
3D8C0725
3D80828C
BCB65450
3D17268D
3C0F1D3F
BD502EEC
3CC2D8C3
3B763800
BB5CCA71
3A6F1349
3C064021
BDAFC265
BD9B4E55
BD306E5D
3B17C808
3DBB76B4
3BBA5A04
BCD9F905
BD807AAF
3DB4B407
BD12D667
3D20AB71
BC3D7F52
3D28A0D3
BD68CEF6
3DB57DE1
3C5551D7
3B88BDA9
3C09C5E7
BDA12A52
BD8027D9
BD9EE3D6
BD826784
3D9AED57
3D959A31
3D756B87
3BDAD320
3C31E18F
BDAAF46B
BA3E9425
BDA603D5
BC2F78FF
BCC727DD
BD429281
BD3FAB11
3D966E87
3D5C0B9A
3CC89D28
BC31CC96
3D1DD096
BD1D8E86
3D10CF5B
BC431594
BD3FEF39
BCC92578
3B8B4396
BD0BEB5B
BDB34DF0
3D2BA494
3DBC065B
3D23EF28
3D7DBD30
BD82A4DB
BD185BE2
398A697B
BD8E67D7
BCB3FA6E
3C8E043A
3D8D844D
BCF42353
3C8C825A
BB19AE92
BDAAD9AE
3BA12F90
BDBCE960
BD1205BC
3D95B1C8
BD385943
BC80F55E
BCB708AB
3D8BF2B2
BDB333B9
3D96C58F
3B63369C
BD68DC98
BC5451FC
BCA465A5
3D693AF7
BD84E9C4
BD8400FC
BC04662C
BD141206
3D5BDE83
BD553CDE
BCE3BEEC
BB982CB2
BCFFC979
3D2A9A3D
BBC77575
BD83C18B
BD4BFD2F
BD9FB374
3D34A44C
BD5C970F
3D9743E9
3DA45A1D
3DA9C1B5
BC87FCB9
36EAE18B
3CACAFF7
BDAFE048
3D5D9B1B
BD88CBD1
3D35B3E1
3D39799E
BC49F2FE
3DAED890
3C4914B1
BCA89DAE
3D914B16
BD60D563
3C92923E
3D69A6F8
BC7BB949
BDABA5A0
BCAF2B67
BB849CB2
3DA15443
BD8DC982
3D535C9E
3DB1BBCF
3CB21816
3CDD701E
3CB32F01
3DBA658C
BBCC9A78
BBACAFF7
3D9C9E67
3D2C0F88
BD346DC6
3D9A311F
BD7F327B
3D7A3FCD
3D5F6124
3CBB213E
BD95E84F
3CB81D7E
BBD16335
3DA8B008
3D23BEEC
BD67A52B
3CA1CEF2
3D85B292
3D6514C2
BDADBD73
BDA0852B
BD9C93EA
BD2D0B31
3C127914
BC069835
3DB082CF
3D2AC860
3B496463
BCAB3CC5
3D887A8D
BCC13123
BD9BC2B9
BCFF4129
3DB73F31
3D1F70DF
3D1BC98A
3DA55A7D
BCC03148
BD243ED9
BD19988D
3CB0B179
BDA9F05F
3C946C33
B9CE0B91
BDADD830
BD77AC3F
3D946131
3D94DDF8
BD3A83F5
BDA8CD64
3D8BB0A3
BC9528F2
3CAE8C05
BC4E9A2C
BDA84381
3D9F4235
3D835611
BD86E222
3D1E364C
3DACDC87
BD416CE8
3C1D3CBC
3C781A58
3D0B6417
3D25FFA4
3D88C2E7
BD4904F7
BD722079
3D3B6ED6
3C8E38A8
3C7926C8
BD9B22D1
BCAAA7DF
3D9F5CF2
3DB4AFD5
3BDAA92E
BD234656
BD502ABB
3D20C8CD
3C6C17EC
3D63F466
BC886163
BDABD7F5
3D8D2029
3D80181E
BCBA40D9
BD295D92
3DAAAB8A
BD3E3E29
3AF25A25
3DAF533F
3C64E26D
BDBE236C
3D1E4D5E
3B99E94B
3CA96D4C
BDB1F70E
BD643351
BCC95183
3DB5C8DA
3BF355CE
BD8AB92C
3D804641
BD6541D9
BD8F95D5
3C37B289
3C6B5B2D
BD9DE508
3DBE0C5B
3D257215
BDB30CED
BCDD1C3B
3CC0A6B9
BD91A75D
BD562175
BD9C2870
3D1E8709
BD8452C6
BB9331A1
3BA9D628
3D19285B
3C1FF4FD
3CD3953E
BD65D7CB
BD7A1E3F
3DBC7E6B
BD6C53B1
BDB39086
BD2F049B
3DA77575
BD603926
3DB973DA
BD69BE0A
3CA5FE97
BB8B75EA
BD834656
3D273C4F
BD88A505
BD21693C
BD91FAB9
3D9C6FBD
3CDCC426
BD993038
BBA7BD49
3D850DF1
3D2AEC07
BC940571
3D61C369
BC9A1123
BDAEB570
BD63DD55
3D98FFFC
BCCF398F
3C286D72
3D87F801
3D137C13
3D2A960B
3D36CEFF
BCA2A2C2
3BE90364
BC9780BB
3CB810E9
BD00D2C4
3CD729B3
3D83A4B5
3D9CA9EF
3D9EBA6B
3C1B413A
3D597F63
BD84A59C
3DA4E93E
3CACFFA8
3D572ABF
BDB3FEA0
BD835936
3C2F07C0
BDA60568
BD8E68E4
BD5C0FCB
3D5377E2
BC5BA0A5
3DA46F9C
BD65907E
BBC7863C
BDB4B513
3DA7A312
3D2EA52F
3D6A78AF
3D79C94F
3D490F73
BCA3F466
3DA1F18D
BD21BF38
3D05B6C3
BD771002
3CF0E6F3
BCAC2DF1
BCDFA227
3CDA6613
3D5A77E6
3D9ABEAD
3D49A027
3C7676EA
3D5E56CD
BD3D20F3
3BEE30CB
3C34245F
3D2A91DA
3DAC1334
BDA94680
3B89A88B
BD5D3240
3BFB86F4
3D131551
BD0A0A0F
3D57635E
3DA78E19
BCD29DC7
3D81C476
3C9AA609
3CC88E7A
3D7D75E2
3B5EB0FB
BDA38002
BDA48388
BCC195CD
3BFFD1DD
3CCE3BCD
BD46338B
3BA1511E
BC486CEC
BCA39820
BD390D9D
3D7D61F6
BDAD6ECE
BD468662
BC70BAE9
BCCBC05D
BD22C12B
3D37542A
3CE66CB1
3CECDAF5
BD8BE597
3CF2B021
BD42C0A5
3BE2C12B
3D30446B
3D2D1D04
BDB9E493
BD5A4DF4
3CBFA094
3D81CC53
3CA25743
3D99E386
3CA554B9
BA895D0B
BD5D7ECC
BDB361DD
BDBC2B0F
BD26F60E
3C4C1440
BDA1CF78
3D007DD4
BD8C89B1
3D944567
3A86162F
3D124AF1
BC591687
3BE05469
BD8AC29C
BD550764
3D153AC5
BD86DC5D
3DB1600F
3D627BF6
BD165D3A
3D75E84F
3D9D40EE
BA067AD9
BD2F8056
3D3A27AF
BC798FA3
3D6495E1
BD596B76
BD0549B6
BD0F7553
BD88BC17
3DB8C21E
3D7E260B
BC612620
BDB02ABB
BD2BD6E9
3D501190
3C877681
BC0A71DE
3D7F0996
BD885B18
3D0E4EAD
3D17A461
3D1A8AC6
BDBC5155
3DA790B8
3D766F93
3D63D2D8
BC648A59
3D22C01E
3CF05C89
3D96FEB5
BC3D8BE7
BCAFB7E9
BC79378F
BDA3FE5D
3D0D7BEA
3B219C9D
3D7193F7
BD2A21A7
3C91AB8F
BD6784A9
3D3A80D0
BD53586D
BCFB3743
3B60A84C
3D5F47FA
BCCCD530
3D034A02
BD425072
3C0D1959
3998915C
3D0DAE3E
3CE69F06
BC298245
3D60D131
3D2552A0
3D55171E
3CAF965B
3DBA20DE
BCEBC1F0
BD232F45
3DAACC0C
3D91BAC3
BC45AC47
BD206B7B
3CC942D5
BD3E553B
3D6AC109
3D4B8E08
3CD92967
BD779314
BD67C9DE
BD192642
3C08CE70
3C252264
BCCFD8F1
3D9816AD
3D22C669
BD0EBEE0
3DA90E67
BD9DADFB
3D86D938
BD5E16D7
3C11793A
BC9EA572
3D3BA882
3C63193F
3C75BA2C
3DA1AAC5
3D31FAB9
3D558FB4
3CE15012
3CB078D9
BC805A2D
3DBB9496
3D3E1006
BDB6EA42
3D7CCD10
BCB05D96
BD39CF9A
3CF446FA
BBFCAC8E
BD87E38F
3D1BF26F
3DA4A622
BCD17A46
3DBD2D02
3DA433D7
3D8E4EAD
3D9B2B34
BD2F1BAC
BD614270
BB50891A
BD63BCD3
BDA8C048
3D01E14C
3CB09C80
3DBD1FE6
BD8B851F
3D96D3B7
3C235504
3D9F5B60
3CA15B9A
BDB6DF40
3DBE2691
BD213A0C
3CEF2E8C
BD7CB5FE
3DAE93E2
3DAC9F30
3CC3C9EF
3CF4C2B5
BCFDBF48
3D9C3266
3D87A205
3CBB3637
3DA7CE10
BD9761CC
3C0F8A4C
3CA8EF78
3D3633CE
BD858601
3D7EE1BD
BD6E7C4A
3C52D880
3DA12C6B
3C330F8C
BD9EF30A
3D37ED42
3D22F05A
3D85C67E
3D576252
3C3734B5
3CE8A937
BD7E8145
BD3EEF5F
BDB49C6F
BD61A71A
3D880496
BC52DCB1
