3D9B341E
3D9C31DF
3E07685A
BE27E73A
3DF59D56
BE024031
BD5B0468
BDD0A88F
BC8E410B
BDC4E486
BE0AB325
3D89ADC9
3D54D0DD
BE1174C5
BE2ABEF0
3E22FC26
BDA528AE
3C37C350
BE28AB93
BE0636F4
BDF3CAB8
BE1FE719
BD3B9064
3C9DFDAC
3C7DB8FE
BA2E1049
BD497311
BE188872
BD9BE22E
BD8D245B
BD48E25D
3D1742DD
BE0A1449
BDC6F0D0
3BC18F82
3CEE978D
3CB99B2C
3E2194C0
3D90EA18
3C8BDCAD
3E130A0B
BDA3BABA
BE269403
BDD03537
BE28AEFB
BE2DCBDE
BE1ECC81
BDBCEB79
3DEAD363
3D667F91
3E0954A8
BC931A8F
BDC3C298
3D7D2418
3D4C069E
3D226C3C
BDA2E98A
BE0BF056
3C3430F5
3DD0A676
BD6DDACF
BDC34656
3C9E18F0
3D9BB949
BE08255B
3DED4456
BE0B9B24
3E2E6E65
3C3E553B
BD8FF6D3
BD6E17A0
BE0D8559
BD3A1F4B
BDC14AD3
3DADD69D
BE2D9C28
BCB354C1
3E0CC1CA
3E001DE2
3D8D4ED3
3DFB9AE1
BBD8DBCF
BE1E3B8A
3E2DF7E8
BDD66384
3DEF7015
3E1D85E0
BE1F440B
3E1A28BB
BD8031CF
BCAF598A
3DC8A47F
3DA26F61
3DC20AB7
BD1374BC
BC0DA7F4
BD85F202
3E0A66DC
3E2A493D
BE2F5515
BE2D5992
B98D0892
3DB77F28
BE2F2E49
BD2D5172
3DA7685A
BDC1C044
3E203926
3DFC297C
BC1F8C22
3E0733EC
BAF5A101
BE0B484D
BD1BFBDF
3E1CDDD7
BE141CC5
BE1811F5
BE238E2A
BD7E846A
3E041398
3D8353F8
BC90342B
BDFC0A8D
3BCF52B9
BE2DFF82
BE161459
3D942FE8
3D8A17B1
BDDA3A08
3E0F0457
BE226EDB
3D10C3D2
BE0FE586
BE2774EF
BE20D738
3D8EFC37
BDCD3A60
3E05E52A
BDBB9BED
3CB1F688
3D93BEA9
3DC97F20
3D8EC205
BD6E514C
BE02F76E
BDFF4667
BD21986C
BE1092CD
BD28A0D3
BD5FC2A9
BBEE17A0
3D293294
3E2EA572
BE2CEB35
3E2A2941
3D262AA2
BCBD46B2
BCCC74B8
3E2EDC7F
3E1FC372
3CC88C61
3E1B484D
3E205921
38EF1349
3E1A8D65
BE070197
3C58409E
3DCDA5DB
BD45A2D7
BE0172AC
BDE25E9A
BDA6C97E
BE17CF5F
BE1EA3DF
BE2B5C3A
BD6CE358
3E1DFCE3
3E2481F5
BD5CE182
3E158A76
BE27C569
BD61E3EB
BCFE4367
BE1AE148
BE2B5287
3D0399B3
BDC3ED96
3E1E2435
3DBAF3A1
BE14B4D0
BDE7D912
3E02EA53
BE21C4B9
BDB0A138
3E1AB042
3DB19610
BE19EF52
BE1E7D9A
BE072A39
3D5EB852
3DBE9186
3E0D3A1D
BE278E9F
BE236695
3DACA362
BE09E7B8
3C555608
BD826FE7
3DEEBDD3
3E1AE18B
BE2722E2
BD2E72DA
BE2A10E0
BDE72EAE
BD9AA3F0
3CE3B257
39E6AFCD
BE2C8A7A
3D81144D
BD020C4A
3DC4FD2A
3CA3E5B8
BDB91EEB
BD2D4D40
3E299913
3E1C22AB
BDA55433
3DC75E63
BE015A08
3DDBF1E9
BE0AE6C9
BD7A6373
BDDF9485
3D5A2B5A
3E2B9C30
BCCE67D7
BDF20104
BCC1094A
3D3E8790
3D8CF4A5
3CC96AAD
3E2D7E02
BDCBF65E
3DDD2B6F
3E013448
BDC6A8FC
3D85B963
BE1D7B20
3CDF9379
3DD145D8
BDA30447
BE0EAF25
3CFC88E8
BE2B5F1C
3D496031
3DEC2ACC
3DDA02FB
BE22CC71
3D506467
3D8F68BE
3C473ABD
BE0244A6
3DDA5B10
3E252C9D
BD761AA4
3B22A90D
3E1351DF
BD967D35
BBC7863C
3D16E04C
3DBCBE62
BDDD0FA6
3E2D26B7
3BAAA7DF
3D662889
BE1D4174
BE11CBCD
3E12680A
3B856E69
BE00C6F8
3D3953DF
BDACFBFC
BD0FCF81
BC991362
BE0F5904
BDE08399
BC2A2E3C
BD6E7E63
3E1DDA8C
BD948345
3D9A682B
3E0E364C
BD8FD977
3C288F00
BD63A4B5
BD18E970
3C8DA3C2
BE27820A
BE2F7CEE
3D9EABBD
3DE5C033
3DF498C4
BDD79075
BDDFC654
BB276102
BD44AE86
3D9CA31E
BE0D9DFE
BDFF61AA
BB4D3177
BE23E5FB
BE2E275B
3DC0DFDF
3D396BFD
BE24B6A6
3E1A21A7
3DD73648
BE2D76AB
3DE8094E
BD39AF19
3DF5F4E4
BCFB84DC
3E11DABE
BCE94680
3E2ECB75
3D5BBADC
BDCBBF51
BD9E3EAF
3E0C32A9
BDBCF67B
BC87CE96
BE06DD6A
3D7A51A0
3E1DCC64
3DFED289
BD1578A3
BDCFCCE2
3C7C5048
3DE1376D
3E2BB59E
BE1E4B02
3E01FC4C
3DF8F473
BD9D27C4
3D63E187
3E00DD83
3E0203E6
3D1BDC6A
BE2257C9
BDDEFE0D
BD77A1C2
3D1A005C
3E157FB7
BE074D59
BE1C7EF1
3E1303C0
BBC1FC8F
3C40010C
BE21105E
BC293F29
3DC29846
BD276D98
3DCC0DF6
BE2E657C
BE2AC860
BC9A4DF4
BE2EB4A6
3DB72FFD
BBA7C5AC
BC9DA9CA
BE24B6E9
BE1C14C6
BDB5592E
3D625FA6
BDFBB0E6
BDEF9336
BD793FF2
3E2D0E56
BD55D2D0
BE0460AA
3E2040C0
BDA05682
BD6A50D7
BD1C63AE
BD873605
3E05F3D8
3CA2D517
BDD21DDA
BE10C6B5
BE235D68
BDDE9318
3D1A176E
BDEF5FD4
3E09B563
3DBF3ADE
3E1FE154
3C936E72
BD9BF2F5
BC8EDC3C
BDF9EA57
BD406184
BDE37154
3DC9BD84
3DB518B1
BDBD084F
3DAE2004
BCB01EAC
3D53F291
3E07D7C3
BE2CEDD5
3E160D02
BE017B53
BE0B5D03
BD0B124D
BDC606FB
3DF5F5F1
BCAD490E
BC76BE38
3DEDA4CF
BE1657FB
3C128177
3D9F5F91
BE1CB641
BDCF6BE3
3CEDB50F
BE110ADD
3E1F22C0
BD84E37A
BDC81F54
BDE37931
BE24F50A
BCCF0B6B
BD413B9F
3E08D8A9
3D2F7F4A
3D1C8323
3DC7DBB1
3DEEE17A
3C987619
BD94DBE0
3E0CB31C
3E2DAE82
BE0167A9
3B28E2E3
3D9C0B13
BDD7CE53
3C893965
BDF9902A
BE08BDEC
BD3AE46D
BDC2C5E3
BD844BF5
3C45436C
3AC17657
BE1061C8
3D2D5BEE
3CAC5C14
BD9D8F93
BDF38B48
BDF8904F
BDA07358
BD6A337B
3DE0AA65
BDC183F9
3CA4AADA
BDE703B0
BE2D1B2E
3DF07FAA
3DAFE9B8
BC9C5C57
BD06034F
398205FF
BE09EA9A
BC1B8CB9
3D8A4767
BDFFFDE7
3BFDB8FE
BE1A52AC
3BB8F9B1
BDEF1BAC
3C591255
BD23FBBD
3E0EE6B8
BE1B599B
3DCE05CD
3CF75968
3DA43915
3DB6E697
BDBA543F
3E28D2E5
3DE5CE5B
3E0E9DD8
3D936263
3DB07D0B
BE075D57
3C45EB31
BDDA5871
BDD9B888
BDE0AE97
3C9E0610
BE05C63B
3DBD0FA6
3E21B75A
BE07DD87
3E1E581D
BDE0F883
3E1835DF
BD32EAD9
3C88BB90
3E269B17
3B99FA12
3E09ECF6
3DC794EA
3D703E21
3CD4EB14
BDABC1F0
3E12D1F2
3CD03105
3DFFB268
BDF30D74
3CE74081
BD6E2542
3D95AC8A
3DB86983
3D69424E
3DA00DA2
3CB178B3
BDD42353
3C8B47C7
3D981840
BDFC675A
BCE0B4E1
BDA54DE8
BE241DD2
BD85ACCD
BDC7485E
3D8F123C
3D6D1288
BDAF4949
BD8DD3FE
BDFC371E
3D871609
3C92C062
BE0495E1
3CB29C34
3E2E236C
BE13A861
BDBACCD5
3D8FEBD1
3D3E468D
BDC2D83C
3D196638
3E09B77C
3E22CCB4
3DD7B396
BDC74AFD
BD8C111B
3DF8C005
BD7E9531
3D0A8199
BB996B76
3D480629
BD92F7F5
BE139192
BC719935
BD88C0CF
3E13B752
BD675686
3E072431
BC262670
3D232B13
BD5E7EA6
BDADD3FE
3E1DEE35
3DCC4263
3D584F4C
3DED78C4
3DC154CA
BE29C800
3DA5553F
3DF313BE
BD9FC090
3E08405B
3E185C68
BDF48E47
BE2EE02A
BC460CBF
BDB9E6AC
BD0855DA
BD3ABDA1
3D053F3A
BE0F7AD5
BD954D1F
BDE5A46A
BD92DD37
3DB2B7FE
3E046E8F
BDDF0D41
3E2533F4
3CADFF82
3DF369BA
BCEDAA93
BDEEE6B8
3E0235F8
3DD0E0A8
3E15BAB2
BD99335D
3E1C9B84
3D31F46F
BDE431BE
3C9B951C
BDEA6FC6
3CF11B61
BDDFF9B5
BBD6DC1A
BD352EB6
BD94141F
3B6453D2
3AA8D21C
3DBDE93A
BBC86057
3DD81C71
3DFE78E2
BD963F57
3CA465A5
3BE392E2
BD27C4A0
BCDCA8E3
BDC61E0C
BD9E39F7
BE0E9814
3D08DB05
3DF8DC55
BD612C6B
3E043B71
3E0D6F97
BCB80453
BCF14DB6
BDB7824D
BD261D00
BBD1AEB4
3D1D15F0
BE154046
3DDD9F4D
BDFCBCCF
BDF608D1
BCD30CED
BE1E3C53
BAFCD680
BDE897EA
BD8BBBA5
3E2917D7
3DDBFB59
3DE92E62
3E08F191
3E21715C
BE00ACC1
3CE15CA7
3C5E2EF5
BDF3A0C7
BDC5FFA4
3DBBFC65
3DED4A1B
BE27A7CA
3D8C59FB
BD744E51
3D507B78
3DA59296
BE0520D1
3CE7D34E
BDB5D895
BC211A97
BD906CCA
3E14C37E
3D9825E1
BD93FE19
3D627D03
BDCC0CE9
BDAA1BE3
3D6E17A0
BD7485E4
3DDF7597
BD89CA19
BDD71C11
3DFD8C6D
BCCBFF47
BD966730
BE018506
3D6937D2
BDDE4474
BD00FECE
3DBC1CE7
394D8559
BE0A0AD9
BD8E7FF6
BDA829D0
BD2A9718
BE003793
3E106DD7
BAFA9C13
BDB3A259
3D5569F5
BDCE770C
3CC73040
BD953932
3DD6837F
BDAA454E
BDDDB984
BE27BB30
BD7224AB
BE1DFCE3
BDA4F54D
3E1601BD
3E0078D9
BD9714BA
3DCA7CE1
BE28A71E
BDC2FDFC
BD8ACAFF
3CED45E9
3E2BC87E
3DC97529
3C72F124
3DE27419
BD0AAFBC
3DE6FA40
3D26CD29
3CB5F5F1
BD508C3F
BE063CFB
3D011C2A
BDF0C34C
BDC3EC03
BD02DBE8
3DCF91A3
3E2E019B
BD46F263
3E06F2A6
3CAA2E3C
3E2C193B
BDA0EE07
BD16BFCB
BDBE3865
BD49D389
BC2044AF
BDF7F499
3DF54E2B
BDB6CE79
BDBCC63F
3B9307AF
BE0FBD6A
BDC02AFE
BDCFC697
BDDA5226
3E18C8EF
BDB8D36B
BE191BC5
3D7BA12B
BC84F6E0
BDCD2D45
BE1CE4A8
BB2D14A1
3D3F151E
3DFB09A6
3D0A9CDC
BD232096
BD4BCDFF
BDCC5868
BD58904F
3DEB67C3
BDCAB820
3D3DA61E
3DBADD16
BDC0980B
BE0045FE
3DD16335
3E2C32A9
3E00DE4C
BD81450F
BDFC98A2
BE10AF1D
BDE22FF1
BB9667B6
3DF40464
3BFCAC8E
BE1BC5DF
3E2D6452
3DD8793E
3C2337A8
3DD5F3D8
3D74C1A9
BE16AA8F
BDFCB685
BE156473
3E077A2D
BE11A869
3DFF8013
BDB6F8F0
BD21522A
BAE991FF
BDBC7043
3DB72E6A
3C230121
3E0617C2
BDD8982D
BE00B806
BD5712A1
3E11E18F
3E15C465
BD11ADA7
BD1186DB
3D1ACBC9
3C0ADEEC
3E1343FA
3D2516DB
BCA8BB0A
BE15F56A
BE1AAEF3
BDBC5A3E
3D9F88FD
BE2B0D95
3DB4DBE0
3C9F9AD0
BE2D612C
BE1B5E53
3D693E1D
BDF864CB
3DD14F48
BDC9EF52
3C9591CD
BE2D8128
3E285511
BCDF761D
BE2171E3
BD0347E9
BDE158FB
3CDCAAFC
BC068BA0
BDAD60A6
BD90763A
3D935654
3DBBA776
BDEB46BB
BD378466
3E2A5CA3
BDDDD5D4
BD83547E
3E1B5ED9
BDACF52C
BDFB9CFA
BD1C50CE
BDDAE686
3E180A9E
BC15C422
BDC08180
BDB6084A
BDC17332
BD8C4BD3
3D5E15CA
BDB34480
3D7B7B6C
BE0D9664
BDFCA42B
BDD6E8B0
BE273322
3D921CCE
BCA3810F
3E0704FF
3D80BFE4
3DD8E758
BDF3D189
BCDC4EB5
BCE032DB
BDB2BF55
3CD349BF
3E261C7A
BDC6AFCD
3D7586CB
BE09945B
3E1E9920
BD13EA2D
3E144567
3DCCA9AC
BD88C2E7
3E222A2C
3D902795
3D4C154D
BDC0B34E
3E1A94BC
3CA24031
3D3A52AC
3E1368AD
BD904F6E
BD526E98
3D9C7475
3A62C12B
BE2239A4
BE1A105A
BE2C6584
BE234E77
BCB636F4
3B177425
BDACB3A2
BDBF383F
3DAC3E32
3D30A0B2
3E009E99
3C78D2E5
BD1668C2
3D40B780
BE16B0D9
3D9FEC9A
3CAFDB90
BE2E9920
3E27E2C5
3BA7C5AC
BC46E2A8
3E280C31
3DC5C897
3D2F61ED
3D784231
3D23CB81
3E1FD8F1
BDD05532
BDBA187A
BC815E39
3E08C32B
3D2E275B
3D9A4B55
3E044029
3DC5BD94
3D582A99
3D8A0C28
BD405D53
3D2B0B7C
3DE769EC
3D1974E6
BD0296B3
3D0F41F2
BDA067CF
BCB5525D
BBCA03C5
BE284BA1
BE2714FD
BE24A7F8
BE1D3C36
3E11797D
3D4E12E8
3D526202
BD4C4589
BE1918E3
BD0B2A6B
BD9EA5F8
3B965F52
3E1080B6
3DA83C29
BC8181E0
3E1AD8A1
BE233FC8
BD16872B
3D9F5F91
BE1A9585
3E2164C7
BE064A5A
3D70A0B2
3D3340D5
BD6889C2
BDCA19CA
3AB60F1B
BD809FE8
BD302928
BDF2B021
3DC2339C
3CC3AC93
3DA4241C
3E2D013B
BE2208E1
BD1116A9
BDB075B4
BE206855
3B898F60
3DEF08CC
3D7708AB
3DF17D6B
BD44944F
3D987054
3B28B08E
BE20D34A
3DC89D28
BD7F77AF
BD846B6A
BDD5A20E
BD95D2D0
BDF28E0D
BD587A4A
BC310774
3CB37A81
3E150870
BDF16095
3E262175
3D263843
3D1EBA6B
3E2C1EBD
3E04A1AD
BE1650A4
3E1D5843
3AD3AE68
BCA94142
BE228D00
BD5729B3
BD248302
BDD636F4
BDC9D5A2
BDB65450
3D673B43
3E21669D
3DC8E9B4
3DA35697
3DF9FC2B
BADF58C1
3D7457C1
3DB5A74C
3D7AD29A
3DBD65A1
3D914E3C
3CB1897A
BA83FD50
3D2F2E8C
3CCC7F35
3D9E7C8D
BC0900C5
3DBE835E
BD9CF67B
3DEAEF2C
3E0CF894
3D47B13A
3C3C126A
3DF85CEE
BB4E4EAD
3DA37D63
3DC8E150
BD377186
BD8CC3E3
3DB27E52
3E134268
BE10D0AB
BAC9320E
3E11A0CF
3E025D4A
BDF7DFA0
BD66E760
3C9DDC1E
3D89FF93
3D31F14A
3D57FC76
3AE9D51B
3E008E15
BD0D7ADD
BE1F1B26
BE1B29E5
BDEE59B0
3DF4E54F
BC982A99
BE038C97
3DA37AC4
BDEBF877
BE04217D
BE01140A
BA1CC31A
3D210ADD
3D422681
BDC730C6
3E2A9FBE
BC3AC2DF
BE044285
BC7E974A
BB870974
3E0CC250
3CE134CE
3D9B328B
3DE57D18
BE1220FF
BC79591D
3DCA033E
BDF6F976
BE050BD8
3C8984E4
3DD991BC
BC66D15B
BE237E2C
3DBA94BC
BE20EAE2
BE11C865
BE297204
BDF65E46
3D2964E9
3D3C48F1
BE030A91
3D934613
3DEC6AC2
BAEEF1BB
3DF2C301
3DB19EF9
3DCC404A
BD2BAE04
3D1D9E41
BD92D773
3D8E69F0
BCC9949F
3DEE74F3
BC9830E4
3E0139C9
BCABB667
BC8E6F2F
BD8DB6A2
BB5D50A9
BE0184C2
3D4FEDE9
3D0DEE35
BD1309C8
3C5BCEC8
3E1FFAC2
3C1E12A5
BDEF038E
3DC7620F
BDA153BD
3DF26AEC
3E1DC619
BD7FB481
BDE8ECD9
BDDBF9C6
3DC56D5D
BD3506DD
BA59D777
3BFA58F7
3CBBADC1
BB8B6D87
BDD5BCCB
3E025919
BDF213E4
BD233BDA
BD88997C
BD993251
BCBD944B
BD680496
3E1A1166
3E2C610F
BDAA62AA
BE1F8A09
BE13586D
BD2C5D20
3DDEED46
BE0183F9
3C2BB880
BCCDC012
BDB23AB0
3E0676EA
3B901D19
BD9E7C07
3D6EB4EA
BD976CCE
3DB87AD1
BBCA0C28
3D67381D
BDF775B8
BC92AB69
BD2A51E3
BD884E83
BD5EC3DB
3DE34763
3D124E16
BC4C4695
BDE5EB31
BE2E4BCB
BDB1DA38
3CAE89EC
BC1131EC
BCD33B10
BD27B80B
3DCE43AA
3D96DDAD
BD437500
3D704578
3D44F4C7
3D01F85D
BDBA5C1C
BE0468CB
BDE962D0
BB2E9681
3E1D05F3
3DC4EE7C
BDD0995B
3DB6E04C
3D8C3223
BDC3D2D8
BD3164C7
3DBE0829
3E06933A
3E030596
3D79C94F
3D990D9D
3D77E5EB
3E078DD6
3D3E6C4C
BDEB2852
BD8F07C0
BD9CCD10
3D51D474
3E2A2A4E
3D3CD35B
BDB5768A
3D59C9D6
BDE38E2A
BE05B20C
3D7A2164
BD445458
3E2DC875
BDD5FBB5
3DF3A81E
BDA2F167
BDA68BA0
BC97635E
3DAA9479
3D70F063
BCF85943
3DCFAE79
BE0010C7
3D94C87A
BDE22813
3C1C51DB
3DE8C719
BCA730C6
3D4507A7
BD951BD6
BD703AFB
3DE0F345
3D93ABC9
3D6871A4
3D856606
3E1FA00E
3E041744
BC32FA94
3DA730C6
3DB1AB08
BD42B628
BD868A93
3D90EC31
BDD8C32B
BD80CAE6
3D01E14C
3D6A704C
BE26D19E
BDDAC68B
BCA8E0CA
BDC1D324
BDC13CAC
BDC91B82
BD4DCB9B
3DB6D118
BC8767D3
3A677920
BE10D738
BE20F883
3DADEFC8
3D3E4ABE
3DF39FBA
BDCB380D
BE010D7C
BDA03AB8
BDB038E3
3D8F4491
3DAAFAB5
BD38023A
BE22702A
BDBBCCAF
BDD9BDC7
BE2797CC
3BA65493
3E2D4952
BE2B5B2D
3DE092CD
BD9C7DE5
BCEB1A2A
BDB4ACB0
BDDD5886
BD8BA40E
BDA8DE2B
BD91348B
BE12031D
BE19DBA9
3DB35EB7
3D898C3B
BDA13986
3DDA76D9
BE20FDC1
BDA33B54
BE182060
3DA8E044
3C672DA1
BD3C99AF
3D619FC3
3CE4A383
BE255715
BD90F94D
BDA213A1
BCD8E432
BD7C04C9
BD910FD8
3E19435B
BD73D189
BE2B32CF
BE0035BD
3E0D8F93
BDF7D6B6
3DB7292C
3E2E5EEE
BE0DF00B
3D21A71A
BD9593E6
3D9E670E
3D2B851F
3E0229A6
3E2E45C3
3D31C10D
BE20C283
3D68294A
BC3AD7D8
BDE426BB
BE198634
BDDC1509
BCF9CC75
3DE04F2B
3C222F6A
3D422574
BE2B75EA
3E1E1AC5
BD49A027
3E1EB28E
3D3D32C6
BDEF2629
BE1ADFB5
3DCEBD4D
3D98EC96
3DA39475
3DAB80ED
3E23C212
BE2E468D
3D408744
3E0802C1
3E00D90E
3DD36827
BE1EAFEE
BE18B9BB
3DE13F4B
BCBE2930
3D85CD4F
BD14DB59
BE1FFB8B
3D14866A
BD617F41
BD221533
3E25FE54
BBFE8251
3D6263D8
3E123D0C
3DE4BBA1
3A5F9BDC
3C9C23B8
BCEB4C7F
3C8A2A91
3D823D0C
BC1285A9
3DDD29DC
BBBC7B46
BE0647FE
3E23397E
BB59C6B0
BD47DD44
3D172CD8
BDCA8D22
3E1D8666
3C3AA583
3DC64DC2
3E162D41
BDF65BA7
3D862132
BDE901D2
3CC6173C
3C86705D
3E02EE42
3CBDC487
BDF701DA
3E0EEFA2
BB37A1C2
3E21C3F0
BC950764
BC1E1F3A
BCA4F00F
3B08509C
BD71465F
BD79D5E5
BDCF6CF0
BE09C5A4
3D3EA0BA
BE05C183
3D3151E7
3DC1C1D7
BE1E2824
3C8D4995
BD645A1D
3D00E9D5
BDEE0C17
3DEB4203
BCB5CE18
3E0614E0
BDB8F2E0
BE058EA8
3D8E2C13
3DE43ED9
BD9B3E9A
BDDD61F6
3E1FB8F5
3D98D046
BD0FD9FD
3E16F4BF
BE0EDE55
BDB21251
3E2D2C38
BDBED634
3E238EB0
3DC77F6B
3DAC6A3C
BD9B6567
3E2E23F2
BE0B749B
BCF04BC2
3DB19158
3B3FB15B
3C1C4DA9
3DA88484
BE00A201
3E23419E
BE0B191E
BDEEC8D6
BE29B2C4
3DCB1705
BE1815E4
3DC05708
BD35B2D5
BD306B38
3D858362
BD8820E6
3E2EA572
3D9DF655
BE2281BA
BE0F41AF
BE16A551
BDBCDB38
BB4AF70A
BD4C4263
BDCE5259
3DD3A4F8
3E061416
3C423316
3E015B57
BE2E64F5
3C00C73B
BC2D2DCB
3DE7BCC3
3D8AF683
3CBCD9A5
3E2C0C20
3E1F926C
3CE45A1D
BDA82CF5
3E184F90
BDDA11A9
BB8C5005
BD445DC8
BDF30165
3CC286F9
BDFDD767
BDD9FE43
BDD75FB3
BDBE3A7E
3D945CFF
3C8FC505
3D67B3D9
3E261416
BDCF177A
BE0D0636
3DA8CCDE
BCBEDFA4
BD906CCA
3D4B1CC9
3DFF4880
3CA87C20
BE019115
3DE5058E
BD20EB68
BD5DFDAC
3E1F6988
BDDBBF94
3E1B280F
BDD50DAE
3CE835DF
BE2AB8A6
BD1AFD11
3DF5FDCE
3DADC4CA
BCE11DBD
3B1CB253
BE0A6F82
3BABABEB
BDB55150
BDEF1AA0
BE27EE4E
BE20980B
3C19E94B
3D9337EB
BE0C4263
3E13C793
BD1729B3
3BCCB3A2
BDA91FB4
BDFC39BD
BDB2EDFE
BD3EC461
BE128D43
3D1CBDDC
3DF29457
3D13A3EC
BE04E65C
BD924639
3D31CC96
BCF166E0
3DE596C8
3E2AD85E
BD37F173
3DB291B8
3C153587
3DEC98E5
BE115BDD
BD979314
BD1348B2
BE01D7DC
3E23C46E
3D6F1562
BDE821F3
3C8B673C
BE1BD7B2
BE26B485
BDF6861F
3DDD9E41
BD356A7B
3E07BEDB
BD333765
3D8E9574
BE0507EA
BD89203A
3E190A78
3DFA21EA
3D90D520
3D27E847
3D034F40
3D8C1227
BD79713B
3DFC9F73
3DC67E84
3E0992C9
BDED0679
BD306706
BDDF00AC
3D5A77E6
3DF4C900
BD7A8501
3DF76684
BE206F26
3CBE09BB
BDCD1D04
BE135F3D
BD38FEEF
3E19F0A2
3B82491B
BC0112BA
BDDB84DC
BD557BC8
BD6594AF
BE2542E5
BD08398A
BE1E08AF
3E11B691
3D47B56C
BC931CA8
BDCA9D62
3BDDD6E0
BDB0DBF0
BD20E62A
3D206FAC
BE16C871
BDA16590
BE146499
BDF34C5E
BA3AE89F
BDC3454A
3DBC6DA4
3DB7963A
BD9CAB82
3E06F2A6
3E0963DC
BE0B71B9
BE18051D
3E252C17
3C004966
3D7E9963
BE2D099E
3C3C408E
BC99E94B
BDB503B8
3E2802C1
BDC40182
BCF3ECCC
BDD2630F
BDFA6BD7
3CAADC4D
3DF8FDE3
BE13BB41
BDE168B6
3DF4D489
3C98548B
3E0C5155
BC96FA83
3DCDBD73
3DC9C993
BC72ECF2
BD80E411
3E23C793
BD1D7881
3E07774B
3DE5CDD5
BDD800A8
BDB63A19
BE0B99D4
3D672325
3DCBD2B7
3DFEF6B6
BDAEF0AE
BC2CC921
BDEECBFB
3D77AC3F
3DD5DEDF
3DB675DE
BDE8C155
BDB3EB3A
BDA2B303
3DDF0F5A
BDE8A0D3
BC1830E4
3E1F583A
BD8A3AD2
3DFCAD9B
BC616D6E
BE14C943
39B912DC
BC4F355D
BE2A979E
BBCF9E38
BD87E8CD
3D1AE1CE
3DEB1AB1
BD0B2B77
BE277425
BD991DDE
BCF33EBC
BD96B2AF
BCA27286
BE220AB7
3E261672
BD24B44A
BD01B21C
3DEB5675
3D861177
BC41333C
3E2E2C99
BE26E697
3DAA8544
3E27B41C
BCB9799E
BE205426
3E07891E
BCC2BB66
BD2558EA
BDC3686A
3DC0EF9A
BD7965B2
BE1A22B4
BDF64F12
BE201B86
BD7D60E9
3DE62AA2
BE182A99
3DBBC7F7
BE0CF4E8
3CE1B6D4
BDBBEC25
BE10FCF8
3AE820E6
BD4D8A98
3D24F334
3E28066C
3E1721D5
3D70A4E3
3DCDDDF4
3DD93682
3DC5260F
3A7ADF2F
3D9548ED
3DDBE122
3E16B767
BD266CB1
BDC7F3CF
BDDF2B24
BE154A3C
3DD8255B
3D98DBCF
BE0C5C9A
3CF6922E
BE1590C1
BDC49D39
BDBF2FDC
BE173216
BDA95FAB
BBCCBC06
3E03B3EA
BD9D68C7
3D43DCCF
3D309D8C
BD8CB74E
BD65D9E4
BD4F3A9B
BC1E12A5
BD4B6630
BD512557
3CE4C0DF
BC97CA21
3CE53EB4
BE2E6AFD
BE26D267
3CD872F3
BDE67621
3E060525
BC91C087
BC8D92FB
3D6C2374
3E2059A7
3CC141EA
BD64A9CE
BD84DB16
3E071045
3D080F99
3E2F926C
3D8A0E41
3DF9170D
3CD4DA4D
3DD04923
BDABDD33
BDA19B91
3DEB7B29
3D8E02A7
BDDA059A
3C30142F
BE1F861A
BD7CE63A
3DBD7B20
BE1843C4
3D3F0FE0
BDDF1844
3DD74363
BDD58644
BDA169C2
BCEAC42F
3D7B70EF
3C15703F
BD1ACCD5
3D89F16B
3D45B6C3
BE18769F
BCFC58AC
3D078855
BD9563AA
BD7B1077
3BC23748
BC3252CE
BE2294DD
BD983276
3D1B62C7
3E0AD1D0
3E029E4D
3C85D52C
3E269835
BDABF7F0
3D8EC5B0
BDB44BB2
BCF763E5
3D426352
3D57BA67
3E26A401
3DE120E2
BE2DA0E0
BD41ABD2
BD26CC1D
BE29EC70
3DC07CC8
3C7FCDAB
BB49EA9A
3D086595
BD38194C
3D4C38F3
BE16F651
3C139219
3DFAD8E4
3DC544FE
3E03A96D
BDD06467
3E2C5C9A
3E1B862B
BD469E80
BD222A2C
BDFF316E
BD918F3F
3DE7ED85
BBA3B57C
3CCF7015
BE188616
3DB7E23F
BDE7AAEF
BD00B45B
BC15C854
3D878F26
BE29784F
BD0241C4
BDDB1184
BE0064AA
3E0C9FB6
BE2EC743
3E044806
BBC86057
3D482E02
3DD0C027
BC5C7AC0
3CB98202
BD73A14D
BE06C0D7
3DDC46D8
BE0EC0F9
3E093187
BDF1E083
BD0A8E2E
BDA500D6
3DF29DC7
BCEAB580
BD251C19
3DAC0C63
BE0466F5
BDBA07B3
BE00C38F
BDC6034F
3CFFE2A4
3E284902
BDFCE315
3DE8C048
BE045804
3C10F734
3D482E02
BD2D9275
3D946C33
3C83CF2D
BE00FCF8
BE02ABEF
3CABDA0E
3E231B9B
BE25E84F
BDFD4174
BDBB8130
3E12513B
3D3C1483
3D307F24
BBA23C00
3D9D3459
BE1DF0D4
BDE2E33F
BD6FDDA9
BD9AD96A
3D245C36
3D18B60F
3D85C1C6
3BDBF8BA
BE1B75EA
BDEB2FA9
BDEF11B6
BDE82A56
3DDECAAC
BDF70CDD
BCDB9C73
BDF27350
3CD02CD4
BE1865D8
BE2F7FD0
BE178B37
BDA9185D
3C77A0B6
3D96E158
BCC5C140
BE1F0CBB
3E115981
3D00BFE4
BD83FEE3
3D9A62ED
BDE215BA
3D93A2E0
3CDBEC25
BC889C1B
3CD9E1F4
3DB3FD93
3D9995EE
BA902DE0
3D7DFE33
3DD0EC31
3D617B0F
BB921CCE
BD767F4E
BDE81451
BDE051CA
3DDD2179
3E0E071C
BB828C37
3D084E83
BC4CA2DB
3E02F7F5
BDF6BA8C
BE1C3223
BC1D883C
3E2C87DB
BDB43D8A
3C1DA166
BDD95A29
3DBBBF0E
BDFE2479
BC9B0EE5
3C9B994E
3DB268D3
BD727AA7
BE0DDF87
BE16D1E1
BE10F990
3D320FB2
BDD3C03C
3C91AB8F
BD3079E6
3DDD04A3
3DB612C7
BDD4B59A
3E2B5914
3E08EE6C
BDB9AF9F
3E2CA2DB
BDCED784
3DF6A26E
3C6924F2
BC5D00F7
BC0D690A
BD69C561
3E1480E9
BE04D5D8
3BDCA07F
BE1BBFD7
3C214CEC
3DE471B4
3D921EE6
3E0A9260
BDA4ED70
BE05BD51
BD7AF20F
BD864D3C
3DC08744
3E27ECFF
BCD50870
BC37E0AC
3D6E935C
BD63F35A
3D85BD0E
3E1B8067
BDD1D1D4
BDBA8D65
3DEB5808
BE08A04D
BE208BB9
BD8F648C
BE16C11A
3DBAB192
BE171E6D
3E08EB46
3CFC2CA1
3D89CDC4
3CCE0B91
BCDB5D89
BE108851
3E24EB14
3D54AF4F
3E0A37AC
3D7CB0C0
3D9BB731
3D845A1D
3DE9F384
3C3FE7E2
BC5DF43C
BD34D37C
BE101FB8
BDB29889
BDCDA123
BC6C80C7
BE235B92
3E07BBF9
BDEB4AED
3D635E74
3E14727E
BCDB7CFE
BDA59FB2
3CFEA3DF
BDF8BDEC
BE0162AE
BDE11EC9
3DCC026D
BE261177
3D9EF06B
3DE556D2
BDF085F5
BE187875
3D9F6124
BD220254
BDE61D00
BDA75925
BDCBF445
BD9CCA71
3E147065
3DD50119
BE140E9D
3C0F7122
BD144780
BC41EBC8
B9E0EB68
BD9BC5DF
3D813016
BDC6583F
3D950FC7
3CF17BD9
3D9A365D
BC796E16
BDF0E347
3DF1C865
3DE100E7
3D831487
3C4A6CA0
BE2AD9F1
BD87546D
BE05FBB5
BB309E99
3E07D49D
3D1DABE2
BDC1AAC5
3C39AE0C
3D27ED85
3D4AA433
BD3E5754
3DC454DE
BD587831
3D816052
BD37036D
BE1CD3E1
BB449BA6
BDDBF2F5
BDEB46BB
3E0EF630
3E174EEC
3E1672FC
BE1E55C1
BD38EF35
3DFF2BAA
3E2B76B4
BDE36B90
BB88F862
BDEE874D
BDB53D64
BDFC4546
3BF69CAA
3DE84599
BD9D60E9
3E0C3E32
3DA50DF1
3DE88377
3DAAF3E4
3D09E98E
BCAD81AE
BE116CE8
BDA1EABC
BD41C821
BD01FB83
BDE0C7C1
BDAF8B59
3D78348F
BDC7839D
BD163FDD
BCE8D541
BE234CA1
BDA596C8
3CE290EF
3D764BEC
3E2BFA4C
3E236934
3E1BB01D
3C6FC7A4
BD61DC94
3C20FD3B
BE0517E7
BDB6ACEB
3E10B567
BDA873BD
BD6EA748
BD5B1E9F
BDA5FD05
BD49A240
3D54B274
BDFE9531
BD62C775
3D8BC83B
3D2CF52C
3D63D3E5
3BD5A5B9
3E094318
3C4A5BD9
BD73519C
BD8005C4
3DC512A9
3DCD3847
BCA133C2
BDB1012A
BDD255F3
3DD8348F
BE13B29A
BCFE0AC8
BD9BC665
3DFDB3C0
3E2B68CF
BD063066
3D3E4ABE
BE029BAE
3DFF4A99
3DBCDFF0
BC416DF4
3E14CDB8
BE14BE40
3D5DBCA9
BBD27807
3E299D88
BDFF4DBE
BDE44C7B
3E0D8DBD
BD039DE5
BDA4F54D
3BEF4E01
BDF461B7
3E1A1944
3D6322AF
3DB02E66
3B0C5005
BC8D4FDF
3D2EE632
BE208E9B
3D1F6988
3D4115DF
BE21DD5D
3E19F1AE
BD30196E
BE2DC012
3D4069E8
BE17EE91
BDCCD185
3D4BF2B2
3DD2ACFB
3D42F72B
3C9F383F
3DB56862
3D94BF0A
BDFAC1D3
3DFEE6FB
BE14BAD8
BDBA63FA
BD944A1F
BDB19A41
BDDBDCF0
3C27B4E5
BC3C6EB1
3DDD9557
BD0E66CB
3DD0ADCD
BCD1A21F
3E25A07B
3E0270B0
BD1DFFC5
BE178CCA
BCAA582E
BCEB56FC
3CA6D267
BD058DDE
3E12F1AA
BE16CA47
BD0419A0
BD9CF5F5
BE09D841
BE0DC982
BDC2F61F
BE09B845
BDD6DE33
3DF2788E
BE29AED5
BDB7BD06
3D61A501
3DA3FE5D
BE2D095B
BE239219
BD20157F
3DE8D973
BC85FF1E
BDC8DFBD
BDE91750
3D5A0F0A
3911C087
3D05069A
BD2AAB04
3C5B1A6D
3CA3FAB1
BDB1D14E
3CC7368B
BDA94899
BE0FCBD5
3E2E01DE
BDCC0379
BD9836A8
3DD36588
3D8E53EB
BE2B3EDE
BDD0F7BA
3D471B48
BCB5F5F1
BE063950
BCA22F6A
BDC854CE
BDE68124
3B84406C
BE2667F9
BAD8CB08
BD5B291C
BDE3DC48
BE032B56
3D52AE8E
3E1FD157
BE141701
BD8DA33C
3D4473CD
BE038F7A
3E0DF86E
3C7D60E9
3E0B7E0B
BDF574F7
3B5FCE31
BD8CD7CF
3B6874C9
3D99D4D8
3E1BC01A
BD4ACF31
3DC01041
3D9A47AA
BC8472C1
3DE9B281
3D7A40D9
3DDE5F31
BDA073DE
3DBBFF04
BD616A48
3C91CD1C
3DEF76E6
3CE91A76
BD50F94D
3E029CBB
BDDCCF29
BDC9F1F1
3E2D9946
BD01FFB5
3E16C0D7
3D330835
BD0BE729
BDE561D4
3D8073DE
3DDADAFD
BD86B0D9
3CEA8113
BDC12A52
3DF4ACB0
3CB53D64
BE0D7E46
BE291E64
3C167CAF
BE2CBCCF
3DB26634
BE064C30
BE108DD2
BDC2DBE8
3DC59D99
BDDB6AA5
3DA6A6E3
BE0BE33B
BE2112BA
3D49E343
3DAE696A
3E18D328
3DC9AB2A
BDC5436C
BC9C3CE2
3DA6EFC3
BD2C93A7
BE28B264
3BACFB76
BD56CF85
3DB43E10
3D14CCAB
BD46BBDC
3E1E746D
3E088D2A
BCE75148
BDB5F4E4
BD2A0BA2
3DE6F263
3DA446B7
3BC07AAF
3E03C85C
3D867D78
BDBB6912
3DC68A93
3E104428
BDE9D9D3
3E127D89
3C8F92B0
3E05243A
BD96EAC8
BD8A9260
BDA216C6
3E217BD9
3C677920
BDCE4A7B
3E2C85C2
BE212D34
BDBDD65A
BD13048A
3D02C6EF
BDCF483D
BD2B9E49
BD765CB3
BDBC981C
3D5462C3
3E281E8A
3D2D06FF
BD5871E7
3DEA91DA
3D0CD530
BE2989DF
3C352008
BDFD230C
BE2363B2
BDC30E3D
BD5783E0
BD588A05
3D09CC32
BDC77B39
3C4B0C02
BD4CCAB4
BE2496EE
3DF8B9BB
BDD3A1D3
3D5B7176
BDFC79B3
3DB4E098
3D2935B9
3D537E2C
3D91044F
3D1870DA
BE2CBD12
BE010ECB
3D9DE3FC
BCD39FBA
BDD2A1F9
BE08BD66
BDB0E022
3DEC69B6
BDBF2BAA
BD8E04C0
3E2D1CC1
3D93E682
3DCDDF01
3D2AB9B2
BE273322
BE0D844D
3D670B07
BD94B59A
BE18B114
3DC746CC
3CDB6A1F
3D82467C
3D4F0846
3CB42CC3
3E040464
BD6BDD33
3D940E5A
BD431056
BE2337EB
BE2ED3D8
BD9F327B
3DB3A605
BE06D97B
BDB1A6D7
3D79DF55
BD3A4830
BCA747D8
BDF8C32B
BC497529
3E0465A5
3E11C433
BD94AEC9
BE2B1E19
BDD8B47C
3D6046C7
3E12745C
BD5C3372
3D5157AC
BDF677F7
3DFC27E9
3DA76B7F
3BA60914
BDE713F0
3E120F2C
BDE1B6D4
BB288F00
BE1451B9
BD136934
BC321C47
3DF7D1FE
3DAE3609
3D244524
3E0C1D2A
BDDBFA4C
3CB3CC4B
3E150939
BA88722A
3DABA1F5
BC842529
BD82BE8C
BD5289DB
BCD796C0
3D81D324
BE1946C3
BC871822
3D9065F9
BE25E679
3E296D4C
BD7251C2
3E2877AB
3E1318FC
BD96A594
BE16759B
3D5668C2
BCE63411
BDF92104
3E06909B
3E2E2479
BD63A8E7
3B1289DB
3DA9DE8B
3E24D3BF
BE03311A
BD15E7C9
BD756862
3D8295A7
3D5C91D1
3C158D9B
3CD62BF1
3E03E814
3E06C658
BDC351DF
BDF6DDAD
BDC945FA
3DCE3583
3D06759B
BE26E547
3E00E23B
BDB7891E
3E08897F
3DBA20DE
3DB56B01
3E1D4174
3C15703F
3E16A3BE
3D759BC3
3D675DDD
3C7DB09A
BDDBEC25
BBEFC372
BE2BAB22
3D7C5155
BE230A4E
BD09CA19
BD738822
BCAE1262
BD215EC0
3C8DDC62
3E1C970F
BDD7EFE1
3D44E0DB
BDA657B8
3D57ECBB
3E1A4873
BD83CC08
3DB9157B
BD121AB5
3CAAF9A9
3D51F2DC
3D5479D5
BE0E7AFA
BD8382A1
BD9A3D2E
BE0FD7A1
3D546B27
BDD11E00
BDABA0E8
3C6924F2
3DE73E68
BDD3AE68
BC6FDC9C
3DBBA12B
3DAAE211
BE07739F
3DFAA25E
BE2CFA27
BD18FC50
BE22424A
3D968406
BD9EE350
BE039475
BDF95F67
BCE47BAB
3E092C8C
BE00C4DF
3D158A76
BD526528
3CA7264A
BE04A87E
3C3E5D9E
3CB4C3C2
3C3DBA0A
3E1C4CE0
3DBF1BEF
BD9AC0C6
3CA2F6A5
BDEF5904
BD57F413
3DB0D6B2
3D54AE43
3CC892AB
3DC04AF9
BE08BC17
BE288D6D
BE07D73D
3E01A006
3DE949A5
3E14912A
BE172218
3DF7F499
BE1BF3BF
3DFCDE5D
BD9C7BCC
3C6B67C3
BE211E86
BDE945FA
3E19EBEA
3D6B14EC
BD104E62
BC291969
BCC7C30D
BDC5C1C6
3E0C692F
BDC86E7E
3DADDB55
3E1BAFD9
391B3073
BDF004FB
BD9EF178
BD6B2075
3E0B1B7A
3B66C094
3D6920C0
3D02F61F
3E1FB1E2
3E144BB2
BE126BF8
BE2B2032
3E2C914B
BE299BB2
BE081E47
3D8C1FC9
BE00EA18
3E0B6912
3DA656AC
3E205C89
3D8BD2B7
BD96FD22
3DECABC5
3E074A34
BDF969E4
3D6DA87A
3E1152F4
BC77D73D
BDB107FB
BDAA9931
3DE9CF57
3DFF91E6
3DF99F5E
BC0ADABA
BD9ADE22
3D80EF13
3E13A084
BDDFD04A
3E2AD8E4
3E295FAB
3DB17DF2
BE138152
3DE98138
3DE855DA
BE2918A0
3990B418
3DE900C5
BCA1F8E4
3D72E6A7
BC07442C
BE24B381
3E13AABD
3DE21AF8
BE0DA48B
BD7BB40B
BE088B54
3DB64734
BE1E7792
3CC55C96
3E044A1F
3DB75FB3
3DFD33D3
3DEED784
BBCD8559
3DF0CBB0
BE252370
3D9C92DE
3E04E65C
BE29884C
3DEE4E27
3CEAB9B2
3DB4AC2A
BCB20968
BDF7E5EB
3A0FEAC4
BD8297C0
BDE37048
BE00AEDA
BD160A63
BE0DE8F7
BC4DA6E7
BD2BD09E
BDB9FA12
3C8A350D
BD30AE53
BC91E647
BE12E2B9
BDDF2E49
3DE33509
3C180F56
3DC61390
3D76F6D7
3E0FFA3C
3B007358
BD0302B4
3BD527E5
BDB14A0A
3DF7BF1F
BE0F03D1
BE0F7CEE
BE2616B5
3E0D7BA6
BD3EEC39
3DD2BE49
BE2754F3
BCB9EF0F
3E0DF224
BDAE9DD8
BD260B2D
BDBF06F7
3D68D435
3C5A6A44
BCA92817
BC0E9F6B
3E2994E2
BC798740
3E125CC4
3DFB3398
3D0AE105
3E226959
3E1B634E
BE24FDF4
BC84A0E4
3D14A7F8
BC8711D8
3DBA1FD1
BCE2845A
BDB6B980
BCF6A93F
BD0F26AF
BCBCBC49
3E07EB29
BD1CBEE8
BDD1233E
BDC223E2
BE0603D5
BDEE2B06
3E193F29
3E16CF42
BDABC83B
3D9F8A09
BE0C9E67
3CE1C369
3DDE5B85
3E094680
3E2CB5BB
BE21F85D
BDD82667
BE213661
3DB91F71
BC89E343
B840F020
3E0FB2AB
3E1AE254
BDCFA26A
BE1F60E1
3D31D4FA
BC050DF1
BD990321
BD361028
3DE40E17
3E21E7DA
3E28BC9D
3E2136E7
BC1131EC
BDF6EC5B
BD9E1544
BD12B6F2
BE0B4784
BD976AB6
3E11611C
BD12DCB1
3D378EE3
BDC0B6FA
BD6BCE85
3E00EA5B
3DF71D1D
3E094706
BD1E4C51
BE0C8217
3D5BB279
3CD3953E
3DFA450B
3E16323C
BE018117
3DA6698C
BE27C99B
BE1B1E19
3E10025C
BC6A8DA8
3CBE9C88
BD8F28C8
3D57EBAF
BDAD10F5
BE259EA5
BDC4944F
BCB1593E
BDEADA34
3E12BC73
BE018E32
3E1B456B
3D3F3387
3C243351
BC487DB3
3DC622C4
BE1F950C
BE1199FE
3DBDED6C
BB9A3D2E
3D9A3D2E
3DC84620
BDBBBB62
3DE959E6
3D943E96
BDCBB5E1
3DA788DB
3E13254E
3D82717A
3D019B0B
3E008A26
3D50F51B
BCC080FA
3DFD8BE7
BDDFC3B5
3D9E8C48
3E090A35
BDF2513B
3DFB9A5B
BDDC4C9D
BE0563ED
BA538CDA
BD4CC250
3DFF65DC
3DEC4B4D
BDD708AB
BC58B1DD
3D4FC0D3
3DB02DE0
3CD67989
3DEF8162
3DD4CA92
BAB8CFC0
3D87B80B
BE261F5C
BE00110A
BE1CE747
3AC21E1D
3E02641B
3DE5B39E
BCD41FA7
3D113B5C
BDE9BAE4
3E10F345
3E0043E5
3E184EC6
BDBCA8E3
3E2D1A22
3E0B395C
3D3BA344
3C6DD053
3B93A711
3DF4D7AE
BE174ABA
BD099D02
BDB14F48
3E240B35
BD88DE2B
BE10E7BC
BE004A73
BD86FAC6
BD3EED46
BE0D3D86
3BEB8950
3E2E392E
BDBF8EC1
BE10346E
BC73ECCC
BDC57FB7
3BD9D777
BDCEE393
3DC66341
3D6C929B
3D08A698
3DF53D64
BDB3519C
BE168E3F
BE2EC5F4
BE08433D
BDC86834
BDED234F
BDAF53C5
3D4DD2F2
BD890B41
BDB88B11
3E261954
BC403FF7
3D3506DD
3E1B5808
BD89003F
3D6514C2
BE1AF4F1
BE0E0610
BDC26AA9
3DD54A80
BE2F6E3F
3E2D0529
3CC59536
BE289939
BDEC61D8
BE1AD256
BDB8C112
3E29346A
BD2EB702
BD2C94B4
3E0857B0
3D463E08
BD861523
3DA44FA0
BDC49668
BDA2F838
BE212663
3DD47E8D
BC8090B4
3E2A16A5
BDA0BBB2
3B4BD124
BE126E98
BD84D014
BCB34A45
BE0215BA
BCC8C932
BD6B7FE1
3E121251
3D88533B
3D95BBBF
BC8EE6B8
BE0ACEEE
3D99E59F
3DFAD752
3E077575
BE1B7A1C
BE11AB08
BDA784A9
3E1980B2
BD2F2A5A
BE2E221D
3DD4ACB0
3E0D0742
3D100714
3E2A32B1
3DC60568
BD73D6C7
3DBB5D03
BE226741
BDC9EBA7
BD9D7775
BDA80065
3E01DABE
BE288F43
3D566BE8
3A1B3073
BDA29846
3E0B8067
3DF97D4A
3C425D07
3D3C01A3
3D947F99
3D63C750
BE1E770C
3E186F8B
3DEA5BD9
3BCF2064
BD66DDF0
3DF93922
BD077FF1
BDD25A25
BD8AC7DA
BDCF0069
BD555821
3DD2B2C0
BC8257C9
BE1DB728
BDDE1B09
BD512A95
3DC279DD
BDA2EDBB
BD50795F
3DBF383F
BDC75F70
BE1DEC5F
BDE9D6AE
BE033B10
BDFA786C
BDD7D6B6
BCA0B3D5
3DB4D7AE
BE008A69
3C751EFB
BD2E0B0B
3CDD1809
3D1537A0
3DE85EC4
3E1B87BE
3DA44B6F
3E073605
3CF9CA5C
BE208C82
BD9DD873
3B54562E
BE26F86A
3CB0F8C6
3DFA06A7
BDE42071
3D843BB4
BD7E004B
BDE617C2
3E022186
BD73DD12
BE03C0C2
BD9FE4BD
3C9B8CB9
3DE4E2F3
3DDFE5C9
BE08A8F4
BD543287
3E251A43
3DCAC96D
3E0053E3
3C968D76
3D0F1D3F
3DECC0BE
BD98BA41
3DEB86B1
3E0DCB58
3DBAFF2A
3C9B152F
3DCE5CD5
BA291538
BD577319
BD1655E3
BB8711D8
3E082A99
3E23A3A9
3DA5BC88
3DE7C84B
3DCC9D9D
BE02D9CF
3D6595BC
3D915A4B
BD974928
3E0A7FC3
BAD306A3
3DCBF551
3E08EBCC
3D39F55A
BD89899C
3C7049AA
BC585597
BE1C1B97
BDB67903
BE19E6AC
3DE5796C
BCC4651F
BDC07464
BB55F99C
3D8FD545
BE2CEAAF
3CC80A5B
BD9AFC8B
3E04C2F8
3E0B5200
3E233FC8
BD8E64B2
3E2B79D9
BB2B81F9
3CF9F666
3BED9168
BDA15D2D
BE0BF1A6
3D960D88
BCE19115
BD5F9592
BE267A10
3E2ADD59
BDD77C89
3E160BF6
3CC2E771
3E1E8BC1
BDD20297
BE2367A1
BE110FD8
BE011FD6
BD8B252D
BDCC1B11
3DACBAF9
3CD5714C
BDA0CA60
BDDF6018
BD3C2EBA
BE2B73D2
3DF50B95
BDA8C60D
3DEA24CC
BE127A63
3CBD4281
BC076E1E
BE0E0829
BDE7B678
BDBA2C67
BE275537
BD5EDF1E
3CABF120
3DE7589F
BAF47304
3C99BB28
BD7E5B85
BE287486
BDC60BB3
BCAAC109
3DE80A5B
3E1115DF
3D8B8280
3DA9003F
BE0154CA
BCE1F7D7
3C9B77C0
3E0C918E
3D8CD962
3E1B6D01
3E2DD767
3D37CCC0
BDF97DD0
3E087981
BBF6E829
3D4254A4
3D904817
3DDB5F1C
3E2E889C
3DA81B22
BB9539B9
BD41B867
BBFE718B
3D93F0FE
BE141F21
BCAB8E8F
3D0A4C1F
3E048733
BD83F9A5
3E2B4B30
BCE0DAA1
BE13E07A
3E07AFEA
BE0229E9
BDA3C9EF
BDBCCC8A
3E161BB0
BB550EBB
3CB9E8C4
BD378EE3
3C157471
3E2BF4CB
BDEF1FDE
BDD193F7
BE0E0DED
3DB13272
BDF83409
3DD785F9
BDB74CD3
BE0C21E2
BE270F39
BE2D56B0
BD1DA05A
3D6E3D60
3E1F9724
3E11D756
BD3398E9
3C94812C
BCCD4ED3
BDACB8E1
BDD1DCD7
BD838D1E
BE11BD62
BCBD09E1
3E1EE17A
3CCBDDBA
BD279BBB
3E1698BB
3CCD9E84
BDB44FE3
3CEBA494
3C0194C0
BC5E939F
BDDE186A
BDCA0BA2
BCB5EB74
3E22EE42
BD4D5B68
3E136D22
3D21272D
BE0197A2
BD78CB8E
3DE366D8
BDB1897A
BDB932D7
BE1C7C0F
BD4FA8B5
3D582A99
3DE7E49B
BDF7CA21
BE264778
BC9A671F
BDC55EAF
BDFD86A9
BDF52FC2
BD377186
3D4D972D
3DC07D4E
BE122318
3E0C98E5
3E27E4DE
BD9B688C
3DA3C31E
3B90257D
3D1E3B8A
3D20620B
BD16F86A
3DD2A0EC
BDF831F0
3DE23E18
BD9F26F2
BCE8F6CF
BD2ADE65
BDE9BA5E
3DCE685E
BB9FF92F
BD9D872F
3D09A997
BD4D51F8
BDBCBD55
3CFFDC59
3E2C4D66
BCD04817
3DF14984
3E1B9CFA
BE10D6F5
BD9183B6
BE189B0F
3D346888
3DFB76B4
BDBC5719
BC6D80A1
BE20BF1A
3DB41E15
BC05D745
BE1121EE
3D8FD545
BC928390
3DC0F6F1
3E26C26A
3C681CB4
3E20CE0C
3D2597D5
3E10B73D
3D623183
3DF66BE8
BDBC02B0
BCA77C46
3D02E771
BE02CB21
BD3F4235
3E164CF9
3E1A7547
3E2EA572
BE0B3398
3DA5CD4F
BD197C3D
BDD00F77
BD67F4DC
BDBFC32F
BE29E40D
3CF4E443
BE28CAC5
BD102DE0
BDD1FEEB
3D24AF0C
BDEAB713
3D962E90
BDC764AE
BD5BA1B2
3E00FD7E
BDB8140E
3DAD4C34
BCF38E6D
3D99E9D1
BDF3E708
3D9F7058
BE2D58C9
BDD5F0B3
BDCA8DA8
BD8CE465
BD873366
BE132A49
BDCCD7CF
BD99B802
BCED43D0
3DCC5005
BE1E2DE8
3D0F8402
BD8F5126
BE0A0514
BDFE1FC1
3D7FF9B5
3DC27D03
BD8766C7
3DD73C92
3D18D691
BDDC93EA
3B54CB9F
BDDDCF89
3E15768A
BDA8E608
BE0C11E4
3DA234A8
3E2C1F00
BCAAF145
3DA62ED3
BBE21102
BD46F156
BE02D7B6
3DBD2AE9
BDAA0C28
3C3CE853
3DD57D5B
3E041C3F
3DF7A0B6
3D272A7C
BDDD909F
3D385D74
3CD5C747
3E241C3F
3DBB139D
BDE6EFC3
3D01FEA8
BE106FAC
BE0130E0
BDDEA24D
3E063AE2
BD6EA316
BC500F77
BE01B25F
BD5FBB51
BDAE25C8
3D84C836
BCD479D5
BD4318B9
BE28EB46
3D8295A7
BC17B741
3DC82BE9
BD8C76D1
3DA9AE4F
BB475C4B
BDC7BBB6
3E29EE03
BE0218DF
3DE15CA7
3E0CFDD2
3E148D7E
3E0E8CCE
BD2594AF
BDE8E2E3
BB9EDBF9
BD47CA64
3D144DCB
BDD10DBF
3E138540
BDC19115
BD23CB81
3D25C5F8
3DD0C77E
BC23E39F
BE118E32
BCA72EAE
3CE935B9
BE107182
BD1205BC
BE0436FC
3E2102BC
BC2975B0
3DB24C83
3E0C48F1
BE22BE49
3E21C971
BD747F99
BDF66A55
3E23A711
3D32A7BD
3CE20AB7
BE2A9EF5
3E1BE7B0
3C4E67D7
3D688377
BC11600F
3DA9FB61
3D9E13B2
BE26DB51
3E1324C8
3CAE514C
BE0AB431
BDFF8013
BE0610F1
3E258213
3C56B229
BE147E07
BD555D5F
BD8F1FDE
BDFE3DA3
3D5553EF
3DE4B87C
BE2DED6C
3D0E8A72
BD61815A
BDAB1705
3DAC8B44
B8F34507
BDC03687
BE13A81E
BDC63E08
BCA95E9E
3C13DD98
3DF26A66
3D890B41
BD8DA900
BDDE707E
BDCF27BB
BC0882F1
3DD90AFE
BE0E4431
BD3502AC
BB80C73B
BE0C18B5
3D4D887F
3DF4F616
BD7F93FF
BDE1B7E1
3E237479
3DE5204B
BDEE27E1
BDACF9E4
BE013F4B
BE250332
3E245E92
BDB7867F
BD034F40
3DA1AE71
BC849236
3D874D9C
BE1E846A
BDB616F8
3E107B35
3DF4B945
BD00010C
3E151330
3D119EF9
BD39E27A
3D6BA062
3DC922D9
3D9CBA30
BD955608
3DE5A922
BE04FE37
BD843782
BE155BCD
3DC71045
BD625E9A
BE03A2E0
3CEB9A17
3E2A99FA
BDB79746
3D53C03C
3E1811B2
3E006D50
3D44B1AB
3A76AD71
3DCDF8B1
BD525AAB
BE209529
BCF9B131
BD5CA6CA
BDB4CE3E
3A6E8D11
3D888E7A
BD8AB4FA
3DB39757
B7FBA882
3D1F0C35
BE2089A0
BE050481
BD45425F
3E2157AC
3E2A821F
3DC2AA9F
BE2EF241
BE23DEA4
BDBE646F
BD987A4A
BDCED2CC
BCC6583F
BDD89939
3DECA926
BDB6C722
3E27995F
3DA1C2E3
BDF9389B
3CA68B1A
3D9D9CAE
BD24F11B
BDF96074
3E2D002E
3DD83E85
3E09CFDD
BD61C9B4
3DFB7E91
BE117C1C
BCE8EC53
3CF9B34A
3DB5A4AD
BD540789
3CC471B4
3C19AE92
3DDEDC7F
3DC92EE8
3D1C7582
3DCEF241
3DE9424E
BC2FB7E9
BDE370CE
BDC6CA8A
3DAB4AED
BC995033
BE0A1166
3D0D7CF6
3DED5A5C
BDFD71B0
BE06CB96
3CDBA6F0
BD848494
3E282B63
BDB89F84
BE1A11ED
3E1BF4CB
BE1D9DFE
BD527E52
3D643138
BE2BB98C
3D91A6D7
BC9F8E3B
3D8D306A
BE07B891
BDBCB578
3DDFE7E2
BE076102
BD6B0100
BD1AEA31
3DB9884C
BDF7C2CA
BD3F9F88
BB797EDC
3D660914
BC376F6D
BD6A7EFA
3E082E02
BE1F049B
3E25B9A6
BD299FA1
3D0F5B1D
3D388EBD
BE0A5226
3DDA6506
BE25C076
BD5E9186
3E02FA51
3DF7079E
3E0BC98A
3DC4CD75
BC5ECE57
BA90928A
BD56F75E
BE0C532A
BE2E9681
3DEC204F
3DEEBB34
BDB5336E
3D53048A
BD8CD7CF
BE0E77D5
3E24C33B
3D870F39
BD914552
3E1CB7D4
3E08754F
3D4ABC51
BCB40B35
BDBE4580
BBC32229
BD0A6CA0
BDD8B157
BDB1209F
BDA37E6F
3E200BCC
BC0E9707
3C933A04
BD977100
3DC129CC
BDDDB8FE
BBA9A3D3
3DF6188B
3DCB3AAC
3E19F8C2
BE09F55A
BD60A958
3CC5B6C3
BE1B8950
BD784A94
3D80B999
3DB7A5F4
3E0B0707
3D810060
BD03686A
BDEEA077
3D7382E4
BDF46888
BDD44ED7
3DDEFFA0
BE2A8262
BDA5D6BF
3E0C3B4F
BDCBAF96
3D8D24E1
BD4B33DB
BDC3C42A
3CABFDB5
3D0F81E9
3E1E6FF8
3B17D8CF
3C9D53CE
3DD05187
BDD405F7
3CD49731
BDBCED0B
3BC36DA8
BD11E42E
BE0A50D7
3D7BEDB7
3D39DD3C
BC18DCDB
BE169CED
3CBED30F
3E290B41
BC5887EC
BC979BFE
3E2A747E
3E1D3177
3E0087CA
3E0E9079
BD22413E
BE08CB8E
BD7126E9
3D93EBC0
3D9A7979
BDB4445B
BDFD47BF
3CB0CED5
BE09F0E5
3E08ADAC
BE264D7F
3DF2D235
3CEE1587
BE03E63F
3E0E7A74
BDBE2691
BD01DF33
3E182C2C
BD4C8BCA
3CC7496B
BE11B36C
BD360AE9
BD2276B8
BE07A461
3E2F1B69
BE0D6A59
BE0D3133
BD423C86
3DD96399
BE15CD92
3DDE6E65
BDFDDB98
BDEB0AF6
BE1ACF31
BD9CD1C8
3D898245
3E174F2F
3E202CD4
3D0A2FCF
BC9ACFFA
3DC0B3D5
3E036FC1
BE0553EF
3D7B3D8E
BE2F3C71
BE2D0AAA
3E23EE5F
3D672431
3DFFFF7A
3D2E71CE
3DE15B9A
BDE10E02
3DD3764F
3DE0E411
BDE22BBF
3E2ACBC9
BDE29308
BDF10881
BDC2EA96
BC512CAE
BC5A1661
BE2CDC87
3E2267C7
3E1E7F2C
BDE80E8D
BDCC9C0B
BD9ACC4F
3DECD962
3E14245F
3D7645A2
3C652157
3C3B55AC
3D9DC2F4
BDBCAC8E
3D05B6C3
3E2F9B13
BD8C953A
BC8C60CC
3C4475E6
BE0E37DF
3E0E8295
BE01BFBE
B88C825A
3D0D1633
3E19C1F8
BE1B677F
3D88F96E
BDFA5CA3
BE289720
BD4A1273
BD7AFC8B
3DC9899C
BD61B4BB
BE20FBA9
3E264B66
BDC9E01E
BDBDA72A
3DE84274
BE060392
3DC6FA40
BE00813D
3DBAD752
BE18FDE3
BDFD0310
3D8A600B
BDF0F40E
BE0106EE
3D9E5109
3D8577D9
BDBF8C22
BDF3B3A7
BCAC7FBB
BD3B8A1A
3C06DF83
BDEB40F6
3D3C6328
3BDD377E
3DBC6B8B
3B12EE85
BDABB880
3D9EAE5C
3DAB4F1E
BE055758
BD4DE8F7
BD412275
BC071609
3D8202DA
BDE5A89C
3DF57CD4
BDB2EB5F
3D744E51
3DF3B752
BC92E408
3AE2C12B
3D2321A3
3E078D93
BD10C910
3D123A2A
BD8CAAB9
3D6BA5A0
BDE0AE97
3DF292C5
BE19C0EC
BC1D5A18
3DDB7E0B
BDE7AB75
BD1D50A9
3E03B214
3E248A59
BE15946C
BDEA3D71
BDFDC400
BE16E547
3E0F190D
BC64C511
3DFB71FC
3D33A14D
BE1AC109
BDA75E63
BD7A96D5
BD01C715
3D344806
BCA37AC4
3DD85059
3E037E2C
BDF90321
BD611772
BDF65ECC
BC97720D
3D8B923A
3D81FF2E
3E289EBA
BDB69FCF
BDEAB042
BE18C9B8
3D3606B8
3E0BA494
BE24DB59
BD412CF1
3E274ABA
3D762B6B
3DD1B8AA
3E19A5A9
BE12DCF4
3D97EC35
BCD8E64B
3C8739B0
3B82C6EF
3DD6ED67
3E0D7D39
3CA61390
3D01AEF7
BE2DF58C
BD6EB0B8
BE0733A9
BE0B851F
BD4A05DE
BC99FA12
3DD1AEB4
BE1943E1
BD3D145E
BE080FDC
3E0043A2
BE050BD8
BE153F7D
BD8E7AB7
BE1389F8
BD32B884
BCD03105
3DDF8551
BDCEB570
3D905C03
3E1114D3
BC2B5808
BE2F8A8F
BE1934F0
3E050721
3DF87C63
BB9BC771
BCFEDA66
BCAF8DF8
3E146BF0
3E031DB4
3E032724
3E2E37DF
BE286B9C
3D9295EA
3E2CEBFF
BE22FA0D
BDECC0BE
3E0FC548
3E03B1D1
3DA7B784
BE2F954F
3E2054AC
3C9F9054
3D6E7E63
3CFB6567
BDA61390
BE26BDB2
3C9E364C
3CC9E881
BE09B1FB
3DDE9C02
BDFBC771
BDC160D9
BE2D69D3
BDC84407
3C7DE2EF
BDAE581D
BE1DC161
3DAFC9BC
3E2A9004
BDEA5B53
BDA1847F
BE0DB3C0
3E12D4D4
BD2A8006
3E1B2C41
BA89E343
3D80ED81
BCCB46BB
BD12513B
BE1342EE
3D8F2303
BE13DFB1
3C0D0CC3
3E2B545C
3E1C4C16
BDC88616
BE262BF1
BD4DF7A5
BD4573A8
BE14330D
3C9A8262
3D128284
3DBBBE01
BE2A1449
3E10A4A0
3DDA0621
3E0FBD27
3D93DAF9
3D9C0CA6
BA9289DB
3E0A03C5
BD38F9B1
BC9DCF89
3D13C9AC
BD8B5244
BD9184C2
BDF6F21F
BD3D9A95
3E041462
3E038152
3DED2CBF
3C8A6762
3D4C3E32
3CDEA24D
BDA108C4
BC96A6A0
BDF6F9FD
3D7DC8B8
BDFC7D5F
3E19274E
3E25A46A
BBBE835E
3DFB0C46
BE183516
3D86DCE4
BD54FCE7
3DA08638
3DA415F4
BDB7B6BB
3CFD7E46
3C9AB4B7
BD9AFAF8
BD99FB1E
3D35C28F
3D067F0B
BE195D0B
BC8DB6A2
BC7B1184
BE1ECFA7
BDD404EA
BDC12CF1
BC33354C
3D6E2110
3BC3EB7D
BD4F9F45
3E0FDDEC
3E2324C8
BE230E3D
BE20F302
3DC98BB5
BD3C3A43
BE05D28D
BC4CEA29
3DCD5CFB
BCAB3461
BE1A4335
BD0CB6C8
BDDB317F
BE077B7C
3DAF1562
BE2DD7AA
3E155AC0
BD07FFDE
3D9F19D6
3D722079
3E2D2E51
3C06A4CA
BE02AD82
3DFC73EF
BDA3821B
BDEA6224
BDA131A9
3C1E44FA
3E0451FC
BDADFE76
BC46002A
BE2DAB19
BD73B646
BD6E147B
3D841355
3DB6CCE6
BDB45F9E
BE01DA7B
3D966BE8
BCCF7660
3E1ABD5E
BD8C60CC
3D187E7C
BDD54F37
BD827D03
BC20D77B
3BC093D9
3D556C0D
3DD65B21
BC9D94D1
BE11A8AC
38CD8559
BDB17482
3C5E82D8
3E255087
3E0CE78A
BBE5BC88
BE0FE64F
3CF2D3C8
3E273E25
3CFADF2F
BD9E64F5
BDF8FD5D
B97BA882
BCD6FDA8
BD97E5EB
BBFC7A3A
BD3C0C20
BE07E069
BD0D22C9
BDF2AE08
3DBAE148
3BA92E62
3DC7F90E
3D1E96C4
3E1FD502
3E0DA3C2
BE2970B5
3D9021D1
3DBFFD61
3D980779
BDD93C47
3DBD7DBF
3DA2E2B9
3E0573A8
3E01BA3D
BE016B12
3D1EBE9D
BCE0BF5D
3DD36F7E
3E11272D
BC674F2F
3E1627BF
3C558C8F
3E2A4CA5
BD9AE925
3DF4E981
BDDC67E0
BD40229A
BD874C0A
3B11D14E
3D4A1AD6
BDAFA1E4
3E2A1D32
3DA4B125
BD76E71D
3D0419A0
3DC6A3BE
BE1080FA
BD4679CC
3C31F688
3DA2363B
BBB2B778
3D867514
3DC999DD
BD82D384
BDFD4B6A
BDDCDFF0
BD1F40A3
3DFC48F1
BE14C87A
3E2D9BE5
3DF14120
3C5883BA
3DAFB763
BC6B074A
BDB9DA16
3C8C8ABD
3D267D78
3D866341
3D534DF0
3D68EA3A
3DC788DB
3DC25397
3D6E9BBF
BCE68C26
BDFF58C1
3E2F8F04
BE021922
BD4CBC06
BDF932D7
3D968598
BD2DE00D
BD553EF7
3D77A80D
BD73E143
3C31F256
3C6A24CC
3DF2CF10
3D9C1E79
3CFE8039
BB3DCAD1
BE06B65B
3BDFDEF8
3DF0EF56
3DBD0310
BC101D19
BE28ADEF
BDAAE536
3DAA50D7
3DDA072D
3DDE22E6
3D3C3B4F
BE1733A9
BD278D0D
BD267D78
BE279FA9
BE1531DB
3D272325
3C96DD27
3E252E73
BBABCD79
BDB71C97
BDA4C272
3E23860A
BD41C715
BD88661B
BD8B2D0A
3D2452C6
BDAEAA6D
3C39E493
3E0BCD79
3D4F5F4E
BDA33A47
3D2D70E7
BE2659D1
3E0A9197
BE163E08
BE069835
BE2EEFA2
BC94FCE7
3D4B8499
BDEB2E9D
BE2E4FFD
3E1B2CC7
3E25C209
BDA35504
3E0BBBA5
BE13A4B5
3DA9E01E
3D0D61B3
3DD7BBF9
BD034E33
3E2DC012
BDC83B1D
BDD18CA0
BB87C201
BD8B356E
3E08D003
BC88DF37
BE28FF32
BDC1A0CF
BCC56712
BD0AC190
3D7167EC
3D82B064
BDC2F8BE
3B4AC4B5
3DFECC3E
3D6876E2
3C3DFD26
BD2961C3
3DA36199
3DEF1D3F
3D11DBCB
3D96E371
3C98F1D4
3CF6CEFF
BD97C4E3
BDCA18BD
BE0B1423
BE0E5711
BAB13598
BC63150E
BD8FDE2F
3E2B8C33
BE0CC63F
3CF021D1
3E18EDE5
3D6F9874
3DCF1DC5
3C831CEB
BE23F898
3DBEC80C
BC8A1BE3
3DA1C9B4
3D876FB1
BD70D307
BE1089E3
3E015CEA
3E26D7E9
3D17F1FA
BDDF090F
BD4A1F08
BE14C554
3D486CEC
3E2E9DD8
3D04F8F9
BDF7E910
3DA13016
3DFB2464
3DF69B9D
BCB21C47
BD3F79C8
3E2D26FA
3DCF9874
3B422EE4
3E127632
BD839043
BD2E1049
BDFEFAE8
BE2DFA01
3E201323
3CB69121
3E0B8280
BDC29F9D
3D00FBA9
3D7C1377
3DA4DD2F
3D422AB2
BB79B131
BE220254
3CCC74B8
BCDBE1A8
3D8C8CD6
3B10D5A6
3C7FC116
BE14CCAB
3D92F556
BDA1BF38
BDC957CD
BD1435AD
BD788EBD
3DED141A
3E2F21B4
BE1406C0
3E0B32CF
BC9246BF
3D5D6063
3E21CD1C
BE2CE421
BD40B567
3DD67664
BDA4B018
3CB4F3FE
3D79591D
BD9C254A
BD066A12
3D9DABE2
3E1882F1
BDA5BC88
B80A697B
3D2D59D5
BE1A8588
BD0DE6DE
BCC77DD8
BE148345
BC963FDD
3DFD20F3
3DA09E56
3E06C8B4
3DEBFB9C
BD6ECF20
3D99B1B8
3E109071
BE12FDFC
3D1EA67F
BC51E53B
BDF39FBA
3E097785
3DE339C1
397BA882
3DA4C1EC
BDB7AAAC
3D92641B
BDFF394B
BE1AE579
BDF1AEB4
BDB89614
BE257ABC
3D61B6D4
BDFFE436
BDD27137
3DF3DE1E
BD5CF030
BDC23FAB
3DC07DD4
BDEF07C0
3E0F6A94
3E0662FE
BDACD317
3E2734F8
3D39C843
3D1E98DD
BD5652BD
BE239581
BDC0BDCB
BD21EA36
3DDC2A88
3CFD77FB
BE171327
3E16D97B
3DC8BF3C
3E20EB68
BAA50508
3C2C7DA2
3DB19DED
3D33FFAC
3E047F13
BE25C0FD
3DEF1AA0
3E0B0575
3E0C5005
BDEEF028
3E0AA4BA
BDC84B5E
3D561911
BD4240B8
3D403255
BD3F583A
BE062AA2
3D95F56A
3DCAA002
3D28AF81
BDE08E15
3D5E8709
BDC32010
BE088B97
BDA9D27C
BD8AEEA6
3DCB3D4B
BD02E33F
3D887B14
BE2650E7
BD7A58F7
BC9A6F82
BC9ACBC9
BE11F46F
BE0BE554
3E00CDC8
BD0D3283
BE218CE3
3E2F5EC8
3E21975F
BCF2239E
3CB9C94F
3D9FBB51
BDA2C908
BCAE6C8F
3B832336
3D8070B9
BE12B170
BE265D3A
3BCF5B1D
BDFB738E
3D6E685E
BE2D30AD
3E014CA9
BD67F5E8
3DBA01EF
3DAC460F
BC94488C
3D1DADFB
BE081E8A
3E00841F
BE07ECBB
3E0437C5
BDD0E560
3D9AB218
3D3CFE58
BD915726
BDCECD8E
3DA05921
BDCB3248
BE054435
BDE5B9E9
3D0E52DF
3D360392
BD68DB8C
BDC51655
BE004146
BD554328
BD3C32EC
BD89A88B
3E10A676
3E2CEAF2
3C94727E
BE27B1C0
BCC4D014
3C388872
BE0B3637
3DD592DA
3D8AED14
3DD4F1E5
BD7430F5
BE0B584B
3DAEAE9F
BB596207
BDD077CD
BCEC2EFD
3CC94B38
BD20C7C1
BE154824
3DE0064B
BD306F69
3DB487FD
3D09BA5E
BDF704FF
BDED6E48
3D357A35
BD945F9E
BDFC9C4E
BD69899C
BE248FDA
3DA39FFD
3C211234
BE14A83B
3DC64ECF
3B7ACE68
BE1E58E6
3D8E3609
BE149F51
BCE6EEB7
BE0CCA2E
BD8FC372
3E04EEBF
3D986983
3DF2E169
3E0A6938
BDE2CF53
3C3A1B19
BDB9146E
3D4D6D3B
3D1944AA
3DA1187E
BDA9EECC
3E0E4CD7
3E1A11A9
BE04A4D3
3DCF5EC8
3D9E0E73
BE2CF399
3CBCAD9B
BE036EB5
3DF764F1
BD6C050C
BCA9003F
BBFFB04F
3E171002
3CB9E493
3E22D341
BE1F2BED
BB88E79B
3E1EFE93
BCC4C9C9
BDC80171
BDCF94C8
3E1589F0
3D915DF6
BE1EF45A
BE2A81DC
BE2F36AC
BE09DC72
3E0678C0
3DF20D13
BDB8C650
3CA99D88
BE184018
3D861416
3DABD44A
BE017CE5
3DB7F0ED
3E25247D
BD6F2303
3E197A25
BC3A8C58
3DDE1DA8
3D92263E
BE111948
3E024357
3D59817C
3B6B56FC
BD85DB77
3E168BE3
BE141B76
BDD1A650
3E1613D3
3C22D2FE
3DAC1CA4
BD81E3EB
3E14CB9F
3DC9CC32
3E220968
3D9CD24E
3BC42635
3E058256
BCE468CB
3DA58FF7
3DF34E77
3D5846E9
3D1A4378
3CF6BA06
BDBF7F8D
3E2D3416
BE090258
BDAE2EB2
BCB7F9D7
BE02923E
BDB9231C
3D9EE243
3BCA03C5
BD30EC31
BD8E8534
BDB3B5BF
BD8EE526
3BBCB5FE
3D620FF5
BDF405F7
3E12C775
BDB6030C
3DF40464
3D734507
3DF12DBA
BBD5CFAB
BDB0B5AA
BE119E30
BDE02752
BDD4BF0A
3DC5A89C
BCA9A5EC
3DE9CC32
3CBA322B
3CD59F6F
3D1045FE
BD0D9408
BD25C1C6
BE2959E6
BCF36EF8
3CB62E90
3D428B2A
BC04C6A4
3C7F4342
3D2A4010
3D219546
3DCDD8B6
BDB164C7
BE1C4439
3DA956C1
BD942F62
3E101C93
BDEDEA03
BD4EA8DA
3DFAE4F3
3E0C5E2D
3DFA93AF
BD581388
BD2A0232
BE022F6A
BD943FA3
BCE03F70
BE0E8B3B
BE10B4E1
BE1EEBB3
3DEE66CB
3E131A09
3E015486
BE10D888
BDC84AD8
3E137436
BCF6BA06
3E0324C8
3D8A8438
BE1FC4C1
3CDBB7B7
BC90D5A6
3D3D5561
BE115619
3D15CE9E
BE05510D
3D8C4A41
3CD53049
3D6BE48A
BE0C297C
BCC738A4
BBC50050
3D333A8A
BDD0025C
BE1E7818
BD878C87
BC0E4B88
3CEF587D
3D5CB03A
BD63E6C5
BE08E8EA
3C228BB1
BDDAAFFF
BDE77708
BB8C9B84
3D69C12F
3C2F4278
3DC4894C
3E0D4413
BE0A8049
BD923DD5
BDF52B0A
3E2C5D64
3E27BF62
BE264CB6
BDB55C53
BDAAAFBC
3C173D9F
3C9BF163
3E276577
BE06B7ED
BBD7279A
BE2228DD
3D8E6FB5
3D1DD2AF
3D08DB05
BD801A37
3D0532A5
3DFCE209
BDBBA98F
3E1AD42C
3E22923E
3E18B8AE
3E29AED5
BE158D9B
3DC15337
BD995DD5
BD4AD256
BD9143BF
BE0DF267
BCC53B08
3D8B1E5C
BBCA89FC
3C675361
BD4C34C2
BDDCB46C
3CE108C4
BB89A88B
3DCF49CF
BDA17B96
BD641C3F
BD971865
BDB5C52E
BDA05DD9
3BF1ED18
3D99FE43
3D0E22A3
BD308030
3D5094A3
BD2173B8
3D3318FC
BE2CF701
3DEE019B
BCAAA3AD
3D25907E
3D8A209B
3E0409A2
3D9D2C7C
3DD8383B
3C3EF49D
BDB6D091
BDBEF73C
BC475819
BE1CF206
3ADA7F3D
BDCF0E91
3E23C2DB
3E1573EB
BCD85BE2
BCA6A22B
BCB4BD77
BC766623
3E05BAF5
3DED4D40
BD8278D1
BBFA4830
3A224463
BD785E81
3E2D8E43
3DFFF9B5
BD351698
BCE9D94D
BD9ABB02
BD325C3E
3D8808C8
BC8637BD
3D0999DD
3C0811B2
BD38F14E
3DC6162F
3E2A48F9
3CD2DECA
3D9713AD
BE036A83
BD95A9EB
3E145C79
3DE2552A
BE24473D
3C986339
3C7E9FAE
BDC093D9
3D665CF6
BCED4E4D
3E1668C2
3E1137B0
BE27891E
BDA6E8F3
BD4F4624
3DE4C943
BB92AB69
3D669058
3D9DAAD6
3E14A622
3DB16A05
BCA3E7D1
BC1A5A8A
3DD9D3CC
BD8CEEE1
3D10880E
3D181062
3C19806F
BCE1D218
BB7850DF
3D45A815
3D5CF356
3D900BCC
3DD206C8
3D54C661
BE13B29A
BD473EEE
BE065B21
3D865519
3E2B19E7
3DF5FB2F
BD0626F6
3D2D6990
3E0FC3B5
BE087D2C
BDA9BA5E
BDA3864D
BD25D28D
BD968406
BE083233
3D456E69
B8B45AE6
3C8E2C13
3E0EC850
BC13FAF4
BDF1D8A5
3DF86B16
BDC48E04
3D055FBB
3E25FAA9
3E250C5F
BD203D57
3DB88E37
3DC5143C
BD3078D9
BDFA1A93
BE056DA0
3E071FBC
3E170E2C
BBA07703
BD250D6B
3D12BC30
BE27EBF2
3D5E8816
3E1C8798
3E0FB225
BD9FC2A9
BCC0A8D2
3D77B7C8
3E1859C9
3D046738
BC8ECFA7
3E24A1F1
BD814834
3CD158B8
3CAE9AB3
3C23E39F
BDD81E04
3DE5460B
BD986C22
3DF6188B
BCFB3312
3E251F3F
BD8887A9
BCC4D65E
3DCEC0F9
3DD5885D
BD584D34
3E159685
BDE0370D
BC890B41
BC7C6541
3D2B3893
BDF2F124
3E1E0503
3D802EA9
BDC9F6A9
3E098527
BE1E1B09
3DD39000
3DFE2EF5
BCA68F4B
3D9763E5
3DD55821
BD2A4441
BC9207D5
BDC132B5
3D083FD5
BE083D36
BD345BF2
BDCAD1D0
3DE1ECD5
3D7F0BAF
3DF66623
3D4CBAF9
3D8945FA
BDBBA882
BDE0E8C9
BDAC8DE3
3DAFD220
BE24E161
3DF9C843
BCD1D8A5
BE10EED0
BE1D0785
3CAF09D9
B9A5ACCD
3DE67D78
3DFE1A82
3D9DD7ED
BDB38716
3DDA99FA
BD54EF46
BD0F29D4
3C170F7C
BE0FD114
3D8BF1A6
3E1F709B
3E2495E1
3D8B15F9
3D84028E
BD723897
3CED9DFE
3E175148
3D2369FD
3E03825E
BE1BA776
BD2BB01D
BD890929
3C0576CD
BD0C1659
BD6E6EA8
BE133FC8
3E29AD00
BBEB7026
3D80CCFF
BDC78E19
3E048451
BD2A38B9
BD156085
3D04FE37
3DD42785
BE2EA140
3D9E2153
B9AE9681
3E25DB34
3DBC1509
3DD5E17E
BE2019F4
3D4230FD
3E1AC109
3D0D9408
3DDE4C51
BDDCCA71
BE1028E5
BD83161A
3DAE28ED
3E040E9D
BE1F266C
BDF1DD5D
3D595EE1
3DC21F2A
BDBD6170
3DAF038E
BE139A7C
BE26D374
BCBBCF4F
BB5BF056
3D60663C
3D269DF9
3D4127B3
3DA3B81B
BC8D690A
3D9C7582
BBA7A41E
3D956A7B
BDB442C8
BDCDF267
3DF39E28
3E29AFE2
BE037260
3DDFB507
BE05B4EE
BC03B603
3DEA600B
3DA391D5
3D374688
3E078B37
3CF7B5AF
3D768CEF
BDFF7836
3C112125
BCDE3327
3BEF6F8F
3CFBD48D
3E171002
3DA76F2A
3C1A88AD
3E290603
BC174E66
3DDB267C
BD102470
BE1F67B2
BCE0999E
3E157DE1
3DC35504
3E13864D
3E22977D
BE23C8E2
BD167EC8
BE02E0A0
3E2A1CEF
3D78B9BB
BE060AA6
3DD9B670
BDD69553
BDCFA2F0
BC947065
BCE6FB4C
3CBDDB98
BCFFC979
BE2D306A
3DAAC109
BDBC4114
BE2740C4
3E071477
3DB9D452
3E0F0F9D
BC494B38
3B1C0A8D
3D5801B4
3D9D1915
3DBF1CFC
BDD31EC1
3CFBCE42
3E1319C6
3DA77037
3DBDC593
3C0DEB10
BE1A5658
BA6DC3BD
3DBF223A
BD5D3AA3
3A10F734
3DE51E32
BD745CFF
3D814834
BD858601
3C4621B8
3D4242D0
BC8509C0
3DCEC205
BDBC7043
BDC3265B
3E1B0100
3CC68449
BDBB341E
3DC31F04
3E1E7925
3C4EEE0F
3C2FC47E
3E159924
3DC83A97
3DBD50A9
BE1E0DED
BE1A9CDC
3E2C0336
3CB1AF3A
3DA924F2
3D5A597D
BD9D744F
3E067D35
3E01A933
3D6CF851
3D8A4C1F
BE0EE06E
BDCF6838
3DA7CD03
3DE4A05E
BE294EA0
BDD4916D
BD925919
BBBCB5FE
3D40B674
BE286D72
BCB1FAB9
BD0A2984
3C8C3F3E
3D390321
3E2D3911
3E1AC216
BD04D014
BD0FD4BF
BD7F3387
BDBACBC9
BDA64990
BD6808C8
BC3F3BEB
BD3760BF
3CD907D9
3CF2CF96
3E1A5CA3
3D99945B
BCE40421
BDDA4BDC
BE0DBF48
3E12FFD2
BE1CE810
3E08F323
3CF4BE83
3D8ACEAB
3CF75FB3
3E299AA6
BD445BAF
3D86E654
3DE9B1FB
BDB799E5
3DC6E760
3DC2339C
BDF15CEA
BCD13511
3DB87C63
3E04B018
BDBCC9EB
3DB19E73
3DC26916
3DD3ABC9
BDFFC7E7
3E1EB4EA
BE031833
3E132F88
BCE77920
BDAE1E71
3D90F063
3DBEC3DB
BD9BF163
BDCD85E0
BDE775FB
BE1100A4
3D8CD185
BDFA7222
3CC26352
BCCC76D1
3E0EBD90
BD98854D
3DD565C3
BD7D017E
BE264495
3986BDF5
3E1807BC
3D1EA140
3CF2C732
BCCE9A2C
3DFC4B0A
3DC99BF6
3C1A415F
BB950FC7
BDE75BC4
BD3266BA
BCF13272
BD9F4D38
BE145CBC
3E25D5F5
BD430F49
3DB7036D
3DF1F794
BD4FEEF6
BDCE86C6
BC955D5F
BD2F9DB2
3D887EBF
BE01E5C1
BE2D4C34
3DA2845A
BD8E90BC
3D8339C1
3CEC3B92
BC43979A
3E022C45
BE22C882
3DA1A8AC
BE27BAED
BD36AD71
3E1F5CF2
3D605BC0
3DC57647
3CFFB481
3BA044AF
3C8FE47A
BC153DEA
3D465C70
BE18C543
3DB9A9DA
BE1FC760
3E1E03B4
3E134F40
3D590D17
BD53F39D
3C43AC93
BE068230
BDBF04DE
BCCFAACE
BD0DF04E
3E20BC38
BDD0891A
3E049D39
3D9B120A
3DFA31A5
3D929D41
BE1EA2D3
BBB40F67
BB8ECD8E
3DC91106
BE21059F
3DA8E2E3
BDF6F199
3D4DEB10
3E2EA20A
BC205144
BDC160D9
3D8A99B7
BCE8A71E
3E0E325D
3DA0EE07
3DBEEB2D
BDC7631B
BE182B63
BDB5653D
3DD44AA5
BBD6DC1A
BDCB039F
BD55AE1D
3E02FBE3
3DE5C24C
3E0D4DC6
BDF931CA
BCF56862
3DA4156E
BE20DE4C
BD8582DC
BE2440F2
BD8579F2
3DEC386D
3C985F07
3E0AF966
BBB40F67
BE076F2A
BD911623
BE1C3C19
BD0F6CF0
3D9EA0BA
BD0A222D
BD839FFD
3CFCD680
3DE1C609
3D976146
3E1447C3
3DC3A323
BDECD20B
BE1EA0FD
BA85B185
3D196638
3E2A1DFC
3D1389B5
BD14AB1D
BE0969E4
BD49EA9A
3E1BC48F
BE105DD9
3DECED4E
3CFF66E8
3D073DE2
3E1E20CD
BC599CBF
3E231F04
BC59F4D3
3D8F1562
3C772713
3DB4AE43
BD1462C3
3D330C67
3CC2B0EA
BE1F71EB
3E053719
3DE8B978
3DE724B7
BE0177EA
BD780022
BD0549B6
BE09C497
BE212B5E
3D52A0EC
BE1A47AA
3CF80560
BDAA12F9
BD29E0A4
3E0C12AE
3DC1650A
BE0DAC26
BDB9F341
3E0882F1
BD827C7C
3C4FB331
3DCD0679
3DB631B6
3DA481F5
3E26DA88
3D5D3672
BCFAA045
3E1701DA
BD9BDC6A
3E17D955
BD3FF690
3E2131EC
3E0D92B8
BD9B3637
3D083772
3E25521A
BC39E493
3D272DA1
3E0A8C9C
BE0450AD
3D9960FA
3E209F62
3D9545C8
3D34DAD3
3C60FC2F
3E04959E
BDE2CDC0
BE1A747E
3ACB6C7A
3E09528F
BDCF3882
3D1A1230
3D98F0C7
BDB858BC
3DCACD18
37FBA882
3E0BEF4A
3E1CAF71
BDCECA68
BE0F1A1A
3DE7E176
BD3589F0
BD9F7F06
3CC2CE46
3E1C0768
BDDB2FEC
3DA71D60
3CF9B34A
BC3BCF4F
3E0AA21A
BD84DE3C
3CDB291C
BD6DBF8C
BE0444E1
BD283A11
3D537D20
3DD72F77
BE016ACF
3D84D4CC
3C8893B8
BE0934F0
BC622E5E
BD3F2B24
3D62D517
38841EDE
3E281238
3DC8D003
3B9DA598
BDF3311A
BD87A17F
BD8790B8
BD969A0B
BDB85272
3DA35936
BCB9FFD6
BD69DB66
BE0A20DE
BE2A847B
BD0DAD32
BDCCDB7B
3D534BD7
BE0DF480
3CA6655A
3E18D75A
3DECFA6A
BE23DA30
3E04330D
BE1E6320
BDEF0F17
BD82D83C
3D0A8D22
3E0DF7A5
3DB47842
BDCBDC27
3E1826AB
3B0F10AA
BCFFF584
3DE7E176
3C628ED6
3DED7492
BDF8969A
3E1259E2
3DDAB53D
3DC8E25D
3E0CD78C
3D9E16D7
3DCA2984
BDB4666F
3CA7B0B4
3C283F4F
3CBEAB36
3DAA600B
3D98750C
BE0A8B8F
BCF18655
BB3F6E3F
3C976577
BDDE54B5
3CEF5EC8
3DD15D70
3AC9FB61
BE008B33
3E1148BB
3D730729
BDCFC47E
3E1A7A42
3E26D762
BD874AFD
3DD72E6A
3CDC768E
BCE9424E
BD59B2C4
3E28CA3E
3DFF77AF
BD1004FB
3DB748A1
BDA1D29E
3D9E84F1
3D0564F9
3E0A27AF
BD8773E2
3D25A78F
BD02B841
3D4955B4
3DDC4B0A
BC743C7D
BCADD15F
BC07AD08
3C970B4A
3D29EC2D
3D2D7625
BE0CA31E
BE0092CD
BE02ADC5
3D64BCAE
3DB79182
BDDD6D7F
3D1220FF
3D03C4B1
3D9292C5
3DCB990B
3DC90DE1
3D974688
3BA161E5
3CD6FDA8
BE0C1616
BDD9C411
BDAF587D
3D8635A4
3E119158
BDDB9171
BD3E20CD
3D230DB7
3D696C40
BDBDE93A
BD8AEC07
BBDE43EE
3C96A8B9
3E2D102C
BE2F0996
BD653DA7
3CB25D4A
BE12AE08
BD4EA8DA
3E09FBE7
BD01DE27
BDC9717E
3D3734B5
BCB97BB7
BE092429
BB85A922
3DD5D91B
BDE7FD3F
BC99285B
3DA20AB7
BDDF3062
3E2943E1
BB45FBF8
3DF92F2B
3E24577E
BD53953E
3D130271
BD837C57
BDF25354
3DC24B34
BD2034F4
3D5AB4B7
BDDEC3DB
3DF03D9B
BE279F23
BDD12E41
3E241030
BE01CA3A
BE02B3CC
3E0207D5
3D84816F
BD5BAC2E
BA9C7FFE
BCF73C0C
3E1C3B4F
BD6ED246
BDC70004
BBF47B67
BDD0D499
BDAF2A5A
BE074688
BE212D77
BE052DED
3D83254E
3E0F3344
BD9BB518
BDB1A006
3D8E6C8F
BD112CAE
BE1CC858
3DEA03C5
3E159924
BD1183B6
BD1D9D34
3D4E66CB
BD8E568A
BD9C01A3
BDAF7CAA
BE1E22A3
BCF70BD0
3CA261BF
3E0EFED6
BD863C75
BDD17375
3DB6EEFA
BDD6AF04
BE245F18
3C3B3850
3E0E4756
3E1361DD
3DE196D9
3DBCF701
3D27D673
BD6C8605
BDE1847F
BC53A1D3
BDA4DC23
3E0AE536
3DAB96F2
BBA67621
BDD79314
BD86CE36
3E0E6A77
BDCE67D7
BC74B620
3D4AD688
3CE2D83C
BD98F2E0
BE08F217
BCCC3C19
BD130165
BE1CBD12
3D9C0097
3E18D003
BE1060BB
3E222C45
3DDD6170
3D16073E
BE0ED30F
3D48472C
BD89563B
BD501190
BE2554FC
3E0ACE25
BE2777D1
BDD125DD
3E2F57B4
BE11EC4E
BE193F6C
BDB0A4E3
BE06D4C3
3BF10A9A
BD1656EF
BDEF3CB4
BDD9096C
BE0A25D9
BDCCA1CF
BE03C6C9
3D6BDF4C
BE1F23CD
BD3EA811
3CA05DD9
3D6043A2
BDCFF089
3B191794
BC44588A
3DD1904B
BD3316E3
3CCE8D97
3C93A2E0
BDA09C3D
3D8A1BE3
BD2CD9E8
3E1A1017
3D7DA837
BDEBE404
3E1B81F9
3E0C5C57
3B7BCA10
BE10CBB0
3D0DB9C7
3D243244
BD139FBA
BDC4A59C
BD97AFEA
BE2A2DF9
3E1DA1A9
BE271DE7
BD9F66E8
3E1D7625
BC69B38D
BD1DDA06
BDA412CF
BD690ABB
3D3F0996
3D9C2118
BE14167B
BD030A0B
3E291538
3E159360
3C29A3D3
3E1BE165
BDFEAFEE
BD2E1262
3DB5F5F1
BE131487
3C0BF3BF
BE29CE07
3CB66F93
BD39A283
3D3255F3
3DCB7CBB
3D6FA1E4
3D4C76D1
3D80F909
BC8E92D5
3DB3D189
3CC29E0A
3BD373B0
BD915161
3DCB8D82
3E03022E
3DB1AB08
3DEFABDA
3E1E496F
BD010F95
BD40DF59
BD807EE1
3DB7C1BE
3D9D438D
BC5538AC
3D645B29
3D341D08
3D851F3F
3CD8B3F6
BAD130E0
BCE8661B
3BAD57BC
3C7B6135
BC660807
BD687A07
3E1D5736
BE2778DD
3D8011D3
BDEBDA0E
3DFE61D0
3C8C953A
3D85DAF0
BD3ECFEA
BE147F56
3DFD0D06
3E293C8A
BDB96180
3DF54B8C
3CA4A490
3D845E4E
BD69728A
BDA3B0C4
BDB16335
BE1A9260
3E00E12F
BD672DA1
BC85058E
3DADD053
3E27E308
3C8FD9FD
3D41376D
BE2D18D2
BE252E30
BDBF2021
BE003D9B
BE04341A
3CDDFEB9
3D8984E4
BDBF01B8
3CA4DD2F
3E11C6D2
BD833D6C
BD4FFB8B
BD563993
3DF145D8
BE24827B
3C81ADEB
BE1965B2
3DBD883C
BE2A66DC
3DE82C6F
BE274D16
3E0C00DA
BDF130E0
BCE7C6B9
BD85A683
BDA6BACF
3E1E7147
BE23D9EC
3DA89F41
BE09FE00
BC756217
BE0356DA
3E2B8950
BE29F128
3DD9D66B
BE19053A
3DB26D8B
3DE33483
BD9F8338
3CD8E864
BDCA7829
3E2910C3
BCE640A7
3D818C5D
BE1B6284
BCDFB2EE
3E0D338F
BBFD2A63
3DF7646B
3D205250
BDFB5632
3D455433
BDC018A4
BDED7F0F
3E0744B3
BE1755BD
BBD5B680
BD5E0A42
3A8AEFB3
3E1FE048
3D0BBC2C
3DD70718
3E2430F5
BE04523F
BE1358B0
3E10DC33
3D996B76
BB5F6988
BDDBC7F7
3E1CE0FC
3E1EAF25
BCC7DC38
3C10A783
BE15DBBA
BDBF0564
3D47852F
3E162175
BD8C9082
BE2C0A8D
BDEC0B56
3D84C7B0
3DF722E2
3D652589
BDFA0F0A
BD042FA5
3E073D5C
3DB88659
BDAD6ECE
BDEC7219
BD23EE1C
3DDB5200
BE10114D
BD6E6538
3E0AA2A1
BE2AA8A8
BC1513F9
3D7A8D65
3DB971C1
3DAB4E98
BD80B2C8
3DE91538
3D6EFF5C
BE14851B
3DFF1F9B
3DBE657C
3E0B5E96
BE02A800
BD6515CF
3E005144
BDCB399F
BE1FDDA9
BDA4C166
BD545A60
BDC62D41
3DAD83C7
3E20DA5E
BD9AC797
3BA821F3
3E2CBD55
BDDCC07B
BD8C61D8
BDC8B86B
BD057082
BE04CE3E
BDCF8BDF
3D33F20A
3D20DDC6
BDD0E2C1
3C94FF00
3D50F734
BDEB30B6
3DB80BAA
BDDDDE37
3DAF2629
BD29C993
3C7D47BF
3E0E6E22
BCDE00D2
3D576FF4
3CAEB80F
BC916A8C
3D994424
3D880065
BDC28E50
3D9157AC
BDADD591
BE069164
BDEB6849
3DAC4934
3D734938
BE238A3B
3E2A8FC1
BD90B956
3DB35547
BDE61E93
BD807AAF
BDCB5914
3E2CA9EF
3E200C95
3DF21C47
3E006424
3BC84F90
3C8270F4
BDE44E0E
3D4F0308
3E192429
3DA9BB6B
BD9F4235
BE265732
BD2A1837
BE24A16A
3E2526D9
3D4E831B
BDA0F990
BDE45DC8
3C82ABAC
3A7DC161
BD1A719B
3E1A1C69
BDDD49D8
3DA8155D
3C53953E
BD849B20
3D8D6FDB
3D1FAEBC
BD33ACD6
3DCE6EA8
3C1E01DE
BE0E1438
3D584F4C
3E0DD69D
BCE9A6F8
BE2F4E01
BE2C0B13
3D9CB924
3E2A8049
BDAE9CCB
BE0EBFEC
3E00B4E1
BE190ABB
3D9B7D85
BDD73D19
BE0636F4
BB423FAB
BE19D9D3
BDECBB80
BD1E8F6D
BDBFE75C
3DC74EA9
BE023E9F
3E26130A
3DA74752
3CB81B65
BE049D7C
3E1A9F38
3D7646AE
3D878AF4
BE259253
BE2F3BEB
BDB8EF35
BD9444E1
BDBF6FD2
BBE43244
3DEE6D16
BD8DFA44
BD093D96
BE1C182F
BE26748E
3E0E6B83
BE10B242
3D3280F1
3E099FA1
BE03C5BD
3E18C3F4
3DE12839
3E113016
3E27E282
BD569E3D
3E01654D
BE14F1E5
BDCBBE44
3CF05A71
BAD130E0
BDA57215
3D7178B3
BD1844D0
3DC54DE8
BD302603
3DC007DD
3E0EFCBD
3DD7F173
BBF55DE6
BDD985AD
3D61C25D
BC126C7F
3D3AF859
BE10C0AD
BDADC2B1
3CAF251C
3E28769F
3E2DBC23
BDCE26D5
BE2F26F2
3DF479D5
3DFEA5F8
3D73DAF9
3E14373F
3DB1EF31
3DC3EB7D
BB6D6FDB
BDFEBF23
BE1E5109
3DBBEFD0
3D196851
BC9CBEE8
BCA1CCD9
3CCD22C9
3CB6C58F
BD17A67A
BD196638
3E1E4F76
3DE1EDE1
BE007853
3D9FB1E2
BD85FA66
BDC4912A
B9807358
BC8CDEA0
BD23DB3C
3DE71583
3E15436C
3B54AA11
3D846F15
3D1C8323
3DD7EFE1
BDB4D61B
BD8564F9
BE15D745
3E2A1E82
3E2AE211
3C149E88
BE2C8649
3B55629E
3E017D6B
BDF18D26
BE1850DF
BB13FAF4
3CC093D9
3DEE2974
BDC1B4BB
BDD6AAD2
3DFF3387
BC4054EF
3DBA53B9
3DD02689
BB1A34CA
BE18F084
3E2DA05A
3E1ECCC4
BD9E68A1
BDD2A27F
BE033722
BD634FC6
BD64A490
3D4DCA8E
BDE8522F
BDD21BC1
3CCD1633
3CB60D02
BD6071C5
3D9CC63F
3D0841EE
3C184A0E
3DABBFD7
BD166ADB
3AB417CA
3E1DA405
BDEF9980
3E02B778
BCA62025
BB7D199C
3D19E1F4
3E15286B
3C6746CC
3E1CA149
3DEE64B2
BE16D7A5
3D7A9C13
BD05B7D0
BC3FA094
BDEF6944
3D9BC340
3CB8DC55
3D3687B1
BE02B778
3DE445AA
3D402F30
3AA45D42
BC0B6955
3E0E98DD
BDDD4D83
3E0CA362
BDA8E92D
BE02AD82
3E12B346
3E188ACE
3E2690DE
3DBE7968
BD3D5ED0
3D15F245
BD81F4B2
BE0044AF
BBE3D5FE
3D1B413A
3D9C9364
BE115875
BDC1D9F5
BDFCFAAD
3C9F87F0
3E2E6080
BD672EAE
BDC36007
3C000A7C
3DCB6630
3E0215FD
BD593922
3E1B295F
3E0A8B09
BD59285B
BC956C0D
3D8D70E7
3E1A9E6F
BCC5E4E7
BE1E4E27
3CF8D717
BC90B631
BE22C0A5
3D512557
3D0ADBC6
3D529BAE
BDE61D86
3D59BE4D
BDB8AC9F
BDF2A737
3DFD334C
3E167BA2
3DED184C
3DF8AC9F
BD622707
3E118E75
3E19AE92
3D70C671
3D87D912
BD732379
BD8DD3FE
BDECD291
3DD3B96B
3DAE874D
3E2C6152
3E240E5A
3DC05469
3D7D438D
BE23226C
3E195E18
BDC64C30
BC5CF030
3DEDA017
BD8820E6
BC9FA97E
3DE81C2E
BCE3454A
3D03ED96
BE0C64BB
BE1E414E
3DB77532
BE29DA16
3C52BB23
3D01919B
3DF81F97
BE2909AF
BD84AE86
3D638434
BDE406C0
BD203819
BE0CC144
3E24523F
3E253E2D
3DF4384C
BE2EE2CA
3DE6540D
3D3D1676
BE28A97A
3D0EE8D1
3E02BBAA
3E2F1E8E
3E2B413A
3DAF6CF0
3B8576CD
BE14C448
BE1D64D8
BDD7FAE3
3AECFA6A
3DDF5169
BD0FCB4F
BE24C661
BCC4D877
3BA222D5
BDBADB83
BD8F71A8
BE27E0F0
3C01F96A
3E1FE197
3E06DDF0
BDBA6267
BD853C15
BD4E67D7
BE1C7A3A
BDBAFD11
3D54AB1D
BE077D0F
BC250939
3C60EF9A
3D8978D5
3D23B14B
3DEE75FF
BDF1C4B9
3DD61AA4
BD2E87D3
3D72CF96
BC470436
BE10D174
3E0AF8DF
BD5EDBF9
3E002795
BDAFA509
BE269E80
3DE6BB56
3D7DC161
BD15970B
BC96F651
BD431F04
3D0CA4F4
3C6B67C3
3D8D4F59
BD2B10BA
3D39378F
3D76C482
3BA7F801
3C280496
BDEC7C95
3DAAC9F3
3E29CD81
BDFA9E2C
3DEF2F12
BD1AA822
BE07B17D
3DAA82A5
3DCBAF96
BDED3847
3DE160D9
BD109071
BDACB7D4
BDFCFAAD
BE1EA077
3D93C1CE
BDAC460F
BDBA92A3
3D93B9F1
BD6AFAB5
BDB0281C
BCFB17CE
3DD0D174
BC969C24
3DD7B070
3A7DC161
BD8CDE1A
BCF570C5
BE0399B3
3D105C03
BDF67019
BDFF5E85
3DD68BE3
3D2DAA93
BE133227
3D62C237
3DB22D95
3D3A15DB
BD988228
3E20BE0E
3CB20B80
BE2BDAD7
3E130E80
3DF599AA
BDDD70A4
3CFCB2D9
3D8726D0
BE001B43
3D09EDC0
3DF0B0F2
3DDA4830
BE135116
BDB5FA22
3DAE5259
3C7BF834
3DE51A87
BC95464E
BDA18B50
3DA2278D
3E0ECE14
3DA0242D
3D4D38CE
BDC816F0
3D94A87E
BD103537
BE1F3ADE
BDFD71B0
BE2A6A44
BD6DB61C
BDAFAEFF
BE2960FA
BE0E5ABC
BDDC536D
3E112663
3E20F0E9
BE0E6213
BDD10ECB
3E125072
BCD1ED9E
BDF18223
3D81461B
3E07DBF5
BDB1E753
BCF090F7
3DF5CC85
3C0FC0D3
BDB87831
BDECCFF2
3AA697AF
BD9E83E4
3E25568F
3E00D6F5
3DC9BAE4
3DD11E00
3E2D9F90
BC48A7A4
3DC643CC
3C2A0CAE
BE103361
BC1A7C18
3CF2A38C
BDFA005C
BDD1ED18
3D30435F
BE20E560
BDCA90CD
3DD6B096
3B50CC36
3CFEA3DF
3D073040
BD86E654
3CDD00F7
BD8DBD73
3DDABC94
BE088D6D
BDB7310A
3D1FDCDF
BD628DCA
3DA135DB
BD95AFB0
BD9247CB
BE2C4977
3D32378B
BC26655A
3DAD2BB2
3DFA908A
BE295FEE
3DB87400
3D964495
BD2C98E5
3DDFE75C
BBFDE2EF
3DFEB9E5
BDEF27BB
3E14F095
3D9CD91F
BDFBA7FC
BCBCF2D0
BE14B3C4
BDBE63E9
3E2BF834
BE056CD7
BD6C0E7C
3C8B5ED9
BD7A54C5
BDDC382A
3DA006D1
BBF05A71
BDAA4D2B
BD8EC205
3E1E68A1
3D22D949
BDBA1BA0
3C9DECE5
3E27A67A
3E00E172
BD544999
BBBBA12B
3CC4AA54
BD0E52DF
3D6A0989
3D949CF5
BDE3B928
3DCF7985
3CF2DE44
3DBF9C63
3CB1C865
3E11EA36
BDC15769
3DDC419A
BDB57CD4
BE012F0A
BDB3311A
BC9274E2
3B82BE8C
BD19CCFB
3DC41F64
BDF0BBF5
3C47F349
BC7B1184
3DF69C24
BE1785F9
BD746994
3DBF6A0E
3DB4CEC4
BDC6A65D
BDC256BD
BDCEC8D6
BE22CDC0
BDC7032A
3D11B0CD
BDE71609
BE04DD2F
3D6D3416
3E06555C
B9902DE0
3CA2FF09
BDC6AD2E
BE299674
3D7416BE
BDB3E9A7
3E2B3F64
BE11FA33
BD82E87D
BDE5E56D
3CD65E46
BDF03E21
BCC2F838
BC21DB87
BDA69058
3C04DB9C
BDE1B64E
BE2B7B29
BCD9A954
BDE97636
3CEA8544
BDCDCEC0
BD916B12
BDC49236
BE28FEEF
BE23DA73
3E293EE6
3DBBD167
BD88EDE5
3CE47347
3E1FE64F
3E1E614A
3CD8C8EF
3E1575C0
BDFDF97B
BD25204B
3D858FF7
3D98DE6E
BC145F9E
BE13404F
BDD9C9D6
3E0A1F8E
3E19F7F9
3D930BE1
3DD2FBA0
3C5B445F
3D145953
3D93C46E
3DF95358
BE0CC9EB
BD04A1F1
BE0180D4
BD1BFF04
BDF5243A
3D395704
3E174752
BDF74928
BCE21965
3E16149C
BD5F6556
BC2E9681
3D5F9592
3D44523F
BDC60243
BD915593
BD51F70E
BD1FACA3
3DE81883
3DF86013
BD9BA776
BB9ADC90
BE20BB6F
3D09331A
BE0728A6
BDD95358
3DEB75EA
3E237154
BE283A97
3D8EFF5C
3D17FA5D
BDE70DA6
BE10A73F
BD3B5E0F
BD9A53B9
BDC8D196
3DEE3715
BCEE264E
3E14B4D0
3D04A72F
BDC9081C
BDBE3EAF
BE225CC4
BCB81B65
3B2FF6D3
BE207703
BC078FAC
3E15692B
3D1550CA
BD8CABC5
BE2A5721
BDC6948A
3E065D3A
BDECA57A
3D8DD378
3DB7B7C8
BE10B2C8
BE1DDB12
BCC6CDAF
3C8409E5
BE0384FD
3E1EEC39
3B014D72
BE26C509
BE2A2DF9
BE10B567
BE198EDA
BD8CE358
BDADAFD1
3D01C92E
BD87C0F4
3D8950FC
BDD9D66B
BE0A2A0B
3E0CAEA7
3D26698C
3E0FE9FB
3D380A9E
3DE73605
3E116CA4
3E13400C
3DFAE3E7
3D252AC7
BCBD1676
BD43A53C
3E20EBAB
3DDAE686
3D58C4BD
BDCD6883
BE06B26C
BBD1AEB4
3D8FA616
BDAEFC37
3D8BF3BF
3C78FCD6
3C6DBB5A
BE2ED99D
3D7A83F5
3DB8B7A2
BDB50E34
3DAEDA23
BE1BBD7B
3DCAC754
3C840E17
3CC72C0E
BE05DEDF
3D170E6F
3DA9EECC
BCC679CC
BDCE34FC
3BCC2507
BDC74752
BE1DAA50
3C7C371E
3C929670
3C4ABC51
3DE38F36
3D742BB6
BC9B62C7
BE21E860
3D15F45E
3DF04CCF
3C0E4324
3E0933E3
3E27C99B
BDF6E610
BD4D4CBA
3E29EA14
BD70B9DC
BD4F3ECD
BE049C6F
BD58A548
3DB41312
BDD01D9F
BDDFAE36
3DD56430
3DD21683
3DF450F0
BD3CFF65
BDE6601C
3C0AD256
BD4E0FC3
BD6E1587
BC81083E
3DC1D862
3DF8CA82
BDA4EE7C
3E28E10D
3E27D0AF
3E1E30CB
BCE3A9F4
BE0FB225
3DBA5F42
3E1126A6
3DF68CEF
3DC99D02
3CAC29BF
BD7BCA10
BE1B7564
3E225919
BD32DC2B
BE118FC5
BD0B9021
3DBC9470
BDBC6DA4
3DAF9C20
3E060FA1
3E1EF391
3DA2E87D
BDC72FBA
3D7A0E84
BB5FBD6A
BBF1886E
3E186013
BD97CAA7
3E17CBF7
3E0E6D9C
BC8958DA
3CBC59B8
3B9728A6
3D4C76D1
BD9D084F
BD66E760
BDBF4C2B
3DC5974E
3E19A6B5
BD267621
3DE7B3D9
BDBBDAD7
BE20C1FD
3DB4D402
3DEB5DCC
BD6F5A96
BDA221C9
BE10446B
3E0AC216
3DBF9379
BE222E5E
3D0C07AB
BE062AA2
3C598BF8
3E25AE1D
BBA1511E
BDE5510D
BE1A0EC7
BD12C27A
BDAD6A9C
BDC8448D
3E2148BB
3D834763
BC82D59D
3D705EA2
BD8A86D7
BDE1C0CA
BE292AFA
3D959579
3D6454DE
3BFB8F58
3D0113C7
3DA6F8AD
BADAA0CB
BDA990F3
BDEADF72
BD3E7D13
BCFDD441
3CB1FCD2
3DE89870
BC004535
BD6352EB
3DD6BE38
3E00092D
BE19D734
3D233ACD
BDF1769B
BDA6F502
BE02699C
3DA795F6
3E0C4007
3D18F81F
BCAA8438
3DBF9D6F
BDCE34FC
BDFAB29E
3C3384FD
BCD03B82
3DA0064B
3C93250B
BC0EC52A
3B61932D
BB807BBB
BC81D191
BD756DA0
3E0BBA56
BDC2F1ED
3DA50614
BC807358
3E08E53F
BE27FD82
BBF08CC5
3E18C198
3E1C7150
BCBC70CA
3B954A80
3DFE8922
3E27EBAF
3DD7707A
BDDB95A3
3E1A6B0E
BB6BCC6C
BD01DD1A
BD84D65E
BE0281FE
BDCCF638
3D5E2EF5
BD130F06
3D78DF7A
BDE445AA
3D5832FD
3E01337F
3E0D102C
BE26848C
3E1ADE22
BCCD0DD0
BC285016
3BF1A198
3DE6EF3D
3DD465E9
3D15E4A4
3DA5EAAB
3D5D462C
BD102EEC
3B143E10
3E03E469
BE07BB73
BCCC660A
BDEA2878
BDB3879C
3D605CCD
3DA99631
3D5717DF
BD637AC4
BE0251C2
BC0A3726
BC3E22E6
BCE1522A
3E27F77B
BC0B4BF9
BD82DADC
BD9C89F4
BD7380CB
BD4CB4AF
3D45C78A
BDA4473D
BE17FBF0
BC47ABFC
3E1C1DF3
3E0A97E1
3DA163FE
BD27A0F9
BDD52652
3DABA1F5
BDD1BD62
3DC7FD3F
3DA0DDC6
3E0AEAB8
BE21B9FA
3DAFCA43
BDA5EEDD
3D20B806
BE23DDDB
BE2E2691
3DCB7A1C
3BF54D1F
3D73F317
BE2636F4
3DDEE243
3D883C29
3E13836B
3E293144
3DB6D86F
3DBE4F76
3D9D1D47
BE0DC098
3D502470
BBF8F041
BD3996FB
BD2F1BAC
3C92A0EC
3C8A04D1
3D23736D
BC782F51
3D817226
3E0D10F5
BD0DF7A5
3D9E0696
BDEB32CF
BE1F87F0
BBB8C75C
BE0215BA
3DECF8D7
3D3F1412
BDBF5276
BA9B5200
3C7D2A63
3D9C536D
3DC44E94
BE246174
3C0BEB5B
BE0131EC
BA972043
3DD41206
3DF204B0
BD887F45
3DEF10AA
3D4625EA
BA8BFC22
3E0A24CC
BC954A80
BDDBBE01
3CD51D69
BDDF8983
3D3735C2
3D743C7D
BDB600F3
BE172086
3E147022
BD80DDC6
3E2D4456
BC7FD1DD
3DB2A9D6
3D2CE78A
3DAF6C6A
3D943D04
3D9A8CDF
BDC22681
BD18A43C
BE10D888
BBCA2553
3E2245F6
3DC6AB9B
BE1EF241
3CE33483
3D2C9AFE
BE14052D
BDD00ABF
BD44A409
BD855E29
BE1C7000
BD04028E
BDDF0996
BDCC5005
3D4A5050
3D827419
3DE728E9
3D22003B
BE16F21F
BD8368F1
BE2C62A2
3D08BFC2
3E1B4B30
3E274107
BC09C5E7
BD41AEF7
3D959685
3DCDF267
3CCBFD2F
3D69984A
BE164389
BD996E9C
3D9502AC
BD44F5D3
BE1093D9
BDC1D10B
3D9017DB
3E193D53
BD9F6FD2
3E0FE6D6
BC33C819
3DBFB82C
3D431F04
BD067382
BDE7BA23
3E15EAAB
3D646AE4
BE12F5DC
3E0CC31A
BBAE3A3B
BD511CF3
3D9F16B1
3E2B0E1B
3D02F61F
3E09884C
BE2A9F7B
3DB63348
BD4F7122
3E2F5B1D
BE150332
3E110CF6
BC9F5382
3D83FEE3
BD848A59
3D58AC9F
3E26223E
BB309E99
3E1F9CE9
BE001648
BDBCB253
3DEBC947
3DB80347
3DC3A96D
BE019115
BE2F51AD
BDCF5FD4
BDF55FFE
BDD927D4
BD1FBF83
3DBCAEA7
BE00D0EE
3DEE5DE1
BE2D898B
BDFF27FE
3D1B4352
3D5C8DA0
BE02923E
BE17D4E1
BDECE033
BDEDA7F4
3CF9CE8E
BD84A622
BD4C5FC0
3E2D5497
BE2141A7
BE12D384
3DB3508F
BE0E3D1D
BD897E13
BDE2A800
BCF531DB
BD8C6A3C
BDBAD6CB
BE0991BC
BD3FF25E
BB427200
BD526202
3AD82342
BB7CE747
3E0BC6EB
3D8CC4F0
BA8BB906
BDF7FCFC
BE0D52C1
BD0CC78F
B99FE868
3D626E54
3E08E4FC
3E10B1BC
3D12C9D1
3BF47304
3D07B45F
3E156430
BD918330
BD542C3D
3DF77EA2
3DD3E708
3DE9A240
3D2FDDA9
3E06F156
3E02D59D
BE127419
BD0EE7C5
3C1F9054
3D5FD36F
3D2A2C23
BDF65D3A
3D41376D
BDC6D699
BDD7E564
BE279896
3DE6DACB
3DB12EC7
3D9F4C2B
3D03C4B1
BE225919
BE1D759F
3E27457C
BD993922
BC9B23DD
3D4E23AF
3E0FB118
3D398E97
BDF349BF
3E19B34A
BE2A6ACA
BE0A2835
BE2D5305
3BFA5094
BDF71C97
BE2BB491
BCA8BF3C
BD876E1E
BE20D9D7
BDE7C6B9
BD19C8C9
3DC7967D
3DCE2542
3DD7036D
BCF824D5
3DE42742
3CC7820A
BD74ACB0
3E106C87
BD8FE048
3DE94706
3D9E718B
3C728848
3CD1287C
BDCF16F4
3D244524
3C5883BA
3E184018
BD775105
BC271583
3DD0AB2E
3D0E5A36
BD88B9FE
BD53C361
3E0FAE79
3D8D5F9A
3DFEA91E
BE056DE3
3BF62F9D
3D31550D
3C8EB24A
BE0AB5C4
3DEFF866
3D21D96F
BD26CF42
3DA49DBF
BE24AEC9
3DDE34B9
BE022FAD
3C0F861A
3DB574F7
BD008FA8
BE1AD8E4
BDD267C7
3D4B039F
3DAE9F6B
BE1E79AB
BE14D37C
3D51C8EB
3D4EB13E
3DBE82D8
BE1D54DA
3DE3443D
BD911CF3
BB5D0D8D
3E13E964
BD10507A
3B114B16
BD0AE968
BDFC64BB
3DD55CD9
BCD4B274
BCC5FE11
BDE13554
BD4A86D7
BD546D40
3DEBF5D8
3D87F23D
BD9F0D41
BC5206C8
3CF02A35
3DA1E604
3D681776
3E1F2B24
BC1E6256
BC1E8816
BDCE4324
BD9E2260
3D7B938A
BD6FE60C
BE2A7B4E
BE08066C
3E20DA1B
3DBF4667
BE1933A0
3DB0B285
3B2B1D50
BD6131A9
3D9BD945
BDCD58C9
3DE1E57E
3E29D020
BDE6C11A
3CCC7F35
3D7D1DCD
3E276EA4
BC3E5109
3DF47497
BDE3D039
B99BB6AA
3DB878B8
BD542E55
3DE60243
BE1F3ECD
BD9D54DA
3E2A7760
3D824BBA
3CD92535
BDBFE9FB
3DBCB817
BE133EBC
BBD26741
3DAB3700
BE1821AF
3E24245F
3E03482C
BDBDD1A2
BDB7891E
3BEF2410
BD1B7E0B
3D23F035
BD78AB0D
BE0C27E9
BE121C8A
3DA7546D
3E061D86
3D9FC090
BD00B88D
BCC6F588
3D61D430
3D3D3A1D
BB873BC9
BDEA8D22
3E0FD7E4
BE10153C
3DBE2718
BD137C13
BDC13F4B
3D830C24
BD912125
3DEF405F
3E19A911
3CD6C509
3E06F6D7
BE09D40F
3DCDCB9B
BC0E325D
BDAC7864
3DB0D62C
BD6B367A
BDA6CD29
3DE4C48B
3E2BE3C1
3C4D9A52
3D5420B4
BDE4F7EC
BD6F1023
BD0B178B
3DDF4FD7
BE2B63D4
3E242BB6
BE1E05CD
BE2D905C
3D6E6FB5
BE1DE15D
3CD53049
3D626C3C
BD6CE67D
BDA7D999
3E22BECF
BDF8C975
3CAF46AA
BD93DD12
38FDC161
3D87DC38
BE05881A
3DC69AD4
3E0FCEB8
BE199E52
3D53F8DB
BE10CCBC
3D869C67
BE14B1AB
BD92F7F5
3DE29739
BDC3F141
3D9C7DE5
BD8BE165
3CBE7297
3CA84381
3DB4ACB0
3E160B2D
BDAD4025
BE210A13
BD69717E
BE1D655E
BD9A41E5
BE258FB4
BD5AAF79
BDC4FA8B
3D0E0653
B9E496EE
3CE48E8A
3D9C0EBF
BCF96BFD
3E060200
BCD1CC10
3AEFFE2A
3D313059
BD330942
B8F34507
BC89E775
3E05EE57
BDCFD9FD
3DE4F095
BDD2E0E3
BBE89EBA
3C757B42
3D483772
BE0937D2
3E047ED0
BE053650
3E19D9D3
BE0E5B85
3DCDC22B
BDBC8E26
BD18958E
3D678D0D
3E173040
3D8D63CC
BDAC08B7
BE103600
BD9FCDAB
3D9D4068
BDD4F052
BDA0F5E4
BC3B05FB
3D9F4A99
BC97353B
BCD84F4C
BDBBEB9E
3E0FC505
3E1DFC1A
3CAE89EC
BE21A60D
BDC5803D
BD9DF091
3D2BBA99
BD801C50
3DFA4DF4
BDF3AD5C
3D970BD0
BE154E2B
BD5B6912
BDB0A1BE
3D1F57B4
BE106530
3DCDCF46
3DE0242D
3D8AFF6D
3E016EBD
3DF8D2E5
3D73D6C7
BD12CADE
3D1AA822
BE21F4B2
BE18E9B4
3D321922
3D69930C
3E0D1E54
BD986339
3E2606B8
BD24DF48
BD717482
BD2FC04D
3DDC4C9D
3E00FB22
3C2821F3
BD4881E4
3DA4523F
3C1817B9
BE1610F1
B96AE18B
BDF5F45E
3D3AC711
BE1F7B9E
3D814DF9
3C229C78
BDA4F441
BE1316A0
3E179182
3D358C09
3DBB19E7
3D59CF14
BC82B1F7
3A9D27C4
3E1C0443
BE03A10A
BE200DE5
3D71E18F
3D5CF356
BE09906D
BDDC8861
BE1AC9F3
3DA19653
3D9FCFC4
3DECBA73
3D2A7BD5
BDF3EEE5
3DCA8E2E
3D1D4A5E
BDCB252D
BD806C01
BDB05101
BD6456F7
3C2FAF86
BE0703B0
3C16D4C3
3E0475A3
3C4FFA7F
BDDAD081
BDAAF46B
3DC3C31E
3B853C15
3D23161A
BDBD566D
BCD3AC4F
3D219008
BDB48FDA
3D1CA07F
3D54D2F6
3E23E814
3E0667F9
BDE8CCDE
3CBC579F
3DE030C2
BD1286B6
BDBD6063
3C4E208A
BD9162AE
BCD3E4EF
BE184274
3D118091
3E093E1D
BE14D834
BD5AB085
3DFA33BE
3CB86B16
3C8D60A6
3BF55582
3DF3E037
BDCC4589
BB87E38F
BBECBFB1
BDCC636B
3E10578E
3D0ABE6A
BC690FF9
3D3A11A9
3DEE5D5B
3DB4ADBC
BE1C6E6E
3D8D3416
3C56A162
3E134DF0
3CC30D30
BB3F2B24
BDF435AD
3DD14552
3DA48F97
3D0298CC
3D0549B6
BE1FE8EE
BE079FA9
BBBDA0E0
3D755582
BDE08D8F
3B5056C5
BCC2F838
3B720642
BD951A43
3E2776C5
3E0E2435
3D7B6135
BDC91E21
3E29528F
BD1E3433
BDD9C5A4
3DF7A67A
3DDCA4B1
3E067275
3D87EF17
3E1DBD73
BE0509C0
3DD0079A
3E22FB5D
3D8AF816
3E125354
BE161459
BB9070FC
BDE7EF17
BE28140E
3E1B42CC
BE2BBF0E
BDD32DF5
BDD5757D
3D9E23F2
3BCFA69C
3BAD9275
3D5461B7
3C0476F3
3D35989E
BDFED5AE
3DBD2AE9
3DA84381
BDD83276
BDE13448
BDF9AC79
3E11A262
BDF56755
3B0DC11E
BD869596
3C291538
3DA5B185
3DC8C0CF
3E1CF67B
3E257364
3C4EAF25
BDF14FCE
BE1E2F38
BD9A469D
BE14506A
BCF14DB6
3D76D43D
3DD2239E
BD52DA98
BE1270B0
3CCD8341
3E1D09E1
3DBD09E1
3CC97B74
BE1ADB40
3D865F0F
3D083340
3E0AF6C7
BDEEA8DA
3E026E11
3DCCE24C
3C9D2BF5
3C23BDE0
3D9F4667
3D4B9885
BCA53B8E
BDD462C3
BDB5C6C1
BCEB28D8
BD8D60A6
3B0D4BAD
3DD52DAA
BC453B08
BD18EC96
BD1AC472
BDC65626
BE149DBF
BDDED84D
BD5FD695
BD6070B9
3DEA1C69
BCB3E575
3E24E875
3DE033E8
BD118F3F
BDC87EBF
BD9F4235
BCFCA42B
3E128B2A
3D922C88
3E1A569B
BDA69271
3DDDCE7D
3C962F16
3E239C95
3C5A7F3D
BDEF2BED
BE293F6C
3D2C6BCF
3DCB4203
3DC8CBD1
BD8D3E92
BDCFBEBA
3C2CABC5
3D30941D
3AA808C8
BD902BC7
BD5EAFEE
3DFB0DD8
3E0BA51A
3D90EC31
BE1E3EF3
BDAD6777
BD3BF50E
BDD59AB7
3E2EE8D1
3E0B9F12
BE061523
BDF0CC36
3D4A6549
BDAAA433
BE0E4F76
3E024AAE
BE017093
3CA05144
3DC73D5C
BD987E7C
3DCFA8B5
3D17B203
3E114403
3E05B35B
3E1F7015
3C808E9B
BDEB5350
BDA2089E
BE03F423
BD98561D
3E15DE16
3D6D6239
BE1D6ECE
3DE794EA
BE085597
BE235EFA
3D2E2C99
BE04D877
BE1244E9
BE032E7B
3E2AB9B2
BE1D438D
3C9E03F7
3E288BDB
BD4BF2B2
BE1F0DC7
BE2B15F9
3C1118C2
3D2974A3
3D9D523B
BE21D3ED
BD4470A8
BCB13598
BD57A67A
BDBD909F
3D067DFE
3CF78573
3CFA3550
3E1A8C58
BD79A390
BDA35AC9
3DF131EC
BDF510D4
3DFD26B7
3E2C7582
BE131BDF
BD73E575
3E23161A
3E2BDF8F
BE0BAD7D
BE0BC16A
BE12580C
3E0928E1
3DB6ED67
3DDB44E5
3D41E57E
3E174107
BDA5058E
BCD21145
3DCD9D77
BDD59CD0
BDED5F14
3D8AAC97
BE10D024
3DE9491F
3DF7CD46
BE07546D
BDB64170
BD8F72B4
BDB1EC92
3D3AC0C6
3B6746CC
3E257364
3DFE24FF
3E0FFB48
3DC2F7B1
3D7CAFB4
3DA5614E
BDD8C7E3
3DEE06D9
BBD466F5
BDBDC161
3DD8E326
BD61DEAD
BD099392
3DA8D9F9
3E101366
3DFC011D
3D528177
BD945F18
BE1411C3
BD65BC88
BCA62670
BE0EC7C9
3DED234F
BE1A0903
3CCA2121
3D2C6584
BDEFCF81
BCE54F7B
3D81E796
BDCF3D3A
3DB4CEC4
BB45974E
3DAAFC48
3DD287C2
BE2E935C
BD1A5EBB
3D14A904
3D14D0DD
BD72AAE3
BC684274
3E1FAF86
BCA209AB
BDF8F0C7
BC2E31D7
BE12E48F
3D6CD6C3
3D61FF2E
3CC38F36
3D342678
3CD10B20
3E1CE8D9
3CC3E532
3CEED246
BD88A58B
BE2C17A9
3D9A415F
3E27B8D4
BD431CEB
3E115C64
3D63193F
BDBD0397
BD42B0EA
3D3CCE1C
BDEF598A
BD8E7FF6
BBE991FF
3D89FD7A
3D3F5C6C
3DA486AD
BD1347A6
3D9615EC
BE0C72E2
3DB4330D
BD9D8948
BD0D0AAA
BDFADF2F
BD8E0547
BCAD0C3D
BDFDE69B
3E0796C0
3C6086BE
3E01E365
3CB5DCC6
3C1E12A5
BDED099E
BD2A5C5F
BDB05B7D
BDC9F0E5
3BC50050
BC74128C
BE018A44
BD9332AD
3DE06C87
BE13FD50
BE272863
3D403CD1
3D548A9C
BD365775
3D2F8AD2
BD9FE005
3DF1105E
3C44CDFB
BD136B4C
3E00AF1D
3D25FD8B
BD8E2542
3E1F850E
3D012DFD
BDBB44E5
3E270D63
BD91E322
BD77457C
BE00A676
BDF7ADD1
3E03821B
BE214163
BC913405
3D740F67
3CC5F395
3D9A88AD
BDFC243E
3C8387DF
3DBA7C9E
3E2D7DBF
BD7A29C7
3E150B95
BD0ABC51
BDE54CDB
BE074B84
BE045953
3D8FC82A
3DB2D6ED
3DEFE2E7
3DAA105A
3E2A8B8F
3DC44849
BE20C6F8
3E156F33
BCF7DB6E
3D139B89
BC8EFDCA
3D93D85A
BE1BC771
BD0B8BF0
3E071BCE
BE23CC4B
BD45FF1E
3DB72368
3DCE642C
BDA6CC1D
3DB08249
BE244956
3E2DA943
BD4DE6DE
BD93F855
3CF5AD97
3D449668
3DDE0D67
3DA45A1D
3D9A1901
3D974688
3DE6516E
BD2EB0B8
3CBFDB4D
3DF7B5AF
BDBE20CD
BDA2FE82
BDE4BDBA
3C841893
BDAEEE0F
3E0C8798
BD8E2329
BD89DF98
BE0DFC5D
BDAB9F56
BE1FCCE2
3E20C459
3DED3522
BD83DDDB
BE10DB6A
3C9CBAB6
3DB933E3
BE025D8D
3E0BFD72
BE225919
BDF8A32F
3DCF9980
BDCD245B
3E0D9F90
BBA02321
3E2568E8
BDDA32B1
3E1625EA
3D85DD09
3DC9B6B3
BE1CEC85
3D5A7B0B
BE2F3ADE
3D08ECD9
BE0C78EA
BE23F67F
BD5BEC25
3DFB9171
BD276428
BD71EF31
BE0CE5B4
BE12684D
BDD394B8
BBAEFB2B
3E016D2B
BAAEB80F
3E02CBEA
BC5ED289
BD65ADDA
3D96CDF2
3D9FFAC2
3D99C411
BB2C3A86
BBCF7447
BD8DD93C
BD8CC35D
BDD0E2C1
BD3CBD55
3D2CCA2E
BBA1CEF2
BDED65E4
BD3FAE36
BDED2ED8
3DD2DC2B
BE22E48F
3E286CA9
3E19FB1E
BE2470EB
BD824DD3
3DAEC072
3DBFC6DA
BE11EF31
BCD42C3D
BDB28284
BB57060C
BE116B98
3DD33E36
BE2E121F
BCC86F05
BC8B1141
3D1715C6
3D2E9681
3DC420F7
BDBDD8F9
3DDC0B13
3D2F1DC5
3DB17721
3E1A6E33
BD4D4BAD
3DCB2AF1
3C8C3F3E
3D087981
3D06594B
3C8DCFCC
3DFB5BF7
3E26C333
BDC8A3F9
BE15232D
BD81B08A
BE27C4E3
BD244D87
BBB76F6D
3E2F28C8
BC65A35D
3DAFD32C
BDEFE261
BDDDA837
3E01D96F
BDAFBE34
3E1FD8F1
3C5CA4B1
3DE90CD4
B93DCAD1
3C4B5FE5
3D486DF8
BE2D8FD6
3E1A92E6
BDE624DD
3E0F2303
BD71A3B1
BD289870
BD4856E7
BCFEA5F8
BDB84988
BE1B1B37
3D740B35
BD513837
BE0E846A
BC37E4DE
3D88F96E
BDD37543
BD40A394
3D923A2A
BC957EED
BDE34EBA
BE268662
BD21D96F
3E048C72
3D809F62
3D7AAAC1
BD3FDE72
BE06F199
3DB3D534
3DFCE5B4
BD89C800
BDDAD081
3D4AFC48
3D4C404A
BE1E7E20
3D76CDF2
3AE60807
BCF225B7
3D3544BB
BDBDD54E
3E0C1ACE
3E1CBD12
3D46A5D7
3D931876
BE02BDC2
BDB12A0F
BD8D5E07
3CF36AC6
BD641701
BDDFCDAB
3D8B0186
BDCC01E7
BE220D99
BC3B4D49
BDFDA37F
BD9F3B64
BDFC2092
BE20D280
BDA3B3EA
3CB8E4B8
3D4B4396
3D7B44E5
BD81322F
3D1AE925
3D4AB2E1
3D303298
3E20AEDA
BB56909B
3DA56CD7
BD6FC265
BCE4302B
3D34B2FB
3E02784B
BD433E79
BC782F51
BD6AF35E
3DFF87F0
BE20489D
BD52BC30
3E162995
3DAC4AC7
3DE6106B
BE1AAB47
3DE6173C
3DBA9004
3E1CEE5B
BD70856E
3E0F9DB2
BD72ABEF
BDE12407
BDD1654D
BC030E3D
3E10CC36
BD8F6274
BCA7DAA5
3E1507A7
3E1753A4
BDDEDBF9
BD31C10D
3DF68167
BC17E133
3D2CB31C
BDA8E475
3DC4EDF6
3E23F67F
BDB206C8
BE040358
3CC93EA3
3D1A5CA3
BDAAB2E1
BC2A4B99
3DF7C6FC
3CAB7132
3E0009F6
3CB14CA9
3DC3A10A
3D858687
3CF292C5
BDE21D97
BDBAB4B7
3C92B3CC
BE0C050C
BD57EAA3
BE06B9C3
3DC941C8
BE18F9B1
3C7CFC40
3E2AD70E
BD359CD0
BDB8CEB3
3DA4AD79
3D3A0D78
3DB7C6FC
BC7F9B56
3D27DED7
3A1E55C1
3CEFE500
3D64ECEA
3D9DC832
3E1DB835
BDB1C3AD
BDD2FDB9
3DB27137
BDA640A7
3D82C55D
BDC80629
BC80431C
BDAA1837
3D6BD3C3
3B9FA54C
BE2C80C7
BDAD2029
3D927C39
3E1689CA
3E29695E
3E11843C
3E259A31
BC53B29A
BDC33D6C
3DDB6ED6
BE1682F9
3D25247D
BE2CA750
3E102F30
3DE2424A
BE1CA255
3E117F84
3C35DCC6
3E040F24
3DDC2FC7
3E2A3769
3DB645A2
BDA1F96A
BBCC7086
BD19695E
3D1D5E4A
BAE34763
BC6AB799
BE2D02CD
BDB56E26
BD8CE810
3CC0D0AB
BD97BA67
BE20CCBC
3DB4091C
3D9A8049
BD56CA47
BE06F9BA
3CC27632
BDDAAE6D
BD978B37
3DD29F5A
3E156DE3
3E1CAEEA
3E17952D
3D747F99
BE10DBF0
3D8CA57A
BDA10518
BD1A48B6
3D7D8CF4
3E2A5CE6
3E03FBBD
3D0BD018
BB17310A
BE0CDBBE
BDEE50C6
BCFC9DE0
BDB6605F
BE2B5FA2
BD253112
BD49C4DB
BC938152
3DA45BAF
BE166F50
3D27E62E
BC905E1C
BE1D6A16
BD8399B3
3E195358
3D3A493D
3DF8D823
BE1CBE62
3C6DB2F6
3D88B9FE
3DF56DA0
3DFB0B39
3DF3929F
3C9CCB7D
3D212945
BD6518F4
BD02EDBB
BDF62175
3E127A63
BBB53501
BB87980F
BD99F7F9
BCE63A5C
BD437931
BCF07BFE
BC98244F
BE1504C5
3DCA7158
BE067E41
3D881B22
3E1B124D
BDD0E3CE
3CAA7BD5
BC1F9054
3E02938E
3E11B7E1
3DCEAC86
3D02F512
BD981733
BD913598
BD80FF54
BDBC970F
3CF5EE9A
3DBD30AD
BDAB6E0D
BE0D61B3
3DBA975B
BC86CEBC
3E29D90A
BACB6C7A
BD51E647
BE091BC5
BDBE8D54
BDA74539
3D221102
3E195D92
3CAE83A1
3C9554FC
3E22BE06
3DEBEBE1
3E161D00
3DD63A9F
3CA500D6
3D206424
BD806962
3E217C5F
BCCD35A8
3BBC83A9
BDFC1616
3DE8AA43
BC73E469
3C1C62A2
3DAD0FE9
BBF49492
3E2F4C2B
BDF6AA4C
BDB6933A
3DECDA6E
3DB67664
BD850614
BE1FC2EC
3E16CE36
BDAFE825
3D8E7A31
BE18B008
BDDAF188
BDF32BDC
3E170004
BE2A13C2
3D690DE1
3DDB8D3F
3DD1EC92
BE24A516
BB6A8DA8
3DA90BC8
BDA1AEF7
BE2774EF
BDADCFCC
BC36F5CB
BD86C094
3A5A5DAF
3D1DDC1E
BE28919F
BE0390C9
3BD25EDD
BDBDB76B
BDDFB04F
3D0D4456
BD128390
3DE357A3
3D9FEB8E
3E2B120A
BB8FFB8B
3DA6FE72
3D4896DD
BDA9FBE7
3E250269
BDE5FA66
3DEB2E17
BDC2C4D6
3DD91C4C
3DF74D59
3E0DF86E
3D556E26
3B7A0514
BE06AF04
3C6CA687
3DE96CC6
BDFEFAE8
BAA5CE5B
BD553693
3E231DB4
3E25BE5E
BD9483CB
3E1A7F80
3D744806
BBAE5BC8
3CF06D50
3B9BF163
3E1CEAF2
BD592A73
3DF42EDC
BDEF4CF5
3CE075F7
BDC9BCFD
BD8310DC
BD88283D
BDA10625
3E1646AE
3CCFB763
BE071B04
3D96D19E
3C8C64FE
BDA29A5F
BD855864
3E25C6C1
BC9F4F51
BD220254
3D8409E5
3E2C219F
3E2EEA64
BD52BA17
BE2F4667
3D4C60CC
BE1185CF
BD0A30DB
BDF75D14
BCEACC92
BDCD490E
BD2EEE95
3D8EA39C
3E12A412
3D591362
BD4A3B58
3B4D0FE9
BD197A25
3E011B61
BD6FF195
BD13B4B3
BE195810
3E0686E8
BCD273D6
BE1A9974
3E28F191
BD9EDBF9
3DAD2136
BD8FB3B7
BD8357A3
BCB382E4
3D60F2BF
3DAD6452
3D8AE18B
BCA28BB1
BD3190D1
BC8BBF51
BE272431
3DD4B72C
BE143569
BD83B928
3BDADB83
3CB4EDB3
3C289B95
BE1E61D0
3E0825E1
3DAC7A7D
BD9E614A
3E10F3CB
BDE0BC38
3E07C4E3
3CC48F11
3E1120E2
3E0F8488
BE0DD723
3E03BFF9
BD980453
BC3BB1F2
3DF00150
BDF8E970
3D34A559
3E238B05
3E2CF744
BDBB7E91
3E263B69
3CF3860A
3DBD87B5
3DAA0770
3D305532
BDFFEDA6
3E203BC5
BD93BEA9
BD19D990
3E1B838C
BD891C08
BE1E09BB
3D9F255F
BDBF034B
3C97EDC8
BD0BF4CB
BE1FAA8B
BD1E9C02
3DDF8A09
3E0DE6DE
BDEB838C
3D6A044B
BCCD423E
BD91F70E
3D45058E
BBA9DE8B
BE2128BF
3D159924
3D4A2FCF
3D987379
BDAF29D4
BD3DC37A
BD6CE13F
3D9A4A49
3DFFD0D0
3D952EB6
BC953DEA
BD323465
BDC657B8
3D90342B
3D8F26AF
3E043809
BE0140DD
3D84BA95
BC037718
BC0EC95C
BDFE963E
BD9D1F60
BCE820E6
3CA12B5E
3CB42678
BE048D7E
BE00A6FC
BDEC15D3
3DDE614A
3A17C808
3CA69DF9
BE100863
3CA5119D
3E15AC04
BDEDED29
3CE9680E
3DDD199C
3DB8B9BB
BDB0CBB0
BE11E3EB
BE03CEA7
3DBAAAC1
3DB41C82
3C66B830
BD9B38D6
BDC9C12F
BD2CC2D7
3D260C39
3D65119D
3D9650A4
BE1A875D
BE00C9DA
BCDE13B2
3E17E8CD
BE104791
3E036B09
3D80FBA9
3E041787
BDF9902A
3C573861
BD75AA71
3C9A9DA6
B9F45176
BD9BF834
3DDD3565
3CBFF477
3E22F901
3E2887A9
3D8800EB
3D789939
BDC40208
3E2EFC7A
BD908C3F
3D737B8D
3E1147AE
BDEB44A2
3E15BEA1
3BDA4CE8
3C3ACB43
BE2AAD60
3D4B9CB7
BC246174
BD936934
3E02F901
BE2A5764
3E266ADB
3C8EA5B5
3D8A6D26
BE254DE8
3E094F27
3DD2F6E8
3DB54FBE
3E1E4DE4
BDF10F52
BE224313
BDAB295F
3E23E5FB
BD808A69
3DC631F9
3DC41893
3DC473CD
BDC6D7A5
BDD67F4E
BD46B378
BB6618CE
BDC38C97
3E0C6D1E
3CD50A89
3D5975F3
3D104C49
3D492685
3D99053A
B89F6230
BB184E40
3CB09635
BAF8E7DE
BDBCF4E8
BD5C9B41
BD05E0B5
BDA4430B
3D29E6EF
BE0F1CFC
BDFEF178
3D4F41F2
3C413FD1
BE13B603
3DE3137B
3E0AC7DA
BD263D81
3DC79896
3D178F69
BDB0763A
BE043915
3DA84168
BD7BCF4F
3E1085F5
3C28C9B8
BDF0ACC1
3CF95F67
BD6D527E
BE22E6EB
3E02AA5C
3DECA926
BDC42F1F
BD4996B7
3E019546
BDEA979E
3D04C9C9
3D14A4D3
BDA6E9FF
BD41EEEE
3DA9D7BA
3E1E1B4C
BE149279
3D04AD79
3D13C686
BE0128BF
3DF74795
3D3E6D59
BDEEAA6D
BCCFD2A6
3D9B994E
BD889119
3D0DFDF0
3E2034B1
3D5909F2
BE09799E
3DF0D280
3DEEF805
3DFF51F0
3E1A6FC6
3DAA77A3
BD717CE5
BD9D9BA2
BE1B6B6E
3D7DB4CC
BE258AB9
3DB1C53F
BE173190
3CFB6FE3
3DD94FAD
BE16B5D4
BE2E9574
3DB1BDE8
BDCEEFA2
BE165B21
3D778DD6
3E00E172
BCE95B79
3D423748
BD34CA0C
3D50A88F
3D8C9108
3DBE175D
BA84C6A4
3E2E3EF3
BE04DE7F
BDD21251
3E248A16
BDDEA78B
3D338716
3E14BE83
3DF83C6D
3DF64C73
3E26D224
3DBAE03B
B849539C
BDE095F2
3D548345
3DC2EF4E
3D0563ED
3C2DAB9F
BE2A0B5F
3D92F901
BE1D7625
BDCD9A52
BDE370CE
3DF39C95
3E17AD08
3DEACAFF
3CD1287C
BD56E47E
BCC13123
BBED6FDB
BDCB86B1
3E03DFB1
3E1256BD
BD64ACF3
BE2B07D1
3DFC432D
3D82B27D
3DF17EFE
BE0676EA
BDF90E24
3D398FA3
3D3DA512
3D8FAF86
BE0CE24C
3DA7125E
BE09B414
3CB2E59B
BCC9CF57
BDB39431
BBD7BE98
BC3380CB
3E1DB9C7
3C3AF966
BD7B0D52
BCD71B04
3D70813D
BE03E143
BE1F3CF7
3CD2C9D1
3E026890
3CDA7F3D
BD3BCB1D
BDACF180
3D596E9C
BDEB430F
BD962F9D
3D434B0E
3D88F96E
3D576252
3D2DFA44
3D44039B
3DDB6912
3D6BEDFA
3D3AD6CB
3E19E0A4
BDAAAFBC
3D206317
BD5ED17C
3DC8F191
3D6B3FEA
BD1102BC
3D79FCB1
BE11A2E8
BE1F58C1
3C938BCE
3D10BE94
BCEF2841
BD62E903
BE18626F
3E2E279E
BCD3F184
BD90C671
BD631B58
BCC26DCE
BCCA0E41
BDE2EB1C
BD757D5B
BE0E8D97
BC89FA55
3E160CBF
3E15BAB2
3CDE614A
3D6E2A80
BDB41F21
3C24D6E4
3E2B4D49
BD999F5E
BD9FA00E
3CE1A1DC
3D792F2B
BDAF4F94
3DEAC3A8
BE221640
3D664B23
3D94EC20
BCF94A6F
3DB5768A
3C2786C2
3E0090F7
3DAA4E38
BE1BD2B7
3E2F35E3
3C887CA6
BDD3F855
BCBE5754
3D04F5D3
BE24256C
BE179EE0
BDED6F54
3E00C415
3E0AAC54
BE0AE07E
BDF53693
BD2E924F
3DFD12CB
BD078B7A
BD4B6C7A
BBEF8056
3DAED6FE
3D08EAC0
3D29003F
BE09B845
3C9BAE47
3CE8C048
BD908CC5
BC8D3AE7
3E2E8DDA
BCE83C29
BD1F2021
BD9B4F61
BD24723B
BDACF52C
3D82F0E1
BB1C3CE2
BE09F7F9
3CF0DA5E
3D1947D0
3D5274E2
3E1BAF10
BE15FFA4
BE022F6A
BE0C7193
BCADD15F
3DAEE419
3D5E83E4
BDD6E71D
BBDD4845
BD33F0FE
BD6AD602
BE07A13C
3E2F2FDC
BC556B01
BC9FEC9A
3DA7589F
3D71E8E6
BDE85CAB
3DBF3387
BDF7A80D
3BD306A3
BB823854
3DC95D92
BE2C66D3
BDACB74E
BCAB2E17
BA03DBC2
3D979A6B
BE19DFDB
BD342785
BE144F5D
BDCA7D67
BDB6C0D7
3D70D951
BD5C9F73
BE2189BE
3C53A605
3E0BED31
3C7D8ADB
BD17928E
3DAED4E5
BDE6AEC0
BD923359
3D662DC7
3DF2F87B
3BC3F3E0
3E1174C5
BD722F27
3D84180D
BE27C526
3BC881E4
3DCCA4F4
3DA9ADC9
3DAC88A4
BD98D3F2
BE1988D3
3DA2D83C
3D4AD8A1
3D937DA6
3D79420B
BD8959E6
3DA04EA5
3E09EC2D
3E19F341
BDBA4F01
BD89246C
3DB4195D
BC90D7BF
3DFBA909
BDC5EA25
BDA868BA
3D4A2FCF
3C74C6E7
3DFF4880
BE2F8983
BDF3F423
BC37CFE6
BE0440F2
BE1FB04F
BD939086
BE18B157
BD67A52B
BD7E5215
BD8CE465
BE0DBD30
BD9207D5
3D8346DC
BE2A73F7
BD15B574
BE0E989A
3E296A6A
3DCBDCAD
BC8BF1A6
3E221C8A
3DA7BDCF
3D6B3355
3DD17508
3D27210C
BCEDB941
3DFCE076
BC0F8A4C
3E1C0011
BD6E5CD5
3E05FDCE
3D87E6B4
3E2321A3
BDE95422
BDEFEEF6
3D7E6927
3DFD377E
BE2BF8FD
3D965775
3DBA14CF
3E2D98BF
BCC4A409
BC83254E
3DDDE3FC
BC1D94D1
3C76F8F0
BD5B1B7A
3DF57604
3DBEDAEC
BE23953E
BDB3ED52
BDC6DF83
BDD5B899
BCF2CF96
BE25B963
BDDA12B6
3D121AB5
BD58D046
BE246F15
BE2DD6E0
3DE49CB2
BE124C40
3CD00F77
3D80B136
3DF86013
BE2038E3
BDFEBD90
BDBD87B5
BD187B57
BDD93C47
3CB90EAA
3DE21B7E
BE11D191
BC83F706
3D23FDD6
BE145ED5
3C45718F
3DD460AA
BE2DE9C0
BD8CBD98
BE03F39D
3DF5D1C4
BD78897F
3D76CBDA
BDD267C7
BD3C87DB
BD7B0E5E
BDD39757
BDF4562E
3DFD28D0
3DE9C1B5
BCF9D4D8
BD50EFDD
BDB39086
BD26B3FF
3E0E846A
3D435CE2
BC0F53C5
BCA5C5F8
BC47820A
BDA59EA5
3E2425F2
BDAC8798
3DE2E126
BD5B7069
BDE5931D
BE1E1976
3E0FBC1B
3E293251
BE15E0F8
3DD90E24
3DD78B37
3D9EE675
BD01083E
3E266E01
3D342353
BE0B1898
3D0129CC
BDC71F79
3E13DA73
3C90AFE6
BD652DED
39EA5B53
3C0CEF67
3DC9A565
3C5084E8
BE298890
3E21626B
BE2482BF
3D9CEF24
3E1A6A87
3DC9374C
BC92F6E8
BD49B739
BDAFF4BA
3DC49668
3D61E3EB
3D60578E
3C595571
BD27392A
3D96B767
BD48D5C7
3D86A1A5
3E159147
BE1FCBD5
BE01DE6A
BB3A51A0
BC5794A7
BE14A234
BDE84D77
BDBE94AB
3E29C843
3D27A95D
3DB66384
BDFDBCA9
3C1DF549
3D10214B
3D6EF5ED
3DB5CD92
BD9CE8D9
3D989E77
3E0CCA2E
BD5EF1FE
3DDD1676
3DB144CC
BE0BC72E
3DE8472C
BD58C2A4
BE1F52B9
BE06F8F0
BE0CA601
3DCE3822
BC7EC13C
BDD8CF3A
BDF1FDDF
BDC790B8
3CD89CE5
3D75AFB0
3D0371DA
3C91CD1C
BDEE5D5B
3E093101
3D595571
3AC7E282
BCB8EF35
3E0B3893
BD6BFDB5
3DE3B470
3DC46738
BE0456F7
BDF77319
3E09D884
3DE46E09
3D3F10ED
3D7B634E
3E17C808
3E1FAA8B
BD81450F
3AF3ECCC
3D0D7386
3E17CF5F
3E02224F
BDD45A60
3CC8DE2B
BE11387A
3E2DEFC8
BD0D76AB
BDDBACB4
3D1E603D
3DCE1587
BDC01ABD
3BF9F44D
3B12684D
3B52C387
BDA662BB
3E01C2A0
BE0AB96F
BD024C40
BDF057D1
3E02B884
3DDAA583
3D6C28B3
BD9E3D1D
3DA2C5E3
3DE27419
3D4F1B26
BDCD2B2C
BDD57ABC
3E0001D6
BD72DE44
3CDE785B
3D6019B1
BCA91106
3E150ACC
BD239714
BE24827B
3E134092
BE17EFE1
3DE74A77
BE2DDE7A
BC6D9168
3D7F90DA
3E09B2C4
3DFDCBDE
3C991DDE
3E159EE9
BD0A697B
BC7993D5
3E28D3AE
BCDAEE63
3DC969A1
3CC7A17F
BE215A08
3E106A2B
BDCE514C
3D295960
3D59D990
BD04FF43
BD08EFFE
3E2C2F40
3E1EB075
BE1532E8
3DC57FB7
BE15B318
BDC6B3FF
3DED612C
BC144242
3E065F52
3CBB0814
3D308CC5
3CCC8DE3
BE1329C3
BE0C4DEC
3E20A244
3E08CE2D
3E1C65C7
BE0F7A0B
3D90ABB4
3C4E4A7B
BDA01B43
BC0F81E9
3D8EAB7A
3E27D5AA
3CB7DE94
3E2A8E2E
3C9F6EC6
3E02220C
BC3D6627
3DD4CCAB
BDBC0A8D
3DF2495E
3D743E96
BE135654
BCB00368
BDCCC144
3DA42AED
BE076923
3DF470EB
BC7E21D9
BC97FC76
3DD01755
3DEDEA89
3CFB3312
3B2DFF82
BD427C7C
BC103EA7
3E15A709
BD2C679D
3C395A29
BD91C10D
3E2D3ED5
3CDD8D7A
3E16787D
BD118A01
BC7DC161
3C071E6D
BBE008EA
3D155B46
BDA828C3
3D95CFAB
3DB3A040
3DDEEE52
3B675793
3E1C0C20
3C424C40
BCED3F9E
3DD1B25F
BD3AF534
3D851330
3D95A858
BD720A74
3DB5000D
3DD271BD
3C0B86B1
3DA58E65
3DC97072
3CF1BEF5
BCA847B2
3DD44E51
BD89E668
3D9E657C
BD1170D6
BDF36695
3E030EC3
3CB30729
BE22D906
BE1C343B
3C8E7FF6
3D42AFDE
3DAB1EE2
3E0817FC
BE0C868C
3D5EB207
BD9D206D
3DAF5D35
3DCCAC4B
BE01C369
BDEF8C65
3DAED2CC
BDF81A58
3E2437C5
BD1DA7B1
3D0EEAEA
BE143526
BC751266
3DB6E58A
3C45974E
BE24C597
BE0FFCDB
BD79CB68
BE23BB41
3E2AA64C
BE0A658C
BE151CE3
BDF4DC66
BE2B0DD8
BD767F4E
BE13A42F
BDCA63B7
BD6B94D9
3DA9F6A9
BDDFBEFD
BE132F88
3E1FFF37
BCA9131F
3DAD9AD8
3DDF88FD
3E05C6C1
BCFB7846
BDDE3433
BDD02B41
3D29ED39
BD927568
BE21372A
3E09B8CC
BAEBAADE
BD32E276
BC6E2867
3D7C126A
BE21E647
3DAEF45A
BD3533F4
3E20DD83
3C310BA6
3E101798
BD862B28
BE232C62
BDFD9FD3
BDED3CFF
BD559A31
3E1CBD12
BE007D4E
3D2324C8
3C87E7C0
3D177D95
3CBC9CD4
BC5F4C2B
BE271AC1
BE13B539
BDB8BDEC
3D8AD57C
3E057604
3E16B4C8
BD6B0532
3D4817FC
BD27B1C0
3E212381
3D4A5DF2
BE08E64B
BCB022DD
3CC117F8
3C89E98E
BDA67D78
3E117657
3CF5C28F
BE190BC8
3DCDFB50
BDE985F0
BE251330
BE01A650
3D2B8844
BE2A2D30
BAFC9364
BDD9F55A
BD88AA43
BE2082CF
BDD0FD7E
BE07E4DE
3C0C60CC
BD489A02
BDA80D80
3E0D1DCD
3D788FC9
3C935116
3D04C597
3DB97B31
BDE9DA59
BDB5B5FA
3E1FFA3C
BD396D09
BD22BF12
BC3191DE
3BA4E37A
BE2AEEE9
BD754196
BC7661F2
BD939A7C
BD253A82
3E0755BD
BE1415B1
BD23B795
3E1A3FCD
BDF94A6F
3CA6C7EB
BD754E2B
3E03326A
BE2D8D7A
BE025A68
BB32D906
3D1DFDAC
BCE7A95D
3DF3EB3A
BDF11E86
3DEEF2C7
3E2E7147
BD05FD05
3DFB0E5E
3DC295A7
39D23D4F
BD97CD46
BDC9A88B
BD40A06F
3D81E2DF
3D9823C8
BDF928E1
3E06B50B
3D4FD3B3
3D24FCA4
3E0D8772
BDE80065
BE0C5D64
3E15A038
BDA67946
BCBFB58D
3BFD438D
3D3B4B30
3E257C0B
3D064CB6
3D820792
3E2B5BF7
3DB6B980
BE08A2A9
BD2BF445
3CF8B7A2
3DF43BF7
BE26F36F
BE244135
3DE3E20D
BD1B5C7D
3D30739B
BE23925C
BE1E2A3D
BC98201D
3E267232
BDB2B66B
BDE6D8B2
3D824C40
BE27CED9
BDC09C3D
BE08EA7D
BD8148BB
3B666CB1
3E1B1F25
BE1B0F28
3E255087
BD8B9ECF
BD5A4378
3DFC19C1
BDCB966C
BDF13CEF
3D374EEC
3D0F5A10
3D8DC22B
3E229DC7
BD60AC7E
BCB91D58
BD1B2B34
3E0A558F
BE1FA9C1
3C14C016
BE1DEB96
BD8D58C9
3E256DE3
3E2770BD
3DF9817C
3DC440F2
3E1BEB9E
3E02A561
3E1F29D4
BDF4F9C2
3E2004B8
3CD935FC
BDFED289
BCA86D72
BCFBFC65
BD7F4342
BD299525
BDDDC832
BD8BC2FC
3D0E3BCD
3D4509C0
3E0783E0
3DCACB86
BDC74107
3DCC7DA2
3DEBB880
3E148494
3D322079
3C15703F
3D30D520
3CC2A023
3D4BF7F0
3E25C3DF
BDD61F5C
3DF1D799
3E2E6602
BE146888
BDD2F662
3D308AAD
BE056324
BD107D91
3E1EBEE0
3E2DBA4D
BDAC0F88
3D5B1FAC
BCDB9410
BC9600F3
3D0C0AD0
BDAFD6D8
3DEA2E3C
BCBC8E26
3D5372A4
3CC22CCB
3D7AC2DF
BDC0E497
3DFE3B8A
3D7DBF48
3E098F60
BCA684CF
3DA02539
3D1478C8
3D46E5CD
3E1EE393
3E2557DE
3D8FDE2F
3DC129CC
BDD05E1C
BD3A3012
3CEA4CA5
BCB1E9F2
BE2E2E2C
BE1D6302
BDBA6C5D
3E0D2631
3D6AA3AD
3DBB39E2
3BA276B8
3D400C95
BCD8BE73
3CA1DDA0
3E0AF3A1
BDE707E1
3D8734F8
3DEC3A00
3DAF2064
BDDC6D1E
3E1BBF94
BE16F2A6
BCC7B02D
3B397785
BDD613D3
BCFF8CA8
3CCFC3F8
BD91B047
BCDA921D
3E0CAD15
BB9D94D1
3D20A633
3E0EC4E7
3DAD5E8D
3DB64628
3C9CDC44
3DC81A9C
BBD7D7C3
BDC152B1
3D0FD7E4
3E2AA68F
3D8F0F9D
BDE32229
3DBAF3A1
3E1C0097
BE22873C
BE0913E8
3E1B239A
3B10D5A6
3DBAD5BF
BE1C4FC2
BC7C5048
3D18C4BD
BD8AA7DF
3E27F1B7
3DF4940C
BD6DCA08
3D187400
BDA9E4D6
3DFA8156
3E01654D
BDD3EAB3
3E23B3A7
BDA559F7
3D330942
3E077814
BD49BE90
BE268C69
3E01450F
BBEC397A
3AC6D613
3DC1DD1A
BE10C240
3D2A7371
3DFBED31
BDC08AF0
BE2AC8A3
39E73605
3E2D6C72
3D3A3444
BDEC2268
3C95421C
BDA26890
3E03BABA
BE0D449A
3DCC3C19
3CF62B6B
3CFEBF23
BDDEEED9
3B10F734
BD537C13
BDC5857B
BE2981BF
BE0DB984
BDEFFF37
3D6EDFE7
3DDEC461
BDD78B37
BE20995B
BE1610AE
3DACEF67
3D5FE868
BAF2BECF
3DF3A4F8
BB9784EC
3D0C33B5
BDFE7EA6
3CC855DA
3D58B503
3E166278
BDE93965
BDB92967
3DFE596D
3CBCAB82
3C01A587
BD732592
BCDC5500
3DCE3609
3DD34938
3C6A8544
BE0286B6
3CE9F278
3E2E1AC5
BCA37260
3D5ED289
3D418A44
BB403793
BDD92A73
3DB844D0
3DB24B77
BD3763E5
BE159AFA
3E29F3C7
BC9289DB
3DCC521E
BE0C332F
BDA954A8
3CD9E625
3DC17E35
BAA63305
BCE379B7
BCC8472C
3E006CCA
3D64B76F
3DBB02D6
BE0E16D7
BCF6188B
BC61975F
BE223F68
BD7F498C
BC447A18
3E226F61
BBD41B76
3D1986BA
3DEF4ADC
3DBDCC64
3CC5FE11
BE000A39
BD5DCE7D
3DD1593E
BBEE49F5
BC9E68A1
BDAB4B73
3E20370D
BD3B81B6
3D3C8E26
3E1BB55B
3E267CF2
BD64095F
3E1644D8
3D8003AC
3DA2C7FC
3E06CACD
3E0A40D9
3D87CA64
3DFAC040
BE20AF60
3DB82236
BD4C1334
BE083340
3E2A3550
3D96A594
BBD013A9
3D56A055
3DBABE27
3DA0A5AD
3D7A1F4B
BDD1E53B
BCE65E03
BD7B7D85
BD4A600B
BE04152B
BE0D9903
3D48D8ED
3E01C25D
BD52C8C5
3D14D50F
3DDD872F
BE1B97BB
BE279789
3C3A493D
BDA40E17
BE08487C
3D768F08
BE078F69
BDFC32EC
3D2E1BD2
BE246BF0
BE0481B2
BE267621
3DB3708B
3BAF3E47
3E1C52A4
BD5423D9
3D964734
3D6C93A7
BE0940BC
3944156E
BE1E0371
BD46B591
3E05C91D
3DA3EE1C
3D1A21EA
3AB630A9
BE21565C
BD1DBCA9
3DF7B0F7
3DFC3CE2
BE2495E1
3D110D39
3DC85EC4
BE21F42C
3D2DA017
3E1D9D34
3E18B1DD
3CACA362
3DFCEAF2
BD896031
3DC2C0A5
3E281345
3E2DF938
BC83D578
BDBE3001
BD382D38
3E0DF15A
3D9EF06B
3E04128C
3DD0BAE9
3CAA3055
3D43AFB8
3E2F08CC
3E16AA8F
BCE512A9
3E2F2A5A
BD8C3C19
BD95989E
3C0E4FB9
BDF4CEC4
3DE9BB6B
BE257A35
3D073ABD
3DEAEAFB
BDFABC0E
BE095209
BD22CBA7
3C10A351
BDB2E7B4
3E27AF64
BDB0B0F2
3CDAA92E
3DA4D445
BD3C45CC
BBB32485
3D4DA3C2
3DF7FD82
3DE751CE
BDF6D6DC
3E24EFCC
3E013C25
BE263AE2
3D3F5515
3E2D78C4
3DEEB91B
BDBABDA1
BD8B0C02
BE147992
3E146306
3E29203A
BDEA0C28
BE09D452
BC786A0A
BE252157
3D0C7B03
3DD58C8F
BD8A0C28
BE0FC04D
BDF1C2A0
3DF50657
3DCA0EC7
3D27E1FC
BD6163FE
BDB9CB68
BC640853
3D744B2B
3DE008EA
3DAEBEE0
BDEC2ACC
BDAB34E7
3E281A9C
BDDBE2B5
BE071088
BDC346DC
BBF94424
BD779746
BDC8ADEF
BE07C5EF
BE24EFCC
BDB1E215
BDD744F6
3D15E4A4
3D8BFFCE
3DB017DB
BE11D862
BE009E13
BD84063A
3DB4067D
BDEF416C
3CAED352
BDAC8FFC
BD87A312
3E09A565
BD3E3D1D
BE1A2D30
BD16CC60
3D76B2AF
BD3BCC29
3E069B17
BD9A1230
BCADB61C
BCE9C886
3D3DE0D6
BE21D10B
BE263FDD
3DC2B51C
BD92BC30
BE1490A3
3E156E26
3CDF5CF2
BC7CD680
3D62ED35
3D8AF9A9
3D18CE2D
3CA45B29
3D95B467
3CB5F3D8
BDA9F490
BE09AE0C
3E08F8E8
BDDAC14C
3E0DF267
3E245996
BDF03B82
BD62CECD
BBE9C454
3DCC026D
BE13A711
3E05F6BA
3DEB502B
BDBF6988
BDF53B4B
3E00192A
3E1C0A4A
3C3BB1F2
BE191DDE
BE21C53F
BBDF1E08
BD074B84
3E0DBAD4
3D4B3E57
BDF0C4DF
BD10E454
3CF8A4C2
3D5E279E
BE1F6901
BD89E01E
3C22C669
3C863E08
BD87C4A0
3A0D8EC9
BE260807
BD498B2F
BDA6E32E
BDAC2CE4
BE1C2EBA
3DDBD2FA
3DE588A0
3D80CD85
3E0ACBC9
BC1C779A
BDD3CEEA
BE262457
BC964C73
BDB2007E
BDF691A7
BD02B94E
3DE3ED96
BD90A5F0
3D1CCC8A
BD2EA748
3DBFBF83
BE1F99C4
3E0BE165
BE1907D9
3CC17A89
BD14C554
BDF5D356
3DE27286
BDE25FA6
BE2E9425
3DC46280
3DBD36F8
BDC6D04E
BD83B2DD
BC572FFD
BDB05C03
BD7688BE
3D9A6DF0
BD6F5EC8
BC317050
BE2BA387
3E2DB37D
3D4C3D25
BD934E77
BE1A47ED
BDC6EA85
BCA50B52
BE09E386
BE2605EE
BCD04C49
BE2105E2
3D176577
3DDBC4D2
3DB0318C
3DFB70EF
BD630878
3CDA9436
3CF66E87
3CF90753
BD3827FA
BE2F1C32
3BDD377E
BE00AA22
BE199674
BE2C4220
BE12A38C
BD517D6B
3E2197A2
3DCCB4AF
BDD2E276
3DD5E5B0
BD3721D5
BE0B94D9
3DE6CDAF
3E12F2FA
BDA4EC63
BE032096
3CA1BC12
BDBE5A79
BE1A9585
3CA600B0
BD063E08
BDD5D91B
3E277681
3D96B4C8
BDAA7696
3D171E2A
3D4AD256
BDD26F1E
3C9CA5BE
BDBFC32F
3CB708AB
BD3A2489
3E1C1E36
BD6DA017
3D4B47C7
BDD52546
BE18E8EA
3E24F50A
BE11847F
3DE51B0D
3CC36FC1
3DDC91D1
3DC9E12A
BE08793E
3C92BC30
BE03EA70
3CBA01EF
3D0CD63D
BD3850DF
3E086B59
3CB1F688
BCF04BC2
3E0C343B
3E1459DA
3E13DB3C
BDF0E1B5
3D8FDC9C
3D07BDCF
BD828CBD
BDD60631
BDC0589B
BD334C5E
3DAA2014
3E18C155
BDF2799A
3DFFB0D5
3DEBE511
BE21FC4C
BCE6FD65
BCFABDA1
3DA58D58
BDCE1B4C
3D9EA9A4
3DE2D949
3E04DFCE
3E271759
BE0FD3F6
BD892791
BDFA7115
3CB80453
3DA6E6DA
3C49363F
BE12A23C
3CD76CCE
BDC23422
3D8B7ED4
3CF3F962
BDCDCA08
BDCA1AD6
3DF64170
BD1492FF
BDAE5471
3DB52FC2
3D462D41
BD7BCF4F
3DA78E9F
3E06D506
3D17DF1A
BCAC881E
BE1945FA
3CC98E54
BE261A1E
BDFB402D
3DD57A35
BCBF9618
3E2BA5E3
BE1A821F
BD7240FB
BE269164
BC5A6A44
3E05BCCB
3D9886E0
BE0C69B6
BE115CA7
BD7150DB
3DEC7864
3D093A71
3DF8A19D
3E23D189
3B8EBCC7
3DB8D79D
BE1C970F
3E29830E
3E00B029
3E12B27D
BE297636
3E2BE09C
BDD56755
BDC2E903
BE22F09E
3E0FBB95
3BD4ED2D
3DA7DFE3
3DBF1A5D
BE284663
3E10B3D5
BE26F7E4
3DC77EE5
BE2D7C70
3ACE4EAD
BD83A190
BE22EB1C
BD694CCB
3E1810A5
3DEBE6A3
BDCD15AD
BD3D20F3
BE0646AE
3DD985AD
3E1B8B26
3DF2A62B
3D286E7E
3E2E0264
3D825E14
BE23A7DB
3D34A44C
3E203361
3E00C565
BBBFE3B0
BCA5E56D
BCD58213
3DDB7521
3E1E1544
3B1E12A5
3D7F1F9B
BD5616F8
3CA326E1
BD5C8755
3C3A98EE
3E122EA1
3D7991BC
BE0B5E53
BC19999A
3DFA8CDF
BE1AC53B
3DD5CFAB
BDE44285
BAF47304
BD6FD977
3D0D690A
3D1FF716
BE11DDA0
3C8B2E9D
BCB39C0F
BE2C58EF
3C6E5EEE
BCADCB14
3D177FAE
3DB32485
BD0BC8C1
BC71C326
BE097F20
BD946888
BDD480A6
3E0A0EC7
BD8A9718
BDDF1C76
BDEBB342
BDCE6751
3DC679CC
3D93BFB6
3E032096
BD9B4891
BDF0CBB0
3E0ACA36
3DB02FF9
3E299956
3D88661B
3DE1E4F7
BDB7FF15
3E17967D
BD856042
BDDF162B
BCFD4E09
3DCD5B68
BE160F5E
BE0F4F94
BD83497B
3DBC829D
BE2EEE52
BDB0EB25
3DB0CCBC
3E26BACF
3E07310A
BD9F1306
BD9A6E76
BDEE8F2A
BD17B41C
3D50F40E
BDEE8C8B
BD0A01AC
3E2233DF
BBC70004
3D9D744F
BD35C6C1
3DCFADF3
3E1404EA
3E0CC31A
3DAAAC97
3C8B1DD6
BD45EC3E
3DBA1D32
3E253693
3E00110A
3E12845A
BD6D6A9C
BC46E6DA
BE17E1FC
3E297311
BDA95D92
3DDF2DC3

