336BE
E4203
22ABE
15F76
D4647
0DC65
3542D
36DA0
0D62C
DAEE4
226E9
1902E
3237A
F1907
3A875
19FA7
E0FD7
2B796
3DAC5
27F46
EB49F
08472
D885A
E84D7
D14C0
21155
C0F63
F85B6
CB7D6
FF586
F5688
EF267
C3490
36CA5
C6775
2C6DC
38D37
3A885
D6B80
31B77
0E15A
C59C8
4033B
11BCC
D465E
D4D87
C7414
F403B
CC508
C6024
1EFBE
3CDD6
0CDCF
C2F45
C5CEA
252DB
40A5B
3757A
22EA6
EE3A5
BF596
E2295
CF93C
3E5B3
043FA
34C5B
E66FD
08828
3B738
DC3C4
3F666
F15A7
C68E7
EE5D5
E133C
32B0E
CAFC4
07CEE
283E8
F17FA
3D641
F096C
F9901
E76FB
3F597
3FC89
11C46
16595
2700C
2DB23
182A1
F7F7B
DEA38
F7799
EDBC1
FC3C8
257BD
29527
06B46
C393D
0A9EE
3184C
242E3
168C9
28D94
EE799
15524
34A90
CF584
E7329
FD2F7
40302
F49A3
32CF4
3BAE6
2511F
DD8CB
ECE13
F315E
D4997
E95B6
F32FF
FBC2B
0BF7F
DCAB4
36D15
15E9F
3D926
09B8D
3569A
DAA44
0F930
E2A07
2D21D
E16DF
2F13C
10030
D888B
181F1
DA102
10DE7
36C30
06CAD
C80F9
D5689
0FE0A
1C22D
32043
EE3DF
E7C18
FBB68
E0C7E
0C546
C9E05
1A146
06027
C5E6F
14DDD
3E104
3D32C
C3463
2B3CA
E7BE7
36E29
0CC86
37414
0E914
F9EE9
F9967
F4F6B
34CA4
1EEE6
059C9
DD9C0
D1066
2D81B
DE17E
1B454
1BA0B
E1167
04D18
3260D
354DF
0B7B9
3DA70
C921F
2A307
E5C56
FA93A
D7983
D145B
15793
DE17C
36CF3
F338B
0C116
D0643
31510
2EFA7
FA3A7
1CBE8
FCFC6
FCAA5
E2FE0
1CE23
DD5C3
00807
172FD
1C3E6
0FDB3
CCA4A
E981C
0AA3B
195AA
C6E1E
1E05A
C5C58
CBFBE
D55B9
CE594
1E4F4
EF7E9
C2CD5
E288A
0EFB6
0F4CF
F3DC2
FFA21
23A83
2F9EF
D5941
C2790
DDAD5
32844
0550F
D41DD
3C9A3
F6C87
08D1D
CD3DC
EBB11
E939F
1B826
FC9C3
F87C6
22B1D
17C8E
ED2C9
C50C5
D1670
37833
2991E
16920
1D0D6
1F070
2E38C
E0B49
CD2B0
CEB70
EBAC7
1BB46
EC81C
2FEDB
2B0B2
2C198
D809E
16D38
0B9C6
F669C
30D32
2B45B
CB1FA
FB8B8
09099
E9062
FFA97
26C01
1B732
E82FD
00EA6
C33DD
17EBE
0FBA1
D0094
36178
CA67E
D668D
C7D77
EA824
C5359
31876
C2517
DAA2C
0A067
2D103
C9FE6
D28C8
EAC1A
C4FC9
C3247
F7C2E
FB00F
CB7AF
0AAEA
E5393
2468D
008B6
F0D6F
31E3E
D23CA
136FD
021AB
E136F
C997A
D4952
C3B3E
D4D2D
3F4B2
142FB
36A4D
F07CD
D253D
2033B
2E660
207E2
D45D2
DC8ED
D96FD
F0E50
EFF01
DFB22
22606
D089A
39755
162F5
FCA4D
06818
CEA81
13EC1
CB632
165C8
1E578
FEE59
D4C8D
18C59
FDBA1
C3ED2
C42C0
F35E4
170E1
D4ED9
17259
C17D1
CB0B3
E9A89
C5F96
29568
1C0F1
DC681
265DD
FEDEF
CC559
FFB52
02D29
CAEAE
CA6C7
DD48E
E32B8
D5456
D5E23
33D10
3D804
0347A
FD9FC
32938
14DF3
EB4DB
19145
C79FE
0E1F0
207D9
F91A4
09A9E
1B446
2E9CC
2C066
07551
D2D92
0CD13
F4FB8
03FF9
088E9
04DF3
27901
EA276
39FE8
243F5
02D5F
D042B
0ACF3
FF408
EB73C
346F9
F8983
2C745
2EFA7
F5A6F
CFD77
0719A
F7B14
1AC6B
F7408
174DB
0377E
C0DAE
067CA
18613
C3E3F
DF4D7
1A286
2CE6F
DDB18
149CC
3F154
35859
4033F
DFFA1
DB51E
CADAF
EDBF7
E6958
2859F
1EECA
1FC31
EA03E
09591
FC001
3359F
F45DC
E5DF6
CB157
E5D84
E6516
EBE4F
3D9AB
28727
0D6BA
F34FF
F14BF
0A528
D529F
FED90
F49CE
249E9
22174
34098
27DC5
0E662
047DD
29332
1A225
193EF
E2346
D0104
FA5FB
DF7F9
F0154
3EB48
36546
312C1
10941
2482B
BF8EF
24790
CDB03
DD5A5
E1D34
3A331
2BEF1
CFDAC
F59E4
FB30F
ECF12
C7835
0CC27
CA90A
C802E
DC1F3
1A185
D9215
FB3C9
D9C3A
2B42A
1A0BB
111BC
E96D1
02DD1
F1E02
E0FE6
3C824
C5CC4
EB4FB
10D80
3BBA2
29E38
C9607
EF8F9
DF5FC
1C8D8
12FBC
F90C8
C63EA
DD779
02C10
2925A
DBCB3
FAFDC
FEF0E
0605B
36077
FEDCA
3AB2D
EA0D0
F6653
EC953
E311E
EE3A5
160C0
FB12B
E371E
C88B2
E1FED
2FC55
2C916
2F99B
25653
E8EF1
15DE8
33424
C0F44
F9FC4
049BB
FA573
06CD4
16517
D27D0
EB816
2C937
10DA5
1ACAE
FEDF9
C3654
FEDFD
13FC5
3C81B
D18D5
F2C96
1BD7E
34A21
FE4B0
EF4AE
CD5BE
1BDD1
ECE8B
0F689
C64AF
069C0
F68D6
D70A6
37863
1C849
257AB
D43D7
F1752
0B697
D340E
070C6
C5456
ED586
1B135
3E3E5
0AE4D
FD4D2
DDF2F
29DED
0994C
EEB8D
C24B8
0381F
3F3A6
C7563
EE8DA
F1308
0EC21
CA3D1
08698
D309D
39A40
31D51
2C2CF
DD499
DD804
DFD83
E338A
39BD4
C98F8
2AD2A
0650F
CDA40
E16F2
309AE
D3058
DD179
E3AD5
2C222
05F57
22479
D964B
D15B9
E76D2
31CEF
E5478
F8DF5
3A23A
10F91
37C0C
C7E13
EFBCC
F66C2
1256A
CE47E
11C71
C894B
C9EAE
D65AB
409DF
F3A41
C063A
336B6
268DD
E6B14
1FA5E
39E5A
DE949
15C79
CABD4
24F9A
D80E4
CA0DC
CB627
BFCD9
2F83B
408F1
32389
F3F48
19425
18312
E8FEC
FAF5E
D696B
3CA0C
DFD03
F527A
DBACD
FFA20
2677D
DB50D
F4807
DFCD3
3104D
308EF
EF734
3509B
F657E
3E43D
1D5ED
EB4AC
EA964
DB7A3
3E2A1
3AC43
DD139
EC2E0
1D1E1
2AF19
305C8
0CD7B
2CA5E
3CECC
38A61
E057E
FB7AA
BF9E1
FEA58
401DF
D67C5
1C908
BF673
2B890
04468
E90B4
C86E6
BFCE9
D13B0
359D1
3737C
071A9
E7EB9
ED6D8
14A73
CDBE1
C3CB8
22958
173FE
094CC
0DC58
C366D
D6C97
1632A
CF8E4
027CF
CE46A
0F643
E28DA
20C74
0BC56
25AF3
E5FB3
EE00D
F8CB4
C61DB
32933
3B0EA
178F8
C1143
3A1F4
02F57
15544
290BF
19F5F
E5155
E258D
E445A
13E7E
DD1A9
2DFF9
1A7D0
D2081
3FBB8
F6074
3C798
3F467
FEC5B
308C7
2ED67
E71C2
C908E
F7756
1BB3A
3899D
02E2B
1D5C7
0EBCB
39175
EAF64
F6244
250A5
CA85B
078CF
13B2D
3EEA0
29EF8
EA046
354BF
33B16
38737
2C7B6
025BE
C1731
EC2E4
35DDB
0DDE9
00ED9
03CD9
F2986
ED0E8
D27C1
07351
D89C5
3592E
DC021
C279A
3E231
398B5
CB7E3
F48D6
39A2D
DF5D5
BFB82
D9E56
C3F39
34920
17163
C2842
D5186
D127B
1F710
C73CD
138B7
ED805
328D8
CFA0E
FA018
07F6A
E388C
EC178
02BE3
1547F
13250
C2764
22300
C0E98
C3EC0
3EF85
D747B
D1BB2
09CE8
F3D98
3A713
E9B58
0481B
E16FC
F3DB0
DE194
224BE
1209B
0275F
D0178
E23F3
1CFA4

