3B79A
0A10F
0A51A
2FB88
0DF4A
0FA7E
32B19
2F411
0AF00
3A0C6
3CBD6
3F1EC
33CDF
2D3DB
07C6F
1032D
082C5
33E6B
37B49
0A040
3A4ED
1214F
2E855
3688A
01BAA
07CDC
05337
13AF8
003E9
39A37
057F4
2C2AC
0A38F
0331C
05B81
018CF
12B2E
01882
3821F
02AE9
09375
318E7
0B35E
07F24
0B07B
340C1
05D85
16115
38E71
04533
2E857
02592
0E8EF
16CE3
0F9FE
3961D
174BD
0EEAE
0BD0F
108C7
29E3A
2DF1F
2C265
3D2A4
3E77B
0EB42
3AC21
14CA0
28C83
3ADF6
0A5F4
0AD13
00976
3A42D
068F8
37F47
2F139
3F020
3EB71
13789
09196
15694
35045
0311F
12C3F
0209E
3B1B2
2B5A9
3E184
0B08F
35855
07AAA
1427D
2A12F
0E631
32FA7
39E4C
161B2
01886
03FCA
0B40F
11AB4
3B136
05927
289A5
3BE6C
3DF4D
0CCAB
29B02
176CC
0807E
0508C
05807
2AEC1
37085
3D7A4
30C45
3B15D
117D9
30912
33F70
3F75B
15852
04D2D
2B55E
35B28
06B6B
36237
0C6D5
0A832
3FF96
3D9E8
3FC16
3D0D1
3F16F
38A54
31935
02006
3078C
3E66A
13788
04A01
02CC5
3BA48
3830C
3D635
0B49B
0C6C0
33240
05A9A
0E1D4
3E158
29BB6
113A6
0ADCC
14450
3AEEC
3A280
111B7
3A972
0028F
2E56D
02690
02D93
04660
02AB1
1158B
37AD9
339C1
2D633
3A61B
111D8
00AEF
35D0E
115CC
0B4D8
32EC7
01041
14ACE
395F1
321FC
00276
11994
15500
3C914
3EEA4
017D5
2CD7F
3C9D9
2AEBF
2B53B
28C9C
2F1C5
16F8B
02F0E
3F8E0
2F031
320DD
35336
3A38E
03251
32AE5
39FB3
01A9E
05520
3FA10
09051
3D4D4
31DFC
3E41C
14F41
15E6F
3DB2B
2C9D7
077E6
337E6
3210A
0E2DD
327E7
10685
33438
2C20D
0C454
16753
0DA95
33BA1
07571
0B66F
2DC32
306F3
30BDC
2F453
15715
2D928
0D654
0ECE1
0FF0F
2C997
11178
31E0C
128B8
28AC2
3F0C3
3731A
0658A
3183A
31633
3116F
09647
110ED
14348
07122
10F7D
2E598
156C3
347BF
3AD81
04E04
2F439
29999
2994D
3F6D4
106D7
0600F
0710C
2F8E5
13C6B
11B22
2A42F
314F5
34452
39B80
11CCB
3D7FD
0029F
068A6
026E5
30B13
3C4BB
30BA4
2EE2D
06DAB
3F1D3
3236E
3B24E
013B5
30B46
28C8E
0FA3E
0B4C4
363DC
17544
2E3DD
39E3C
306F1
339AF
0DEDB
0C968
38016
0360B
31858
338C9
02104
2BD91
0EA8B
060AE
3D83F
2B8BE
13E26
342A4
2C167
38C50
09CAA
2F4EA
15D3E
2D6EE
01199
09E4D
2FF8C
2A148
30516
14552
3FC2D
3FC93
0CBAA
1472C
12370
2D55B
09BB1
00083
1065D
15193
0D4C5
08752
0C400
0A638
29AB5
3CEB5
0ACC1
17BE3
05CAC
07827
33F16
3C092
2C0A2
2D950
08B4E
09C22
28B67
06B7F
0FC00
396C7
034FF
32BDF
39E87
0D289
12B04
3B6CB
11BB8
3D0C4
3A7DB
0328A
29A4D
15708
10431
39A0B
169CF
37B7A
16BF7
14D57
3E479
327FE
3B94C
0E76F
2BA50
0815D
3AD01
38B46
3262B
38561
3EB2A
178AB
1148A
022E2
34C05
06592
0BE08
2FC93
10BC7
3CAD1
0E297
1169D
05D91
37D61
09A19
1558C
31FD5
11301
07F97
13503
0151B
136FE
0FC5C
2DD4C
11E73
37846
132DA
3A474
030E3
02F4F
1596E
06886
15F16
04547
3397A
3CCF7
2D120
105A4
08B0E
36832
0D0D5
10584
29A9A
1317A
01A7D
3EAB8
3E039
05E03
2D679
3622A
12F3E
14F4F
16E19
39032
2F903
35163
04BFC
03AA0
35F50
165BE
1042F
3640F
37F47
12B60
02A9A
0640F
3987A
17B6A
114B0
34F14
15C9F
04C9F
0076E
0D1A9
1543B
2FA55
3B64C
34BAF
3BD13
3F6BA
03611
284A7
2EE93
12B6A
385F0
30303
07F6C
3B4B6
2F51C
11935
30CC8
07112
1793D
0730D
06DBB
2CDEF
15720
30EF9
3CD54
33D27
0D8BF
3BE4F
32B23
39BFD
3256A
35F6B
14061
06C59
00232
0C1E0
0F96E
374CB
3FCA1
1745F
2DB57
09252
2D4DA
17B7C
2E5CE
0247C
3A7DD
2A087
37A10
0162C
39B9D
0FD49
3F4A8
38C5A
0850D
3E169
15DB9
347F0
07374
2A1AE
06012
02A81
1157D
357F0
0A77A
0B05D
0970F
38D3F
08738
33DBD
38E8A
04644
2DB3B
3A9FF
117F7
2B100
1131F
3E5CF
35F6C
10569
3055E
34CDB
0D025
00A98
0AA5A
0042A
301FA
0C404
06924
02813
0215B
2F4D4
00AC2
28F9A
3E009
162A8
0C3CF
3BEBF
3D243
095CE
0615A
36A09
17BC4
2F748
09B94
33063
057BE
30988
0F2A0
0B82D
29B89
0E6AF
13D2D
33AB8
3512B
2B0E7
0BE24
1573C
097C0
3A106
2E7C6
1331F
3BA87
05805
0305E
39255
3934E
3A62C
046F8
0BD39
3AEFA
39A17
07781
01C8D
3BB8C
2A2AD
3FF60
36702
165D2
3F2CC
2BE4E
1588E
3BEB5
285BF
0DC84
03AE2
04939
2CA78
05A17
346D6
06333
30D51
2F151
120BA
021CD
00089
094E4
123D8
3AA1E
3D615
03117
14EB9
16A41
0468C
3219B
2CEEA
01A98
0BBCD
129C8
35374
0DA2E
1683C
2965D
0B844
3AC1F
35DF9
0D9BD
2C2CE
0E777
00B2A
0D2DC
344E6
0DF87
102C6
0F4A6
0967D
3503B
2EDFC
30954
3C4E7
159E7
0B56F
398C5
29D73
0BB65
16006
286C1
08C04
106EE
2B67F
3C2ED
3FD95
12917
39589
11DB1
2F991
3C933
163DF
0D593
0EB9B
3C3BD
0EF1F
2D4F2
028E9
34E07
32309
3715F
3CA1F
0E59E
31079
28AFA
0D74B
178EC
1263E
29933
124F7
38795
2CE7E
10075
117F0
398B5
3F9EC
32D59
2E153
07EF7
32FF4
079CD
37876
29DA0
11AC6
125BE
09D3E
029F6
34A47
134B1
3CE5B
3D428
11DE4
13B74
10EF3
09892
3B7CF
00D6A
042FA
38B71
0195A
3A17B
2C9F5
0F613
3E3D2
3BB50
33DEC
11F70
02820
2A2BE
3423F
02AC3
0035E
11034
1054D
3815B
09453
133A8
00CCB
33867
291B8
098E1
010AF
129E0
3EA4B
16CB1
146AE
2D419
0B166
0912B
33932
300FB
0BDB3
3646A
32982
081EA
3C1B6
33A8C
30158
043F1
16D35
2C66E
3C0B4
369D8
13261
01B7F
081E5
3A900
0BDC6
30034
12D91
331DB
03C2E
3A95C
02F3A
37436
2D8E9
3C690
3DC97
16373
12A75
29547
2B2D6
07708
175B1
0CD3B
317FD
1506F
3F882
3B2B5
1639B
39E91
0C900
3D253
2EF8F
0253F
0568B
07A8E
0DF43
0566E
1381C
04CD6
2F4A3
0B953
2E301
36CE9
12033
01DFF
32316
17925
0DA2B
0EEF1
37F30
2F4E4
29FD2
37328
12405
0F491
3A7D7
2E612
0C1AB
0E654
36F7F
0BFE6
363A1
3B5A1
0A120
0571C
3333E
138AA
04563
0ADC4
2988B
06E89
316DB
030F3
324CF
37FE3
2C994
17720
2ADA3
33F15
1752A
3F7C1
06CFE
2FCC9
14145
12159
0E7EC
39024
28B47
2FB53
077AA
2ABEB
112BC
2F424
07426
3EE34
0314F
2C036
310A2
2D30D
0AB39
2B964
1691D
0E08E
1501D
0309C
3BC6C
0B188
2AD10
0A9D6
0391D
07CDE
0E0AB
097D7
2A15D
0C3B1
2F043
2F39F
035CE
3B0A8
0ABBF
28B26
07E5A
0E079
33D5D
2A47B
39D61
3FC7E
06549
077BB
01D09
00FE9
2FAC4
15507
3C7B3
0BBFE
01C31
15273
36EE2
16D6D
3F99F
3CD7E
0BC67
3E17E
323ED
03843
08A9A
287E0
3F293
1739C
309E0
15D08
3C762
37F95
35166
3D53D
0AC16
0D361
05D20
35AFE
31299
0525B
29F2A
0C1C4
13E34
00BEA
2BD41
2FD44
3D4D1
32A83
32B35
38C88
03786
00BFB
302EE
0C65C
166EB
0B325
355E1
109EC
33EB3
2E948
3E80C
01F35
2897E
0F88F
303EC
0F369
2BC20
3EAC9
0A69D
1396D
15B27
169F7
0927D
01EE7
00E30
10E25
33F65
32784
315E7
0C1EC
10AB8
0BE64
345AD
285E3
38316
34258
08215
3A282
3647A
35EE2
0D6C6
39A0A
3131D
38EBA
143C1
05478
03368
02CE7
37ED0
15BCD
39F04
363CD
0C04A
024D4
11739
109B4
2AC8D
3A88C
0CB8E
2862A
30B11
315A4
090A9
34815
16E9F
101C8
0B516
13168
31C2B
38703
0312E
3A39C
05578
3319F
0DFEB
2CAB1
07E87
3E906
3386D
08268
0099F
0E394
07892
3FEBA
06112
2AA32
16CC5
04DF6
35B6E
38C56
0CCDE
39C91
145E9
2DE0D
31292
09AC6
2B3FE
11227
2F52E
147A3
004FC
0B1D9
2A041
033CA
398B7
33A06
2DA32
2D70D
2F503
0AF4C
015B6
0593A
097DB
2DAF4
0341B
09376
0234C
3AB5D
36691
3E02E
3D3CC
3DC1F
1503E
2F3ED
04353
0973E
114AA
3FF74
34934
337CA
31E90
01C60
160A2
111EA
330E9
35CC3
37D8B
04A4B
04915
3DE8E
2C89D
0A5AC
2F14B
2A96C
09DDF
2C42D
1184E
05131
2C124
36067
39061
06525
3FCBB
046C6
09412
37BC3
0A059
09457
39A7F
029A4
036CC
0AD81
3E750
0F181
009A8
16E84
3F886
09578
04174
06F59
0E864
17C28
045D4
120EC
3AF2C
02411
08885
16D87
131C1
0C5F6
16BEA
17453
343FB
33283
0E43A
0A07C
0C5B0
0BB30
3A286
37CD6
30006
029C2
1675A
16869
16A2F
1606D
0566B
03FA6
11B89
0C2E0
10702
1195E
2E950
10ADF
3DA87
37573
0FEC2
05BA2
0ACF4
2A426
0FC19
355F7
30911
0ED09
1221E
00158
3FE9D
33C2F
2C89E
335A3
0B455
0E4A8
3C0FF
2AEC8
0174E
38854
2EC0C
28684
3485C
00FFB
2F51B
0ADDB
36A16
0FB73
0E869
2DADD
3B9BB
3101E
2E768
14944
2B5D9
164D4
38070
2F5B3
15990
0EFF3
30E8D
36452
083B7
144BE
368C7
09F25
13382
2CAFC
0F9C7
3D0D1
34639
058C0
38346
07AF2
29164
3FBB5
0D358
0B168
0FE53
3E371
3EA67
31327
37F39
17770
39A80
05345
3CF85
0E880
00C6A
102A0
034FC
30679
06791
2B43F
02C20
2BEFE
160E5
2E048
29D5A
375F5
06D12
061BB
38CDE
3203D
2D1B6
1266E
0D23A
13DB1
0AFB1
2DA7F
2E27E
29773
0F124
11FCF
3DBF3
161B2
3FE36
05153
0C73F
3EF40
3E653
34013
2985B
13163
2D060
09567
07ABB
2F41B
090C9
0E710
1338C
2A79C
2CD77
3DBE7
03C2C
119E6
082D6
006BA
0E0C7
17988
16C48
3368D
0BA24
2C3EB
3B5C1
00E1A
00356
3F675
3CEE9
13362
3AC0B
3DBC4
022D9
29D25
13064
15EE5
15142
31B8B
1060C
0EFA9
3D1A5
05248
347D0
068ED
10A9E
2A4C4
2AE42
3C47E
100E4
0CC0D
15655
07026
342E2
2F980
0A6BC
2D6FF
0010E
01C69
03B7E
2B2FD
302A4
2E69A
2AAF6
1664A
3E368
11ACA
0E19C
02243
05899
03337
38A5D
3CBBA
13171
2AB87
34431
3E43D
0E161
0AC15
2BFA2
33890
00DC1
01B93
3E73E
397BB
2FF5D
0AD66
15A5B
04634
0E7BB
3D4AC
1454A
2B51B
30DDF
0CBDE
300E4
2AE75
38DBF
0C620
39591
2E3FB
084A0
08C80
370A9
06B9D
044BD
0D945
3EAF8
2B63C
0F568
0ADDF
16DE5
3A1E9
15CD1
0F607
317F1
35DB7
2EC5E
05D57
07D05
06867
0F9A1
2E55C
31C03
0387C
37BE1
37184
16ED3
098E6
0DCC8
02098
135CD
2A084
06A64
177CB
09FCB
144DE
3018A
2972F
34EA3
0B90D
3B630
14678
120CA
1289B
06EA0
0083E
35E6A
130CA
0DC75
31885
02546
03254
30FAA
100CB
287D4
12E59
2B880
330D3
3740E
0273C
331FC
2F64F
2C59D
3B1B8
384CC
3378D
376B3
0F7ED
0F91B
3E21E
37BE4
2E028
2A741
2E918
06D6C
07F01
3DF98
3394D
01D2E
176BB
13D18
02492
0DDAC
3334C
2DC9D
3E438
0B8D9
38CF2
07D51
393DA
0A60D
131C7
39AD5
12DF2
335FE
138EC
01479
0FE44
13627
31E54
063B2
0439E
3DE1F
1601B
39D57
2C454
0C8C1
0D125
2A826
12059
090F5
35F05
2B2AA
3B408
0BEDF
01A88
3CE43
2FAC1
3EEB5
3C030
347E5
0E64E
28B66
2AE84
301FD
2BAB2
368B8
3092C
0D026
39822
15150
00953
2AD3C
35110
00767
09D99
2D4D9
334E9
07269
14007
02990
0EF6C
317DD
0B063
0733B
2C835
0BC6B
0E4AD
11D46
11040
09D75
2A073
3C355
09A32
323B2
01557
31155
05A10
14A72
2B576
0FAF1
2E1B8
321CF
2A36F
05E49
0E94D
3C713
041D9
38F9B
31510
05551
39E5C
2E6FA
2E4A6
09644
3256D
14ADA
375BF
34E5B
3690B
2E1A5
38DA2
2A77B
328A9
0DECB
023B4
35CE7
2F06D
32169
301B4
100B4
30FFF
30CA2
30F89
138CD
3989C
30096
28891
2ED6D
2AC9E
33820
3D48C
110D8
2CE75
37BC6
15CED
00C94
03F69
2B8DF
0A743
3713F
06C4F
0E475
0EECF
006C4
3904C
3B34A
290CD
07FBC
0EE64
029E1
3FA90
2E51C
03C0E
3757F
12041
0AFFD
33762
367CB
070A9
36733
29F63
28CF7
07551
38879
0A7B5
04920
3374B
084C1
365FB
0D0BA
07F36
3E7F2
0B3B4
10518
0E017
3D888
2A60A
2AB5A
10E56
2B0CA
070F0
1362F
392B4
01C2B
3C5CF
1799A
05E03
2BA11
0F9E8
175B1
119DE
0F4C4
08556
3F299
158BB
00E13
357BB
36F20
30112
07AB3
3DEA8
342FC
2A0B5
3FD80
0324A
288FF
304EE
3938C
0EEA2
0490F
089AD
3C902
17521
0D5B5
39AD4
12F70
2BDAC
14ECD
3017F
1665B
35CB3
06876
294B6
36166
0D3B3
3C62F
036FD
348A3
007BB
3EDDC
0B20A
3CBEF
3A75C
0CF8E
03526
04E66
34D1C
0EFE3
0BECE
076A8
38567
345C9
32F5C
04B68
0EB24
373D5
3988F
2E550
12E18
3D15A
31CA4
01E08
348B3
1573F
3A448
1065D
37D82
3B03F
11192
0F2F1
3FE80
025E4
04953
3E515
31EE4
3FEBE
2B11F
11F56
38C4B
0A29C
0448C
0DEA3
0B99F
02286
1617B
2EB3B
2DD1C
2DC65
17A57
11478
0EB0E
3E64D
082FF
11AE5
01319
10720
35D30
11A37
343BE
3D0D7
02358
33EB5
0BF36
2DBBC
135CA
0F3D0
08E10
3306D
3BBB7
3FA07
012EA
035DE
32C7E
2E59E
3036B
32129
148AE
0B574
16C9E
13B4C
2B602
0625E
0D4C9
02D4B
34725
28DE4
13891
0DBCA
2A526
3736D
15061
14835
39990
332EC
33CA6
3EF5B
08D47
301A0
0DDF2
0A351
30DF6
287CD
0D50C
07B55
0FF9D
3B3E3
3A1CE
2FD27
03897
355F7
2EC18
125AB
3FA00
30425
10B51
3F781
30029
136F4
2A563
33BCE
3B939
14B98
2C0E2
312C4
361DA
015A8
3F035
3EAEE
14BB3
337F1
15EFE
37865
071F9
2EF9F
380C7
2E424
3B5D9
1092F
111AB
2FE07
0689F
28998
0BAD6
12517
05517
11ECC
024C8
05747
294D8
321A2
3FD16
3AF3B
370F4
344BD
01A52
33BF0
2A1EA
28630
12618
0934E
09449
0BAF5
287E9
121CF
09588
0617A
12F0B
399C4
06569
32085
089CD
0A4FE
06AC8
092C2
08B10
09D6B
3E90B
2D4F0
300CB
2E3C3
2FC2A
0D896
0B8E5
2DAF3
32DA4
2F502
12CBF
3788D
36DE6
3C8A1
39838
0CD91
03EA2
08C92
06652
2A866
35CA2
2F7B9
0546B
0654E
341A4
2F47B
28DBF
2C744
3C4B3
32102
36954
07459
32A34
2CDE2
2F9E7
3C305
0096A
3A340
3077D
3C9CA
1218D
0BE00
0ABB0
322F6
33C52
099E9
3F3AE
02AEA
069C8
2AAC4
30ADD
36F6A
2B0E5
0B219
0ED80
2A1C7
0670B
0CBE0
2C249
16EB2
3EC30
2E819
2A837
0E886
3C3D6
3B9A1
3FC43
31BF2
08D8A
14B61
13F45
01E96
3A7AD
295A0
103DA
0A71B
2FA28
00243
0510C
01F15
051A0
0DEE7
0C962
143C6
3F6E0
148F9
3ACDD
30FBF
0F265
29EEE
3A30C
2B0B3
06E8C
37432
2FE2E
38379
2BA55
03357
2DCA5
29073
32682
15871
100D0
00768
0A418
3E201
17B80
3712B
07087
2E95F
3C69F
3EC89
047C0
0A0A5
037A4
021F1
289B7
10C6C
367B5
299F3
157EA
2DC86
3AB2B
0BB9B
12204
09802
35868
2A6AB
3C961
2C12A
3935E
09349
287EA
04648
0EB87
30954
2BA97
163B0
2A565
0C3DA
0400C
170A9
2FBA9
12B05
3604D
0FA25
3DB60
34E8D
36022
0DFF3
1387D
17AA0
39B0C
2EEE7
0FE2E
344E1
3705E
017F6
29443
05F60
0F429
0A872
2E669
2B00B
07ABC
05E6C
1195D
34568
3541F
02325
31AC4
0FA41
33AA8
1011B
3E0FB
12C41
3470C
0D550
2DA0D
07AC3
138DA
03CE4
38D40
2BE42
06B13
3EC77
3B0C1
0F3A7
3C7C8
0BF5A
3C6D0
39A70
309E3
399F4
3BFDB
14B44
119F0
0411F
0D599
17201
28D42
2A173
29A50
3C8FE
0DD4A
0B305
095AC
043CA
17AE5
39F35
2D418
3D4EF
0AFA0
3A25A
2A09D
3A1DF
0925C
085DA
027F4
2F75D
2AD8B
0651F
1328F
0E017
31989
16BF3
065D6
2A7A5
3DA1F
1692F
1329C
3040F
00EE7
283B7
0C47D
33298
15D5C
0DBA9
123C6
3AAA3
2944D
3D202
35474
310E8
2EDE6
3DC8B
2B8B6
0E786
38E6F
36D51
15F52
06B12
1622A
0A2B2
3A2D0
12CA9
308AD
172DF
11FF9
07DE3
0D612
3EA1F
31267
28CC8
2A270
109E8
031C1
33953
2BEDD
04D97
2D3EC
07B30
0DE7C
2E343
13809
374EF
0C770
074CB
2B5EA
11F5C
370BD
2D282
3166B
0BA1B
37AA4
33E44
39232
09014
3BD72
11B6B
3FB41
37D48
08E89
3247E
35137
2C1B4
2D462
36658
08805
365DF
3AB30
31AA3
3F2AC
2E2D9
2D505
08DA1
375EE
1561F
2B293
0301A
356E5
06C17
11FC5
2DF3B
320B9
17839
0A4EB
379CC
11911
0DE2B
02AEC
2C038
29445
3E08A
136A7
33155
28DE2
071C7
0D2A9
0C0D3
05675
2AA33
3CE7D
1754C
09A9A
0924B
03583
3029E
0B442
3BECF
1599B
31883
38AAC
293EF
3E1AC
05D36
0DD35
3C068
3D69B
2E529
2F41B
2EC59
032AB
09E61
00A9B
1503C
02114
2FE8A
12ACB
3939C
1196E
03138
35AE1
2979E
0C346
30169
2D337
28491
2AABA
302AE
30D2D
090CC
0017E
39845
0C515
03F5F
17226
07B24
290BC
28B74
2C974
3B8F7
0B687
0284C
08759
338D9
3CB64
347CC
3077E
0F4AB
2B533
3A00F
123F4
15A5C
15022
32523
07844
157BB
3D39E
17B5E
28DDA
02E5A
137EA
38CF5
0412D
2B550
3F5FC
2EA77
04472
0F6F1
2A9E4
16C89
0A24C
13D27
03B7D
043FD
111CD
36466
29B1A
29177
083E8
0A8C9
148C0
04630
03694
070BD
10E39
2892F
306F2
009B1
323A5
38459
38AA8
0A0DE
3DE55
04A3B
295A7
05670
16128
2E78A
1320C
129C0
0D18B
2E4C9
294CE
0CF3C
0F955
0C4D8
05EDB
3B152
3B19C
2AEA4
161CA
341C4
08689
2F0AF
04A99
043D0
35DA9
0BCB4
14137
13AD0
31D49
2CE69
13712
12B3B
09A37
3D10F
38E0C
3AFB8
10559
2F6BE
2F979
3C548
083D5
112D5
2BE82
30A0C
362FF
3BD2A
0DC04
36A90
0165A
3B531
3104C
05C23
38B5C
04664
35DE8
3C9C7
36BAE
3BC11
33729
0450C
16AFF
324CF
0D4BB
0A04A
3F5E2
03A46
2D8D6
370F2
0D5A8
358F9
00095
393D9
0418E
3B9A4
0A4E0
36500
041C0
0A3F2
36F15
34F25
03696
2AD55
348D1
079BF
09573
15302
2C2BB
02F06
2C819
16761
35464
1391B
06CB2
38D1F
134D5
0D3D6
16AF4
027E5
2EA2E
2D61C
09D1A
157C3
0723E
36394
035FC
39D99
042BC
2D9F1
30826
0ECF4
2CAFB
087C5
156AF
0E1AB
000E2
0F4E9
3BC3B
02E45
3EF8C
36C0C
0B546
35795
01BCE
05061
30EE1
3543D
314A2
08BA5
2FE8C
14697
17569
347A9
0D7DE
38011
06A98
0E7A3
2FBA2
33359
15E21
11EEB
0C623
2A37A
3D2D1
0BC69
37C7F
1746C
10A9B
0AEAB
0D627
05B93
319ED
0D7B3
2DCD0
3EFBE
30342
3C952
02CF9
38E31
3C49E
1421A
3FC7B
3564D
031C4
02E93
041CD
0D54C
37197
0E178
01329
175B4
0DEC9
3355D
3C622
0EA9B
33101
326FE
2EF54
14A40
2C723
36FD3
16990
3E811
10811
16D01
3166B
13F83
05A1E
3DE6B
359B0
0770E
2B8E4
2CBC2
31D62
12054
027AE
3F3D7
3DAA9
02421
01A3A
00DB2
0F419
2AB75
36B13
35282
0A2AE
1521B
3843A
32382
28B6E
00E5C
10826
0B01B
3B7BF
2DE7F
38858
12E5C
30F8C
10B58
0D59D
175C6
2E572
0B458
2A787
14D6D
3D6FB
2CF9A
3A9E6
09EBF
3A335
30713
0BB84
071FD
10022
3F1AF
01451
2B9C1
06C03
3C2F9
0742C
31AAF
16F5F
289AE
0EE51
1312F
0B786
0E80F
12B6F
2C7B0
0035E
387C5
3546B
13307
39F6B
2904E
32872
39FAA
3C4D0
3C922
0A404
29EE5
3E3D4
05F6F
15101
36925
0BEE8
09527
2A272
363E6
01A0F
038E2
2E97B
2CDE7
3D3C2
3E492
2FD1F
317C8
2D129
10FA2
0C391
0396B
2B6CD
311AE
2C6F9
112E5
04AA3
3A5C2
0B42E
2843D
039BF
32FC1
03945
10A96
2FA80
2F4D7
0A797
0B670
34C42
321CA
28B93
29439
1279E
2DCD3
10ECE
02B20
30ED8
0A016
100BA
2B728
14E07
2A3A4
39C18
3AC26
0BBAA
0DCB9
38B2A
0AD83
3412D
110CD
093A0
09EB2
3AE17
29BE3
0749A
159F4
01143
3F61D
045F8
159A9
0AAB2
2864C
30BB5
159F2
38709
1213F
0A539
2A9E7
1406E
10A31
09E08
3223F
156A8
299C0
17101
0DF45
3A00B
35225
3CCCD
040FA
06CAA
31288
14688
3D6E2
293ED
05152
1356F
04483
3EE0E
127C6
37D86
13710
08B46
045A3
399B4
070FC
03647
124C4
2CEC2
36506
029A5
34E9E
33E08
29517
3A23B
2D77A
06E36
2D563
1486D
12CBB
082F5
34C1D
2E300
0FCA4
0C51C
158DE
3D017
2A325
01101
39F97
058EF
349A7
0B00C
14E05
05461
2E03E
3DF8C
3FB9A
32DB4
07F55
0DD06
3D5BB
179C8
3F32F
035B1
29F96
3E1CA
312FE
16C4C
16E27
03E98
3253E
3AAFD
398C1
33C08
0B797
351EB
3C748
15F42
158BC
01BA0
2AEA8
3A6FA
17AB7
382FC
341D3
2F1CA
107C5
050F0
3B836
3CE35
31662
2A193
2938C
004AA
04619
0E9AD
391C5
376F1
1410F
2B1F9
36006
048C0
3B7BE
11C02
07716
33B32
2D33F
12CB9
10265
10D72
38DF6
3C8FF
1751B
0522C
02431
0D4E1
39954
302B7
115AD
3CB94
13484
2D2AF
3F677
30AA5
3DE34
0A10E
2A047
07051
3D916
069AD
0C3C8
3BB97
0021D
0CABF
04813
04D46
16FE1
34BFA
3D89D
35A01
04F30
3D7F9
3AA70
3E5C3
0AA04
0FE31
018FC
0C775
31895
2DC71
0B66F
35C83
07205
0F0D9
0ECD0
0D163
114C0
28EDB
0C266
0E2AF
3D0E4
05E8F
0BAF8
03396
0EB17
2C8B0
2D830
30926
3889A
02C89
3968E
11F3B
13F41
08E51
3A766
2906C
14FCE
020D3
30C6A
07947
3ED11
31A9A
32799
2E74A
2D399
0EE4C
150DA
2CE32
306CC
2A193
2F6D7
1033B
393B0
2C9BA
3B7DF
3A6B0
3D141
08ADA
00A21
34E52
12C4A
28C7F
003D2
0D6E0
3B8CF
2DDA4
2F5E8
28862
319D6
11BB4
1311D
2F7B9
3C664
3F279
2A8DD
3162A
2E382
0B47C
07D0D
320A7
07D7C
3DFEC
006B1
00284
34ED5
3E792
17683
0942E
2E48C
3238C
063CA
3BA28
3ED9D
318F8
31006
2A045
078A2
0DF3C
11EE7
1274D
2A60F
2C963
2F479
01495
3F0A5
3FCCF
37ACE
3ABAE
0BCD1
06044
36EAE
0002A
0D409
3C9B8
0E9EF
3639D
2F60E
396E3
28C06
16603
0158B
0DAF3
0E88E
0A668
28F4B
30EFA
0A8EB
3D6A7
37260
3B660
3E5B4
0F19D
16B7A
094D0
291C6
39672
3492C
0E439
2FF56
06F15
0211A
04FAB
2A97E
29091
133FC
3FB46
0FAED
31312
34EBD
13DC8
003B7
05F0D
38261
00714
2DF2D
2AE98
0D2BD
0ED44
2F6F8
122DF
3BC11
02FB4
0A459
30F73
0518B
02964
0918C
13CD2
38F98
3E282
16CF3
04A9D
03AE9
38B41
0CB88
3E2D4
39C47
03898
33198
0C729
073E8
3C667
37F72
156A2
3B75F
31124
10EEE
06FDE
3CABC
34598
0BFF8
06DC0
3B6DE
09C56
0B62B
31673
2DF53
3B7EC
3E980
0CBA6
134F9
2E4D1
01C16
3C365
34AA2
03129
03C93
07E01
07FE0
3F65C
287B8
12780
001C8
154FB
12291
2C7F9
14E71
39D27
3B8E4
3BA71
0B916
0454D
0B3E6
0C063
35F27
368DF
08192
0744E
355B2
0AB9C
042F4
2EB07
01BBB
387A1
08BA0
0DF40
3CF89
00F41
3D90A
07E1C
31CF4
13F51
07DD7
059A4
3D955
034A5
024F2
2E63F
325B4
08647
3C141
09519
0BEDD
36FBF
06A2A
2F01B
0576C
065C9
32B46
2CBA0
3B033
097F1
10BAD
17505
2F86B
11857
012EC
2ABA7
2D35F
3CE99
0A7FD
288A8
16C37
00D6B
32A39
38F3C
05C28
2AB5C
2A29A
3347A
13266
3B93F
38514
2A138
3769E
396B2
085C2
127B9
07A28
0F5D3
0A39F
0D4F0
06FD0
3C89D
2BE5D
31865
36F21
0F572
2A68A
2DA75
3B66A
0471D
159C6
07D09
373B3
3BD05
08D67
28DBC
0AF6C
02C56
0DA2A
2B412
2B40B
0E533
12C24
2A28D
008F8
16F9F
2A6F6
3236B
3A08A
15523
051B1
294E3
32422
3458F
04DAF
019D8
2B139
01E75
003D6
12B1E
386DC
0D347
3EC90
2A818
136C5
36085
01A45
0F39E
0FDCD
2A4ED
30007
11058
02A18
033A2
07CDF
3BAF4
0A1C2
0D7E5
0D092
1441C
0E0D1
00072
37DB1
00762
12984
14602
301D4
069F4
00E4F
045BE
08A83
05DBC
3CEE9
31C4D
2A651
16DD3
00F16
178CC
15DDC
3BA0E
0084E
12F87
3791B
04093
3DD41
10E60
28526
0D3AA
366F9
35443
0A308
35C2F
014C9
3E925
0C45E
3737D
12ABE
081D9
2CAA0
3DC33
05963
3C1A0
36A15
389C5
38422
334CE
2C4E5
03FFA
092FC
10BFE
388D9
02EA9
04E89
2944E
0F0A3
12A2D
3C6F6
37565
38729
09D91
00904
3168F
09D1F
1058F
07F88
06B0C
15084
01B3B
29FEE
0A8D9
0C93F
3EBC2
08F91
16F5F
053F2
0B411
36F72
17B15
09EB0
13AD1
033B2
30D40
2C2A7
17BE8
3551D
2ED21
2B6AD
2B7F9
3D32B
349B6
02C1C
02C97
12552
28F18
36698
35402
0DD7F
3A634
3CEF3
0B59B
34DD1
2E82F
3845F
31D80
0237E
2886C
3221F
34441
03606
0AF6C
10891
124AB
3CA43
0475F
0DD71
34348
17892
31F64
3DD8C
17496
38422
109C3
3C9E7
176FD
32DC6
2EC3C
29815
1511F
05659
07569
3B1FC
3376C
33E3E
33090
3D077
051E5
38DB8
3504C
343C8
3DD0B
34CBC
3FFFC
2E708
3A5E1
2E934
3B617
3EF15
02A4F
020D4
054A2
0BE7E
2B281
3A1A1
02EB1
0D982
2BCC0
0695A
31483
057B9
0D522
0BAFC
31789
03617
2F52D
37286
2F00B
1612C
3A4AD
37B05
0B996
09180
3CE13
39949
0CC97
15A9A
0BE74
2EFBF
2DA4A
3C6A3
0641B
399D3
0FD12
0121D
16B02
11767
0AAD2
046BC
290A0
29CAD
0D901
0ABE5
0AA6E
31EE7
3954B
065EA
0EE9E
08141
379BE
2A704
35DA2
16182
00AF9
2CCBF
10D81
3FA77
14672
0188F
39697
34EB5
2D597
0DBB9
36E1A
2DF82
1707E
31D79
36E7A
103BF
30E2D
2924D
3E176
0D8D2
14D22
0516D
3236D
0F607
0B962
39BB2
3637B
3F16C
083AA
0383A
2A02C
06D5A
32C75
2F8A1
30974
3C575
0E91F
07367
3F3F2
154A5
0B0B5
3647F
2FC54
148B3
363E8
0E6B1
060D2
0BAB2
0EA43
38386
16373
00E34
077ED
15C36
3A352
0C685
301CE
0D7FC
2BED4
16ABE
02846
15127
165F8
39AA3
0E83F
36B58
2D47C
34CC3
3FBA5
004F0
06240
0C45C
366D8
2FBF2
396B0
01FDE
06814
3B3C0
2A64F
08DC2
0C30A
2F114
156B7
031C7
3EF1C
15252
00B6D
13A87
30D82
15AA6
08418
3081E
2E46B
29585
36B9B
02279
3BA7C
0CBBD
02CBA
0F7B3
00883
3E7DE
292E9
0204F
0545E
35EE7
09BA3
0FA91
0053E
14A05
0607A
0C903
3B971
3C0B5
04CC2
3CEC9
08423
1727A
0F74A
0AF91
2D8F1
31969
12554
16F7C
053D7
0148E
3B370
2848C
0912E
2F93A
30151
12AD8
28A64
2B70C
0202B
10228
06EFB
3F80F
3005F
3F1AB
3E396
2893F
0AE49
12129
0E21B
2CAFB
3E8CD
024E7
3916F
07A7F
39D7F
2C9A5
2B66D
0A114
00861
2947C
08A26
13CDB
3FD84
34C48
30B50
2CED3
38359
3FEDC
1382B
36C8A
3CF5B
001DC
179A9
1249E
070E1
32CF5
01610
2B97F
09332
17B8C
0ED5B
28766
112C2
2D43D
37CAC
0F31F
00704
16811
15F03
0AE18
3DAC0
37040
03980
0AD45
3AA74
02DF6
3E1C3
3B126
0A016
109C5
3397F
33F0D
07FE5
309E6
172EC
2FAAD
333EA
3218E
17930
049EE
03D2F
04ECA
3EB8C
33264
339D0
13DAC
081C7
2F583
398AD
2B0EB
2BB7C
3FCF9
39BF0
29FF8
00D96
02831
3FDDB
0D125
2BD92
038D0
29523
3FFC0
06A27
3C81B
3C4BC
3EE89
1407F
0F9D9
305F1
312B9
3256D
3B6C4
36AC6
0CD6C
0F848
09824
3B5E8
17695
0ACD8
06EBD
0241B
1716E
08B10
36741
2994C
3A54D
28DDE
0C5AE
38B51
020D3
2B476
2E7F8
372EF
01A55
09591
3A736
0F2B3
3B268
2F81D
17600
2C27F
10CB5
33C6F
04114
3D772
29838
155E5
3F0A2
0BD5F
34C5B
0E131
2CA6A
1452D
34B05
07EB0
3860D
31AED
2FD65
30ECD
0F8F4
2DAF7
36A75
2FAEC
16C86
31472
079CE
06087
32D0F
3B1C6
0FC31
35CB8
305C6
34020
08681
3756C
174F9
13DA8
355CE
01FD0
2CA40
13B88
0C74C
07E6A
33C64
375A6
067BA
09CA4
35550
3DEA9
03BC2
0ABCF
2D7D8
02358
086C6
37C2C
018A3
06846
32FCA
0F140
10E90
35905
3173A
15454
02F67
2D38B
07413
147F9
3E8C9
155A1
161F1
3F1B6
013E4
04E03
3747E
170C5
38CA3
0A36E
3EE12
3F8E8
2FA79
2CED5
3CDB2
08679
15150
2B2DF
37289
0A073
07895
1782D
3D951
34AEE
156D4
08637
0A019
2FE75
12B3D
2B041
06953
0CB90
2ED6B
33083
3392D
344C4
31B50
08A6C
0E0C6
06679
38A50
30A4F
2D614
385B2
08EB4
02A87
2BAEB
13F9E
023FE
3D0AD
00D62
31153
3F7B2
032A4
36BDE
035A8
39A48
3A01C
32E41
2FD39
3A0CF
394E0
01362
09E6A
0A2A5
1623A
365B5
06EF9
0BE69
006E6
2B190
3ADE6
14F1B
06FD4
111D5
39BB7
2C3CE
0B311
05C35
37658
0782A
317D0
05AA4
3D7BF
084FA
2932E
05ED3
12FF5
318E1
3D418
023A1
14E45
02B48
2A514
2A92E
06E58
0C4AD
29C1C
052E8
0CF1D
38D84
2FE86
09213
3E456
36AA0
064FF
0086A
00A0E
37DFE
0FB6E
2C7EF
11112
0C2DA
3BF5B
10FBB
3AD10
2BAE0
0A9EA
04B92
3F4B0
34B08
100EE
15D54
3A61C
29DED
00EA8
0C422
33996
14025
3DCAE
3B1DB
2ADA6
01813
31378
0E31D
06333
0352E
0D581
2EBC2
3DFD3
3B5C1
2AC6A
0CD40
15828
14BE0
3B422
14F03
2C4A6
32351
2B904
3AF18
018A0
29ED8
293B1
086FE
3EA0C
3EA1A
2E3FC
368A2
2AC26
3B9D7
2C82C
11F03
15B9D
09B42
290B4
12384
2ED3A
16CCE
2E7D0
319D2
04811
29FD3
39297
3DFBE
2A724
0FADE
00A01
12BF6
06AAB
098AC
2FD23
2F6F6
3CA22
0FAD1
0ED0D
3AEC1
28FBE
322A2
2CF7B
0DE2E
0C819
2B393
0BE0D
3A3A2
01E65
29484
371FE
3A9D8
10949
35C47
34979
30F0B
378F8
0D07B
14DFC
3B4E4
316F2
12A55
0D809
28963
0F27A
0AEA0
03A5A
122AD
3F726
3D301
09447
32CCC
11840
02C80
3A249
05129
2BD84
30582
36078
1174F
2E71B
32935
3D025
119B9
15F4C
0AFB4
100CD
3B1F7
03E66
15A52
0D9D2
0CFB0
0EACC
05FA0
137F0
1188D
36540
135CF
00E1A
36825
038A7
2CC29
30E52
07D60
07193
05DAF
3249D
36B5F
04F5B
00EEA
28771
3FBA7
2ED2D
0A970
078F1
2CB01
2D8D2
0D1C5
151DB
3144A
07598
087F5
07702
02A27
3C137
390AF
34304
17491
3FEB7
03FAF
29146
03DF2
33F0D
1408E
2842F
2C5B6
2FB95
28EFF
3BF29
052BE
02151
0B81E
1150D
179AF
2DF58
0D295
35510
0BED2
2CBEA
0542E
29326
043D8
022BC
00FEC
3C13B
2F7AB
07659
334FA
3BABF
11038
35757
03652
2C1A5
2FA3B
3F03F
3EC9F
142C4
38512
1264C
2D1F7
12FD3
38006
013A3
3998E
16B61
01FE9
3E396
153B8
140FC
16461
28B26
0DB73
15D37
36271
16664
29D40
3075E
08136
0CEDE
35F8A
1469C
30FF0
2CA38
394D7
16508
328AF
31C89
3C936
0DDBD
025E0
07B46
17C29
00BD4
312F3
12D67
0ED3B
05743
3A747
0DCB1
0F1FB
00F37
32923
31D75
287DE
291B8
087EB
079C6
298C6
109EF
30511
0E66C
390B8
1441A
0EC1E
34EE8
39829
00A88
0082E
063CD
0650A
2947A
3AB99
10E71
2E810
01503
2F166
16F0E
14198
06C43
37CE2
178DE
14C77
01E8F
2B2CC
0A852
3DF0E
3C72B
13AFE
0593E
2AEEE
0A1B7
3585F
2E8AC
17C31
31530
11C4B
367AC
07EF9
39783
11B5E
081A3
3EF4A
38B93
315F4
017F3
3873F
2D8D6
2F9AB
2A309
12C65
14DED
31775
10686
0FD66
0ED7B
36559
33F8E
10255
0204F
16515
3844E
34BB1
0BAA8
07C73
043B9
0C675
3A908
29335
0D6A1
106D8
03968
379D9
008D3
14727
01779
02CA4
07219
3EC1D
3E15E
04BEE
0AD3C
0D58A
33CF3
1565F
2E2C0
118FF
2C212
3D341
0F936
0125E
07649
38EA9
16610
17082
0B755
04EC0
37695
33EE8
35FD2
3CE9C
35FC1
3CBBC
312E0
0BB3D
3E987
36775
3D378
03AAF
15E11
08F37
36CDE
12321
3D9C3
15E9F
0372A
0786B
3F539
2D6FE
368A1
09BC4
2D2B0
340C3
28C46
0C89E
0943F
3981A
2CBD8
31BD2
0B2A2
3415E
1080F
1624A
3F8C2
37799
0947E
2F1AE
2EF04
06CAC
2E175
05E44
16074
35C5F
12E08
07E79
0F06C
38DF6
17B03
0F187
17B28
36790
3169A
3847E
0C829
3F24F
3F0E1
15AC1
300B4
2D6B3
0AA99
04E61
31025
16B85
125C4
05FFB
090E0
0975F
13857
3665B
37EA5
3A65B
094AE
299F1
39816
0F1CE
33DC7
0B4A8
0445D
0C45F
2F925
10C21
296DE
0B687
07744
3DBF5
02B9C
01A51
0FDE5
0CF49
1533D
079EA
316E6
34A73
32217
0B832
29661
11352
05409
17A32
3BFE1
36E4F
0A4DF
3D1D0
17832
35F87
005B8
28E08
3F508
07857
0AD90
2D9C4
07BA8
34B99
3CF7E
35901
28E18
2DCB7
004AF
0EF13
39D4E
294AE
07E98
0E3A3
04AAA
2C7F1
06E97
069C1
3A87F
09C88
2E643
2DC24
3EC71
16CFD
07C35
0EA1A
11EEB
03FA8
3992F
05B38
13BDB
0D583
33765
3D069
344A0
30C00
33F9F
2FF55
0CE25
1396E
078FF
0F944
0D125
13DC4
3DE0F
00330
01C8A
2F1C4
03857
0B20C
0C161
16BD6
0BAB3
32792
3D9EE
03690
116B5
0D50B
09388
0F629
3B4D3
37839
08E7B
09248
1041C
3F0F3
00BAD
01101
12A38
082BD
3446E
2D7F6
0751A
3FC72
15ADA
37F18
04DFC
3E0ED
36F7C
0C0A5
331EF
06192
0085B
13C42
0FE39
14B13
3F5CD
32A6D
38A73
0A5B8
0E2E0
32049
2D2B1
16B04
3F178
0A7AB
2BD88
06272
03C01
12046
34EAA
03044
02DB5
011C7
3B253
0AB55
34DBF
3AC28
2CF79
04DA7
3D0F1
2D1A0
04292
11C5E
362B1
05B14
2C628
3F83F
2905F
32A27
0F776
035E4
1757E
29D61
30283
03DE8
2D25A
3DD5C
09A93
0411B
318DB
16130
16140
3CE75
0F86C
0652E
15D48
11F7D
177C0
36403
3EF06
358EA
040BC
0051C
34800
2E18C
293D9
2A8F2
148F6
3FF41
16F3F
3297F
3C2BA
04038
34D01
36F96
11DFC
02E66
1535D
00DAC
0C17C
03A04
04EBC
2B425
09597
06037
04008
2A621
29047
116E5
09EB7
062FD
1297D
38F2A
017F4
3136F
02732
10556
34FD3
34811
2C9E8
14710
3E0BF
02357
3A9C3
0C9AB
3F5C0
3E4E1
0C7DF
3B381
30B0A
0EE24
00FCE
3DBE3
07134
360C8
0CDB4
30A86
12EBF
3F976
3C1A1
3ADA2
2A754
0FD3E
0DDE9
3A1D8
007AE
09109
33B94
05129
34E1E
36427
34959
12131
15E02
2ECB6
2DDB4
2BCA5
3F72C
14EEF
3D1D6
33037
2873E
12CFE
17B4E
0C9A8
2B3C0
144B6
09757
2E514
348E0
3F967
3F459
000CF
044D4
06288
2AB51
17B3D
30CD5
394CF
3FD12
0645F
1674E
04469
14989
36232
019BB
35F85
0D2ED
0A1DC
34ECA
31E25
376A8
08EAD
3BEEA
04DB0
070ED
00F95
3D963
2A243
346A8
0D180
05314
02362
0B25A
01FF9
34867
10406
06067
017C4
16B60
2C35A
33408
13456
172D5
1768D
3EA8B
16669
1303D
2A1DC
3EFA5
38AF5
2E687
38FA9
3A3A0
3C958
17AB4
1143A
3AFF2
36AC3
297D1
34645
3D9F0
0EF6C
02F96
2E265
1688E
1040B
07A98
00293
0583F
35065
040FF
0B00C
0BD45
02C8A
2E136
0DDA6
3F1E0
1254F
369D6
10F10
3E6C7
0D2BE
17183
094BB
08F92
06F05
3C84A
15A6B
3BD81
0B180
0DCBC
0C3EF
3EBB0
10AC5
07252
0497F
35231
1702F
1667A
12F11
10ECA
390B7
0A60E
2EB91
0099A
2A216
083FF
3363E
38BFA
34A9D
3D018
2DE53
14149
3C441
12221
118C1
11DA8
36D92
3AF13
29B2C
0B8AC
0E046
150D1
33450
32154
0DBDC
13AA0
1398F
05F65
012BD
3EADC
169EB
298D8
0B34D
29D59
0866D
32E96
30E5F
38657
10314
2DB0A
32096
3BE99
315BE
0D121
3D989
3E517
363EE
15692
394A7
0C3FD
3BD82
107CF
0FE76
3D671
28E75
0A6A2
3EB7F
31C7B
3F978
11D2D
2D26D
0976C
0C506
333B8
008CF
073D0
2DB4E
10EE9
12B09
02F76
2D615
0BF57
3568B
2DD4A
30220
2E898
335D3
3DD8D
04364
08FD4
005A3
389E5
01347
3FCC6
2CEE5
3040E
14271
316D0
2EF64
2A408
29082
3DF36
3C42A
3F522
28F74
2A2E0
2941D
2CEAB
3CFA6
38EB2
08678
07E89
2A25F
358E3
3BEE9
3D1A2
04A12
15503
147DA
30BE4
3F487
3368A
0352D
38A6E
3FBA2
3CEEA
3A8FC
0EA0E
169DA
099DC
137C0
09F58
17B5B
2FF54
2FE90
0C569
0DA59
3CFAB
3090E
13E5A
39A2F
2965B
1697D
0DD71
344B0
38477
3E7FA
05AC5
2EBD0
35856
08C17
3698D
0434A
35CAC
34958
15D74
0DDFD
3BBE9
08762
06BEF
15130
155F6
04C17
1396B
08DC4
1634D
158FB
3401E
348BD
2A345
29B4A
37EE5
0CAB1
01C39
29122
3F52A
0BD21
38B97
2E9C3
05246
0E28C
2C775
0DCBB
31F30
14854
148D3
2C7E6
3AB86
116E4
14428
03BCE
1684C
28D66
2FD90
0C9E4
126A0
2B2F3
2BBBF
371E8
0CEBC
28592
30FD9
373E3
3D816
2E0A7
3E68A
28B3A
14885
2AAA3
0D05A
3B58E
0B85F
2926D
03037
11D2A
134C8
34A64
314D4
3594D
0E63C
3DBFA
014EC
37F26
30DFB
2C208
0AD97
07ACA
128DF
32658
347CF
39CFC
3AFE2
2EC51
12149
35114
3197A
3EF36
3529A
315EA
1072F
154E4
0F26B
14C5F
3C175
29F9D
2B516
0B933
0E070
39592
09AD3
37DEA
02CF2
12143
03A29
12DE7
30AED
34749
29D45
292BC
3011B
341C0
10BF8
05137
0A012
33333
3C792
17BAA
32A58
29D60
15FE4
10289
2C35D
28FE2
29D73
2EF6F
3A6B9
383C4
2F2FE
1743A
0177B
2B76A
2A9F3
3C7D3
11AAD
02791
3B3D2
0DA21
2D13D
0F08C
02269
28D98
36DD0
15E80
3A87D
029EB
09E89
2FF18
17464
37EF8
0E541
05DC4
2FBA2
101F2
290B3
2B092
15B63
30969
31180
3AFBF
333D9
171FB
3EDE0
3DFE0
0435D
3F182
11589
35900
000F3
0CA13
2CD29
0FC1C
2EE6C
130E9
04AC7
3752C
3093C
2E1F3
3A402
0826C
28888
2D5D4
2B2A8
2B62B
3FB1C
3ADFB
2DDB3
34B63
091E6
16F61
11CA8
2DDFE
2F193
35F8C
2FAE1
02BBE
2A521
37FFB
38005
3E5D3
09BED
3B3D8
3BAD3
35403
3A71F
06375
29CDD
1704E
016B1
304C4
0232C
31CD7
09436
0CB5D
0EE43
2A1A8
37F7F
0D054
2DF81
2EB2F
347DA
38983
3E032
01D6B
3E5A1
33C53
10708
3BF89
0FA71
0AF70
0F0BF
15EF8
17AB4
017C0
2B7DE
38A10
15343
392CE
2F74D
146E7
00BA0
3D5B2
2FFD7
3737A
17360
34AF7
3A066
31B89
3B306
31E31
0A53E
2BEF0
2F9A3
28D79
2BFCD
0F2C1
2A2E4
04061
002B6
016F3
0ABC9
2A72F
1233E
293DD
2A6DC
116BC
3D156
3E440
34C80
154A7
0CB63
39916
2A15E
33DAD
2CD3B
06F2C
344EF
0AFE4
0B80C
059DA
15C1C
0CCCD
3CA3B
38094
2BC01
16B2E
2CCA4
1629C
133E0
08A4B
01F9D
12E63
13747
0D62A
2BBC1
16DD9
12AD0
3E227
32A7A
3D785
12502
3806A
090B3
0944A
2CB59
36D0A
3EF64
2DA7E
3B829
2C458
0D49C
364F8
3A14F
3941F
3381D
36CD0
0DFAB
094E7
031B4
072B3
134C0
33CE9
0CCDA
01FC7
2E37B
16245
3D70D
0E8F6
3FAAE
105F5
28FAC
3F1EC
308BD
29180
334C2
09B36
079E6
0EC86
036B8
13B29
368EB
07402
0A511
10673
30EBE
3073F
0C430
35D66
13F56
0D3FC
3B026
331C8
10CC7
14AF3
35B69
2D9D6
102CD
3A33E
2EE32
04FAD
0A657
0735F
2FF35
0084A
3A854
2BE8B
17173
3F9F3
12606
16B18
0A9F5
2D03F
077FF
2AA02
00B17
2BE12
116F6
06F98
3756B
314D2
15B81
34C34
137A1
0C393
3404F
03EF5
31352
34362
103C2
29F95
0A2CD
09648
29000
0BF6C
0C692
34A58
03659
0CBEC
38277
3983F
0B959
13A68
06D0E
0D842
38897
09440
11820
37B5B
39400
3AE41
37437
04CC8
069FF
177E6
030C6
36E4B
003A3
376F9
060FC
3B03A
2D2A5
378E0
01341
3F84A
2F05B
382B9
171C1
06EAF
0351C
368B1
3A017
014B4
3BEE8
16064
389AC
16D82
38A56
15358
0189A
3176D
3E454
14457
383D1
3DA6F
3C9EA
2F8B8
3451B
1506F
08EA2
07757
024D1
29E85
29197
12F03
0AD12
15E37
0DED0
0BC31
13CE0
2F83D
3F268
0B496
0D944
34FB0
077B5
3625A
0A327
377B9
0CB79
05924
003DB
320D1
0FD07
35FDB
3B789
29D70
098B2
3201D
161DD
30C91
03E61
36F86
3EA63
1412A
303B4
065ED
0FD7F
16388
3814A
2C8CF
35BF3
1030D
15891
15FED
2F7BB
3F8F1
38AB0
057EA
36F9F
09EAC
028FC
12410
179E2
01CAE
15875
3F16B
2D224
3A837
01C46
1770A
08838
309ED
3FB98
29E50
14300
2CE84
14ACA
3E710
08B18
01208
16C7C
366DB
094C9
3E56A
01D26
283D3
001DD
29216
391F8
2E687
0B2E1
30024
28FE6
01B70
0D5DA
04BCF
1057F
2BD66
0C8AC
284F5
3875D
331C7
29DA5
0258A
04D37
165EC
0A547
303C5
307D4
288D0
126DB
13BE0
0FEF7
35593
2CBFB
2FC20
14700
0061C
102F4
334D9
2C579
3BECE
355A6
2B302
2D67D
0348B
28A6E
15696
3B71A
013A3
2AB2D
06185
2C92A
3679A
2AA0D
3BD1A
0CF65
11E14
36FF4
2EC0D
04542
39E0F
0B781
10E92
110D8
3966E
01481
2F3EB
2E82E
152A4
11464
3040E
0A6CB
1499F
32DD0
119B2
345EE
0424E
2BA1A
2AA8C
09966
0313A
322E4
05B9C
031CA
1785D
303D1
3282E
0DB72
3C1E4
2EC58
0A183
3C0F9
04022
1464F
3B142
3FD13
399D0
2AC50
2ACFF
0C876
31918
03628
3F402
3F087
163DB
2D5FA
0A09F
1216D
2E977
39B40
2C644
034E8
11834
3FEF4
2F2D4
2CD6E
2F2FB
03B5A
37E9F
32EB9
044DB
00697
0C137
1304F
3AC42
02FED
034B8
17033
3E0EF
0C7D9
2D33E
2FF0B
0DD64
3BC37
34CC8
0F6F8
3D1EA
123D0
09F66
00D31
047EE
08FF7
054B3
28A47
3D3CD
15C1B
0BB80
395B4
15D7C
044CC
3BA42
0579A
2F710
0F13B
3CF60
37432
35E90
0171E
38393
0F450
3C965
0C9E8
3459B
145B9
1789A
29715
2B649
05A29
101FC
09CCE
2F3A7
29B17
07B48
2A991
3D0BD
000F4
0363A
34426
2ADA0
11116
00860
0897A
3C4F6
2C273
1326D
387D6
03B17
116C0
09993
0AF89
31124
00F96
2EB27
2936D
3A212
1138B
3B831
2A695
3E63D
02A9C
0C8B8
05678
30D2D
0D916
06B97
33F13
06E68
049CC
0B5F8
12BFE
13336
2DC9F
3922C
3F338
01D11
0D934
0CF80
2A55F
0570B
32559
0FFFA
050B7
07F07
05753
00E62
366DE
30BB4
0C32E
13380
17903
3353B
3C27F
01D7D
0D96A
387FF
13106
0726A
15BE6
006CA
0B00F
285D8
02CC1
3D88E
076F1
15A94
0A410
3F20D
2E2E1
2B05B
0771E
2842B
0E93F
3EDFE
32E3D
116E9
3D19C
3DC51
01F11
130D1
2D87C
2F0F8
08502
36A74
28C49
100A6
11D7A
04AA0
11903
0CBBF
34089
32FDB
315D8
29C11
392FB
386B4
3A8AE
342B7
2B642
02D98
3F086
10104
38DE8
1368A
086FB
03851
3E7B9
11044
0F2F7
03218
32215
34D69
02F24
0A270
16E86
32376
12A8D
0F4F6
0EDAE
38486
069E0
2AF78
29C50
2A12F
101F6
2FD5D
10DE5
3E6C1
13D4F
0AE66
06597
342E4
0FD80
1457F
0EB54
3381C
3C9CD
17886
2CB7D
104A5
31CA9
0D35A
2DA95
34B88
169A2
2CCA9
3A25D
3E6F8
3F87F
3D4D7
169C3
0F136
03ABD
0F6D4
3F82B
2A255
11C2B
3A904
32A6F
3EB5D
306AD
1445F
32C50
2F023
39FF8
1200B
2CDD5
0C841
3FF47
08BE6
3155F
0F7BE
096CB
35065
2E3E2
14068
2FF44
085B0
2AC4C
00ADE
3A4AD
2A01F
1602F
39D8D
3DA0A
34037
2B621
16A98
01815
00AA9
02684
0CA4F
0204E
0F3A5
11511
38F40
123CA
35559
2B8D4
2A05F
10F53
05A6A
39F11
352C8
3B395
10757
0CE7B
09CF5
304FF
31D87
0F551
38C43
09470
12668
02627
0B253
03D24
0B1C0
06E5A
09E03
3FF76
3DBAA
30E7A
0F04C
3805F
106BF
14420
030C2
2C67C
0E260
0685C
33723
09800
1418F
06C99
05AAE
2A7FC
3DDF2
0CEB8
31931
0CD69
3D2DD
321BC
01243
09BE2
318AD
293DA
2AD13
12689
3B164
0062C
01785
327D7
36C43
3017B
0B12A
0E508
159AC
0D886
32334
31870
3F17E
0FF10
06825
36DC7
3FE5C
32262
2CB58
3E622
3C867
177AC
0A548
2FE3D
02F28
2BD6B
0E6A8
10F6B
12E2D
32574
37F43
303D1
3DA2C
321FF
2F0BB
03FBA
31CA8
09B5A
08CCE
38DAF
32AB8
3A617
3DEE3
3A0CE
0B546
0ABDE
320D3
2D425
29F51
3731F
31E52
331C9
2D181
16F09
17601
08A93
2E269
0367B
3F577
2F2B3
296BE
3A47E
3A06E
37950
02508
32744
05E77
0A5E2
1492F
3467F
29322
297F1
3178A
35A35
28DEC
0C9D5
35F22
2CF56
348A8
38CEA
06DB1
2ED38
3E34B
30ABF
37C6C
07EB2
0B883
29FD5
13B2C
01D2A
11E44
140DF
2A972
0F266
3EE03
3B6DF
39244
0C7F4
08831
0B366
2998F
3F492
0D96B
088F2
33224
3E4BF
14978
035B4
2D87D
2ECFA
39D55
3673B
2D020
3B20A
0487F
061C6
0BDB4
3A997
083B3
05678
06FED
2EBE3
0DCD3
01A8D
00A22
333B6
10D98
0A8A9
0A9AB
348D7
384E0
03378
07F18
2F280
30FB5
3C6C5
0BD74
384EF
29560
2924A
33972
024FB
2C46C
3BBCE
0C3C7
2FE28
04660
0B164
1442F
31BE0
0421F
2DF84
13994
3AFEF
3794B
3D2BC
0355B
39F15
3612B
2EA7B
3476F
0EB78
33DD0
30968
0603F
049DE
0B71B
38DEB
2DFCD
32B0F
3C082
2AFFD
3518A
1593A
107E7
3EDD6
3616F
3EA3B
03C40
3091C
0E661
113AB
002FC
2FD4E
001F4
1507A
0406A
3EDB5
0F2E7
34BFE
38340
3378E
0A6F8
10A38
3CD28
3B38B
28BB2
0C8C7
0F48D
09350
04B9F
10729
12C8E
37937
3BBFA
34AE2
08ED5
3F999
1188B
29585
32F44
3F261
0F16C
02A1E
0A092
362BB
159AD
3FD3A
3EB55
347C4
12C81
34D72
16136
07ABA
3B99F
079E7
30396
31F86
3C378
09622
1077B
07067
034ED
0DF7F
05E3C
2C66C
399A6
153E5
0E110
2FF97
125A2
06873
0898D
00D7F
129DD
00D17
2B988
07159
37246
3EDFD
111F8
0DFE4
17293
03E17
2EA7D
391C4
32DA2
39F12
016F4
330B8
0A394
3E2C2
00A48
37CE9
35409
0212A
0837D
39D88
02752
12748
068CD
2B4D7
3471C
0A16F
304A5
14926
365E6
2CEAB
3AE4C
2A697
3912A
2BA04
38A6C
2E0B9
39ECA
073E6
3895B
31C2B
3F476
0A2A8
3955C
3157F
2F41E
2E2F6
0598D
00DF1
3F92A
02E38
001D5
0FAE3
2A998
1270F
348E0
0F9A8
11F1A
3C1A1
0D70E
0FDF2
05E0E
2975A
325C2
38FD4
29F47
2BEF4
12E40
3C7AB
288AD
09CDB
048DD
02792
35F1B
14CC6
0F27E
3F608
15460
28E18
2BBC6
03EFF
09B80
16E42
0A132
0EB31
30773
12388
15210
001DE
03494
0C2E4
29FE6
0EB93
16E28
3E533
2F5C0
2BC25
00D24
38634
0F3BB
03073
2EC2B
37F25
35633
2E9DA
306B0
114DC
02D95
3CA00
28677
3AA8D
0BDAE
30609
3C12B
030AA
3664C
3C11F
17C10
3EF6F
2B6E3
15CA4
0BB78
0479E
16F42
328EB
09199
2C03B
3958E
0C8F9
0D56D
2B495
08CA4
04D22
38174
00F9E
288F4
2A8C2
39FB7
2903F
3B589
3DCDE
13AD0
09FEF
00E57
0BDEC
05BF9
0D2E5
05FFD
12DDD
3CE52
13EBB
0FF08
2A4DC
138FD
03955
369A5
3AD8C
3CE28
15A6D
00DAC
0C935
29ABF
0F145
0A1D9
0B2C1
10B1C
0DFBA
36F04
08922
34575
2FA8A
0D9CF
2DE0B
00CD7
0D82D
3505F
10630
3A6FF
3F16E
3FE8B
2ECDF
30A1C
07604
3380D
04654
0A52B
0A31F
331BB
3881D
1717C
05968
033AD
305E4
322D6
3F4A1
3AC09
01E95
00F50
077F1
3ADC6
349A5
12D8B
10F44
3C32E
3F0D7
2F450
0809E
31743
07A66
37614
004BD
28F2B
307CF
1587E
0BEFB
136E1
3758D
38EC8
29636
0A5DA
294B4
159F2
13A22
32377
13985
11515
00C04
36C73
2B893
2E2CF
0BA52
155A9
07948
09B6F
08CFB
035BB
0C78F
3232E
0BBB5
30C12
01F56
3BFD9
00586
0B91A
3494C
01314
3CC14
069DC
0A1A2
341EC
06C15
17B63
06DFA
3C69B
34BA9
0D8C9
2F652
0C4E1
30E86
3E176
2DF4B
177FC
2A15C
3F86F
0E1A6
026DB
2F4E1
11A4F
37927
3E0B1
39A66
0E0F5
047AF
36084
2F3D8
0C2CC
2D868
34D3A
3A072
37414
053B9
38050
13210
014BA
0CC70
2F289
0EE02
39135
0A40B
30EA4
2C922
28CD6
35720
2D4C0
3C9AD
3F872
2FF29
285C1
16C54
360EC
11BFB
15F72
3060F
0C3C3
37795
3D4D6
09BF3
11CC4
33DD0
019FA
3C80A
03759
2B4FB
3295D
06D5C
2DF9F
0FE46
083E5
0E324
2FAD7
30019
16359
13930
1141C
17BF5
13229
30C17
07D29
0A097
3F31A
3AEDD
3D79D
03C18
39A54
02FCE
2C5DA
08B65
3B353
3CC6A
3CA7C
34D86
062E6
13D02
347DA
2B24D
16412
07842
10DB6
3D3F0
15CCE
3DD97
01B6E
1469B
3790F
12DE1
3CDDD
11778
14100
334E9
2E5E2
05393
3BC8E
2E0C3
12452
15E75
05386
39B5D
0A592
0256B
3C08E
3B796
333D2
3B1D2
02BEC
2FBFF
3F557
0CDB4
00451
33A22
28E00
37221
07280
3D05F
349A4
0CDB6
13518
2DDC8
06466
038AE
0395C
33C9E
17B71
2B315
2E5FF
35432
3375D
166EF
13ADF
3DF1B
343D3
14830
035F1
38E9A
0E600
2F3EC
2B170
07351
163CF
16BE5
2E290
348AC
38B72
0B7D0
0995A
3D924
315E7
0054A
36E34
3B55C
2C070
00659
02405
003FE
06D3A
0A357
11BB4
14906
0568C
08E1E
2CCB9
059C3
066CC
366AA
0FB05
03DDC
29E52
3902B
38699
2DBAE
2B3FE
0F1BA
12DC7
2DFE9
2EA48
13D84
009F0
17AB4
07DED
051A2
3D989
12B69
302F4
120CF
021B2
100A8
03C10
33B92
297F6
3E5E1
1782D
06EC7
09A8A
06C6C
3AC00
0F908
3F929
3AAEE
0F64A
12DF2
03AE8
133AD
37F31
16067
15255
3330F
2ED45
13D63
390BE
30EA7
3FC85
3FC18
3E0F9
32578
01D2F
2EE55
021CD
04C1E
04752
36E51
3DE34
320C3
371CB
390D1
13D50
3DBA9
3ED84
2A11D
0C317
3A589
3FC88
3FFBC
29D91
33BC5
00ED4
145AE
3E218
2D70E
169ED
3BF79
016DC
3A314
3A47F
30B26
37DB7
0A300
0FB05
12FE4
03721
2C85A
2B722
2CD40
28770
1708B
37ABC
2D0B1
29218
2A1C9
2E671
3963B
0E0C5
008ED
36F4A
145D0
3BB6D
3EDD8
2EDEB
31768
06415
1070C
0FFA6
28FF0
382A2
284FD
01AA7
078F8
103C6
00516
3D279
0A0DB
37A77
12D6E
35D3D
10C5E
025BF
07579
0EB73
09F01
371D8
3A9C0
06973
0A974
104D3
0D656
33FB5
0CF27
2DB84
05C4B
3B811
3EAE0
0716B
00C88
373ED
3B4F7
07F0A
0613D
3542A
3F140
16755
134D7
3AF6F
0892B
3BFA0
067B4
320A5
3AA03
08A6D
2A731
29D62
28A21
1447D
09B90
2CFA4
3C4E8
38742
0BF73
3D4F7
3A5ED
30D73
2DB6A
300F2
3F225
1035E
0D281
2BF22
3374D
08CCB
00D0D
0F911
106B7
07772
3D71E
0A82F
3C844
2926E
3DD4E
2CD1A
11BB0
083C5
2E340
37C40
39B83
171A1
3DC41
3326F
2D1A7
3CDC0
35264
1254F
362D6
3A41C
38E32
1548D
054C6
2900B
0815E
28E31
38784
02483
003A9
2AF34
29C34
0416B
28AFB
2F5E5
3734F
003FE
3110D
34C33
2D47E
05F3E
3FE52
04828
0D032
39483
0A913
14418
2C684
3C973
2A6E4
081B0
15B18
144BE
14C9A
2CA59
3712F
29107
37043
0911B
00B6F
12541
01313
16929
10359
12B39
28855
36CB4
0B9DF
054C9
0F7EF
090E4
3F6BB
37B35
1143D
0A8DD
3CF60
30547
129AF
0D27A
2914F
04846
3787B
0939C
3301B
0ECAB
3D8AC
322C4
34417
07B48
16CF8
017F9
3711E
03286
39A07
36D0F
0C579
35AF6
087A3
0E5C7
0EBA5
34A89
2D8F8
2ADCF
0A884
0356C
29341
0AA70
3B14C
0FC46
3D341
320EA
2CE70
16FB3
2939B
2FE88
08535
08264
1795E
3DA9C
0A406
0FE1F
0B91C
05F16
01151
375BB
14C89
0D96F
3F646
0ED17
06561
3E12E
1337C
01EC8
302AC
16CB6
2FD16
381EA
32BFA
288CC
0879E
32AC8
0ECFB
10C00
2E488
32622
29DBF
2F8F7
38C5B
044C3
28ADF
2CC32
0A4B1
0AB64
3A6D3
137BE
0D1C7
2FED2
13565
36E07
002C5
0E19A
0AC0E
01E5E
3185F
351D1
096BB
3BBEF
2C8AD
03158
0C8D9
13F4E
098B9
2D6AD
3C27E
00422
0A9A6
2F0D1
039A8
05E43
2925F
2D6D4
042BD
10E60
0F967
1785D
11DE5
00789
30D8A
3D609
3D290
08525
3F880
3123B
34043
0D44B
0278A
3B4E3
15F36
28954
058A1
3A58B
2F448
17986
3D13D
09018
0BDC5
2CD7B
173A0
12CED
3847E
39183
0CDA1
34C5F
00921
10A4C
0E1E0
36F3A
2E549
39A2A
3BDC2
07E04
3D17D
1546B
30FD9
2C747
0AFCA
0DC4D
34E0D
03FBB
014AA
0979D
0CE74
3B104
31FA0
3A4C1
0921C
073E7
29047
0CD02
29909
3D379
33841
3AA00
05A2A
14553
156CB
176D4
3F277
3C283
33578
2C2C6
384C6
14E30
299B8
325B9
34049
37B8C
0538A
2BE49
15FC9
06FE7
07832
0C619
2A91D
0CC19
2D910
367CD
12821
0F71B
14D01
0790D
0117D
09503
0C50E
3DB1E
32554
08816
31069
11EE6
2F73A
03724
147EE
05BB3
389BB
142E3
39095
377EE
04265
10572
3DD38
15430
000E0
04B20
2D676
303DC
0D5DB
2BF1E
2CFE6
0A08B
0F60B
12466
289D3
10887
0D822
0D515
0E9AD
38439
0EFEC
32A24
0AACA
29C4A
338A5
35639
0694C
12CA2
2A051
32AA9
12A33
0E62C
32B6F
093F3
11907
3DC6C
35008
11902
2BE92
0E53F
137D0
159A0
364A0
0EC26
2C08E
2C291
35E2B
30FEE
2BB4C
10FBE
16BF0
11F61
03C5E
01F9C
0DC71
3670C
0A93D
3B411
02799
3898B
1241C
3B968
06BC1
2FB7B
3C019
374CC
05F60
2D44C
17A7E
0F6F2
0FFD8
37A5E
0D5A7
02248
35FBC
3665A
033E8
3771F
061BB
31E4B
07967
01536
06D38
312C1
3929E
2C03D
3B59C
14C4B
00449
12143
286E8
06215
298A0
392C7
350E3
005EC
3C136
05594
35EA5
105C8
15E66
0182A
3354F
3013C
2D98B
33690
2CDEE
35DD4
34FAA
01EF0
2D66E
0EEAC
09D76
0ABF4
12AE5
3C41B
2C9AA
0046D
28C6A
0391C
069A8
2AFB1
02AD1
0F5CB
30010
0373F
3E238
01BF0
08934
0EF6B
2B63E
0798E
00CA6
0BF52
0C120
33602
1100C
39DDA
109A5
29917
32E2F
30559
089CD
117AD
2CB74
34E17
09E0E
12500
0A276
396DE
09EBE
3E43B
2D75F
30DD2
0CA47
2BCDA
2C786
2D131
2DEDE
0225A
10921
35FC8
14CC4
0C6FE
15724
05C9B
13C55
3BF04
12B2F
03D08
14CB0
0476F
04407
07D0E
0D70E
084AB
3184E
1024B
08F39
2C8D4
37E5B
04F05
057B6
02286
06D22
3C4F7
05876
3F2FD
3B508
14FD7
0F3F8
390C8
133F6
3F924
0A699
3EA40
043D1
342C9
09CFC
329BA
0EE29
0DB1A
09176
08B4E
30790
389B6
1295B
13C00
3BB8E
38EA3
01B60
0E468
04153
2FFDA
2B9CA
17418
290DC
331DC
01449
06B07
3A107
3C01B
14271
0D1AB
3095F
11861
10730
30121
3E7ED
04D23
03867
0049E
3CA92
335B7
3CB2B
38F4F
146FE
0EB1A
028AC
382A6
3F6A5
3D542
14A15
2AE03
3064F
360D9
3155C
2E63D
37697
348A8
075AD
3933B
031D2
2EF39
0D294
34FA2
34AC9
32B4F
05FEF
3A1E3
3E3DF
39CBE
3BB22
2EAE1
078E7
00689
3D3C2
08CED
0CEF3
2CBFC
0349B
28F27
3FA1F
0FA4E
0EFCB
2E25F
34864
128BB
2FD6B
34993
12E1B
1475A
0FA2B
056DF
2E60F
03EBD
01EB3
2BB2C
1693A
38242
02CE8
01B2B
035F4
34FDC
3526F
0816F
002D9
2AD49
37621
156BD
00A76
3C9E0
34C01
09B71
383B1
12995
16D16
3EAE6
39DA1
12385
28CB6
0F9B1
2A827
02E32
0C15E
3DED5
2A6AB
0FFB7
12E41
2966F
324F0
3EC73
37B55
34A27
07EDA
3DEE0
29126
35E15
01DE0
07124
11513
3B382
06F35
3F884
135E3
0C5AC
011FC
30423
2ECB3
13492
3A59F
38363
13D28
02AFF
3D967
09FE8
315EA
382AD
09D39
2E328
0D252
2B712
317AE
16DA1
0FB86
0BDC2
2A8CD
046EE
2BC7E
0037F
10403
3FFF0
00AD1
13AF8
0D58B
1733F
0890A
388E9
10776
3FBAF
0C325
3AFBA
3FA69
09D04
1125B
299AD
089AC
3EAA4
3B0E6
11000
2EAD9
37115
14C80
369AD
093BF
041B2
07AD7
36E87
35B68
16393
04CCA
115A7
32039
07767
29A2A
3969F
10F5E
08E5E
16C55
15426
1258B
33173
17BDF
0007E
324D4
04B0E
09F69
04575
01BAF
31B32
13831
3BE73
04978
28F41
3EF65
2A196
08366
16F60
34839
2CA4F
0979D
0B422
31619
13041
0C1A0
34B9F
00027
35F27
3FB98
061E1
3C8E4
3E8E9
09356
152A5
10212
17667
061FC
301C4
10326
14CED
165C4
36F07
32029
1425E
2A610
3CFB2
35F06
374A4
01B12
1084C
317B6
163A4
2F9E7
35408
021ED
3199E
127B4
3A993
153C8
16D0F
0126F
2CE9F
3DCCD
35BF7
31000
3E705
046E8
135F0
3FA1E
08A96
04467
2BE32
0E6F2
2AC5D
3326D
2DBBB
04386
08F90
39BEB
156BD
13054
05525
11ED1
03166
166D2
2AA0D
1779D
11ED0
31AD8
015AD
3D2E5
07A02
0D4E1
2B4CC
3A8B0
09EF3
07630
10D87
3F191
1549A
3FEAA
17686
3499F
0637D
069D4
3B524
2FA6A
35B54
38629
0B634
34A2C
2FB86
0DD56
2FB73
3E9D9
32E50
2B18F
3A99B
11EC9
3EA71
2AE03
0F557
04494
13280
3599A
3A0E4
14314
3AC70
3D42A
0EB0F
173EB
3C4D5
2CC25
139D9
0B5B8
2BDCB
0FED7
395B2
03F02
37F40
091FB
0DCD7
096DA
03BE4
3B748
11B1B
2C14A
0BF2C
3D5A6
396FD
38196
2DF4A
0A9B5
06E19
087EB
0123A
2EDF7
37064
2FFA3
3698A
09365
32E63
28669
170B4
2CE12
17415
35A15
0AFD2
2B5B9
289B4
169F6
30418
07639
01532
07279
0D893
3B420
2D2C5
2A362
0C701
34D45
099DC
124E6
366EF
3AEF0
0F835
07ABD
0AD4A
00DDC
29777
34558
36AE4
2861E
29BD5
07FB9
0BC41
16253
0E246
3398B
12C98
04563
30E58
30399
29B41
38EC3
2AF3A
3DDFE
38EF8
33716
0ECC8
0C14C
2F7EC
3E9F7
3E74C
038C4
2F324
3FD93
11691
07F17
376BE
30392
116F8
0F21D
0D127
3B0F3
2ABF0
305EC
2B084
12070
32B95
00620
3B593
0D840
38710
363A5
3C7BD
16920
3B197
10B8C
0CA66
14E38
0109B
12C9F
2E92B
10B8C
11AE3
32A8A
3EDE1
03122
2CCAC
0574E
295CB
02ECA
37668
3C636
088F5
33E85
3EA9F
14E0D
15E3E
2D3F9
31EAA
30048
3B18B
2E1D3
3DDB5
033A4
327F8
12881
12989
09E31
09CF4
2E674
10BCD
36116
102D1
0F5DB
3341B
08557
09425
08885
0DBD4
07FA4
04E19
31E29
175B7
0958B
0CBC0
351C4
0111F
3496D
3D613
36127
0C66C
3BB59
1649F
36C92
2FB13
288A9
0A960
03568
28D6F
2FFBB
0DFDB
2A938
39A7D
3C2D5
32C0D
14F42
04276
34F40
0157F
3A02E
109CB
34B59
14E22
2BBE5
3DF05
10326
174AC
39760
37BBD
0478D
138C8
0DE41
060AB
3B2D2
0F99F
35181
04191
3A1C1
3F513
394E4
3CC25
15FAF
31D1F
3ADEC
089FA
2C4A6
09072
1740E
09FD8
14DA5
2D91C
37B9B
3BAF7
2EDD7
15048
00DEA
0A5F4
05F3E
2F90B
0E3DA
06831
175A9
2DF16
0719D
10308
3AA25
369EA
3CD9D
15FF7
17732
32324
009C3
00F74
38817
06CB1
29475
3719F
04B5D
3B4C4
383A9
2DCC4
16576
3BD02
02573
074C6
3CFD1
12A9D
17926
0564B
0ED0D
153E8
3ED86
14969
3CF41
0392A
3AF9F
3205B
31A74
349E9
014AA
086AA
34BAC
2E778
303F2
04758
304B1
2C544
161D9
32AC3
2F0BD
329A0
00B82
04A85
043FD
0EC8D
3546B
39262
052E8
39A19
349CC
2B0F6
37707
02CDD
33ABA
3EE80
34A73
30D15
2BD11
0CC5A
31AC8
3697B
15024
02EA7
395F3
3BC60
05EC2
087DB
2BC94
114A5
08ABF
381E5
2E4E6
30D67
04FFC
33AE9
3F973
3C1A1
2F4C4
29692
08776
0866E
2F2D6
2FAD1
15720
37EA3
0FE10
01984
0FFAA
3EE32
3BA16
01F9D
2E16B
01509
2DFB1
36D39
357B4
3B743
17BAA
0D610
04B06
09208
02341
33F1F
016F0
13AD9
01F53
305A0
3A7F0
05FD8
2A769
0277D
1226E
3543B
365B4
0ECB8
2ACF7
1096D
36E1B
0FAB8
38AA4
2D909
32CBA
0EC23
380A7
090CC
1029A
356A6
3CA86
16D8A
13C76
07776
39DBC
308C5
2A712
3F797
28DC9
15395
31356
10B1C
2CCAF
2B1E8
36E70
33A32
3D894
2E71B
051D9
2F9EF
39BEC
3FD25
07E45
3E302
2E98E
36E95
066FC
101A4
2C067
05746
33CA9
173A5
3CA40
3FED8
30D54
2A01D
3672A
2F46A
332D3
094F5
39ADC
06371
29558
167AD
317DD
0CCDC
07849
166A0
08FCB
2B063
1713A
0CC7F
09710
01391
0ABD3
11D28
1779B
09049
3E9BE
3567C
0FEDA
0B84B
28FDF
3945E
136E0
2EFD0
28849
39ECE
179BA
16DA1
2F125
07D87
3E171
37F39
3872C
31800
37467
356BD
16B5F
1640A
32BF3
08523
0268A
012CC
01ADA
33C83
0467A
3C412
3E3E3
2C645
12349
06739
32051
0066C
15320
01264
2A804
0F6AE
30DD3
0733B
10680
3AE2D
151E8
32A5D
12119
2B7DF
3CDA1
339F7
3C158
37950
06F67
0774D
31973
08A18
3BCA3
12E1B
37DE5
0FC0F
1700C
0042C
0F0F6
34B92
2D052
31C2B
053DD
025EF
021D7
33D97
036FE
04A79
1256A
3C597
3F2BF
34AE6
02FAB
316EE
03AE4
09701
1657D
2EA67
05FEA
3F9B3
0AF0C
296BB
0430D
32229
0AE12
0F987
08CDD
04DB8
3135B
089D5
051A4
2F558
2C577
17B22
29424
06344
3CEC4
357F1
3A12B
0B8A7
2E872
0F6DE
0827B
2C591
163BE
13761
3F653
016FE
0C0D9
05DE5
3C005
0A7A2
04662
14E42
022FD
34801
0975F
10D0D
08541
36F36
16C0D
32FFF
03C73
29C41
178FE
0B423
3AA46
2D686
3946D
053F4
11088
3102B
0DCAF
15F03
2C52F
14E81
03A82
13C54
0A833
3D9BD
0AFFB
17A3A
3EEFC
0FD89
0DFA4
2A0A2
05987
0F9B7
3882E
3920D
1131D
2FF77
2B0E2
35187
00663
00EFC
09F93
2E24E
2F347
35799
3A148
0E11D
39A47
10C89
0FA1C
2844D
0AE30
348FD
04FE7
09768
34DB7
3A5F8
30B9E
068F1
01276
06B52
3D0A8
2DF72
14382
38F9B
00CE4
17739
07D4B
3C791
0E61A
3BF40
36EEE
2C7AF
139C4
28F8B
3A848
2B5F3
02235
0B9B2
13AE7
0369F
326DC
0BD61
09D1E
2B76B
307B7
2F7B4
2A6BC
3FBF7
11A21
2958F
3B831
0D805
30E3E
301D1
3D2F4
00F78
0B555
3BCA9
00304
011A8
3435A
3BA26
109DE
064EB
07103
3D82B
09B4B
15CAC
396E4
086B7
088CE
2A601
1112A
3C0CF
0CCD8
0B67D
3788C
05036
2AD81
31E19
02977
32FB8
14832
299FB
30997
2A9A1
028C6
0E0C6
3E695
3C412
0AE4C
01FA0
3E6AA
3AD06
286AF
3DB7B
32FDA
3E54C
39059
3548A
09908
2FA3A
3D25E
0DBCD
119D4
3FC13
0895E
08B9E
2AAFA
28466
07D65
38FCE
383BA
1347C
29769
0E4A9
3A3E0
11C20
2FCFB
3E462
0FD34
2E572
0098B
063DC
30C2A
3B21B
0C320
12358
1516B
05933
054CF
01BFB
08F03
0B193
3EF2C
0E809
3A65B
35D97
07336
0E1A8
0CC66
2A875
02FE9
0B329
0046F
38458
01DE4
0651F
021E2
3EAF5
0F057
31D1B
116BE
315D3
03A77
3B7EC
11F3D
1273F
127D3
3ECDF
12C94
37E59
3076D
29B34
1100A
15571
08088
10F4A
11F51
3B2CE
0E0FB
2D29F
3CF97
1774E
0309F
137DD
04A18
14F8D
036B3
38A34
114C2
0BBCC
0AC0F
0E079
0EE32
0996F
0FC0E
0E652
30839
28894
040B7
2C49A
29D8C
15913
15600
3559E
2BD71
143F4
319FC
04E4C
1263A
3E7D3
30D0A
2C7C9
2FEB1
2FD72
29E3B
33749
0E718
3C0CC
04149
331E1
38E2D
022C8
2B0E4
0F029
057DB
2CB49
29F38
03386
309B1
29D18
2A0C4
03907
2EF93
0780E
39636
0BB3E
2A439
02E01
2CC6F
36212
099E8
08F78
00B50
127E6
14255
2AC05
00958
36F33
14C9F
326A5
042A1
12805
2967A
0BC5E
08C34
3954C
3837E
16CCE
0398C
3B126
3FA01
3F581
15122
018C8
0512F
386F7
2A7E4
2CE79
359C7
1451C
34092
05D00
02D4C
03DA2
00D7C
02767
03F0B
0E8A8
3E2FC
029F0
0D472
371EE
334B9
2AB46
2FA9B
02A66
04017
32AD8
13D14
121AB
114DB
3D151
0C8E7
2E367
336EF
0F0FF
09DCB
3DFE6
3D279
11C89
0BA1D
3DF1F
3A074
30308
0574D
28B80
0347D
05B09
3CFE5
3062D
39C7F
3D443
07CB3
16157
0A791
0CA89
1121F
3FCDD
0016C
3B3EC
14AF1
2AA5F
0DA10
37E14
0CE01
29AE0
1557F
31FD2
2F7B1
38E08
3ED57
0B4F8
0314D
16104
3900D
0B228
08F13
3336C
04B8A
0F39E
33591
352AA
292A7
0E7D9
0289B
04E39
32DAE
2A499
3F2BC
07863
3DE89
0260D
2FE97
11728
39DB6
37BAB
17AC0
11E14
03DA7
2E5BA
07209
0C46C
2D6B6
2E5AB
29389
3099F
2ED08
3D419
01FEB
12C01
34219
0823A
2C2B8
3739F
020FD
39279
01827
3EAF2
152CB
0A186
359D7
33EE8
3FEBA
02C8F
087AF
31FBB
13E74
2CDA6
05995
15DEC
3FF16
2AB75
2FAD4
2BCD7
03003
2F4E1
3B24A
17B4C
3065E
340C8
13368
0B37A
3FE98
3577A
38129
121B9
3F3F9
13943
3A2C3
3500E
03D77
2A14F
16446
3A947
36FAD
06C22
3136E
38174
07A4B
01A69
0CD62
29340
3AAB5
34B34
17105
0CACF
11455
16257
3CED0
119A4
1249E
2BA74
36967
1795D
3EFF1
036AA
2F6B2
3CF74
317D2
2E892
0D508
3E8C9
0F467
0DE65
0016A
0CB00
08AC4
35AC7
2BEDD
38CAA
3067D
2EDC4
06963
3A359
02F90
0A84D
31A37
004BA
315CE
169DE
38BE8
10D67
06E5B
2BFC4
03E79
3915B
00970
32A48
12927
2960C
04135
11684
2C667
36D8A
08D65
3056E
28D31
06A25
0EF64
0F11A
33103
3411D
3C35E
0E0D8
3C765
11F83
0FA83
2D3D9
39697
02F05
3BCE6
36F55
0D98E
31105
0903A
3A76B
31D52
0FE1B
3EABC
0C123
07EF2
30B2D
126FE
09D86
02909
01E68
039C8
1401B
323A0
331C3
34BB5
163DC
2DB4A
172BF
0B734
2FCF7
0E44C
34918
00D14
0D53C
02B97
3A180
2FE06
033B3
3AD54
00407
11892
0BD7A
11BD7
2EF20
3B486
2FC64
16107
2CA4C
0F3C3
08ACD
393DF
04688
09885
3D8A3
365FB
06FED
29C73
31C3A
3D9B6
372B6
3D4A5
0F86B
39138
0EB31
07756
04F04
3933C
33349
11A46
2BD86
050C5
006F1
3EAD4
158D1
04503
3E1FD
01350
315D5
068FD
09129
0E85E
369F5
3D434
001A8
3B736
3F86F
3A6D8
0976E
31F5C
0D1F9
09BB8
2EF2B
2C5AF
35093
35080
09531
33E6B
0D23C
14E7D
0F6CC
0320E
07EF8
073A6
0A0BD
3BF47
2E92F
0A6D1
37250
0C6E3
32CAF
3EF28
0D370
33CE9
36BE6
362D9
16207
28D86
2D65F
106C0
02522
2FEAD
3BB81
3917D
06471
3D3DA
05A79
2CF96
0E1D1
395EA
39EBD
011BC
3B157
03AD9
03388
174C5
28C9F
16EFD
2CEC2
0DDE4
0D162
00AB3
34FEB
05526
35B79
0D5B9
2A785
3D00D
14BA0
3CB9D
3D1CD
019C1
31990
12192
38801
3B62E
10314
38761
0E5E8
3B685
04F49
0F855
0DFAD
398C9
0039A
38D56
2B2BA
0C21F
339FB
0DF58
0B500
0EB55
38F2A
3955D
298DB
0E995
2943E
39017
2ED4F
3A8FB
3202D
16BA6
1195E
0894B
01540
0C4F0
14F2F
29291
3A05E
39BD6
3D3CD
30B95
01599
0E1D9
3BB2B
0ED80
11134
13211
2DD5A
00FA6
3ABFD
0ECC4
2D54C
0AE1B
178C2
2ED7F
2FD20
36424
171AD
38561
2B94D
0D598
2A1CA
03724
106F0
31864
2A0CF
12041
3AA5A
171F7
0E5F7
3E6E7
32889
00B20
01768
3CCB4
3E3E7
29740
0F32D
0BC64
3287C
0635D
0875F
0DA93
0684A
14CB1
34ED0
13514
0887B
2CC2B
17AFA
29C00
071BD
13FB8
2AB99
0088C
2BE39
327FC
2D9E9
11FB1
2DA00
009D3
07519
12167
37E22
351B2
37407
0DD5F
0AAC2
0D73D
2851B
3F02E
02665
33C0C
168EE
39A22
2D639
2EA4D
32047
34B60
0ADA1
0FBE4
05FAE
0D11D
2E5BF
1220A
2BCAF
3F75A
05F6D
02298
0DD8E
32488
36895
120FC
2A52C
1467F
3C837
2CD9C
3EA6E
0F59E
37B8F
04EB0
146CC
06B5E
2876D
0C208
3CF21
0665A
11F4E
0E085
178AB
3E82F
3EC8A
07AD0
3DFDD
2A7FC
3A095
12826
14E1B
37FE9
30092
12798
16539
0AE74
15C7E
08B26
3C6C1
0C356
0E761
1258F
094CE
09373
2B1A9
13F06
0CCAC
3D1A4
3A913
0257B
39294
0F8BB
0B227
0AAD1
0DAC6
39279
3DAC6
14995
126A2
176C1
0D82E
3D693
0391F
0B71E
2D1F4
08486
3BC96
0BA40
37A0E
096E7
31B62
2E959
11834
3203D
11BD0
01938
31A4C
094F5
049B4
31D9F
148D2
0E003
2BFD9
2E35C
3C41A
31ABB
34A8B
388A6
17756
3602D
3D62A
023C8
0136F
04573
0E657
05447
009AF
0E62D
13698
12BE6
3A427
3080D
334E8
08D90
136F2
35294
3DD31
3633B
009CE
06C32
3488D
30A48
327EE
36B30
2B224
11FFB
06469
0CFAE
0953A
003B9
10DCC
13135
3685F
101A0
0F079
29BDA
046CA
2B50D
3DF6E
17A7C
17AD7
3D5A1
343AC
05C34
10672
01A30
17515
0D779
3C4C1
34D34
28B83
3AE23
304CB
0EE20
08DC8
027A3
0F6C0
0C7AE
2A1CE
06F1E
04104
3A8FC
062A6
09AB0
31DCE
118D7
3A397
28AC4
316C6
1028E
2844D
30B05
132AF
38A31
06FFD
17B9C
35F9D
32ECA
0F9A1
07E80
2FB33
2CFF8
3E89F
00F06
16512
06C3D
1458A
0645F
02BBC
0FFB2
3D8FB
13336
13BD2
09EA2
346B1
2DF23
0085E
397EC
3264F
2AB25
1010E
0C77B
32E6B
35D44
2A14D
2E90A
30622
0F77A
0E121
167A2
2B43B
0180F
08301
33695
29D36
34BA9
2EF7C
3EEF5
10068
1687F
15881
0BEE5
0074A
3FFA4
2E4C8
3F533
03A51
17473
299DE
117BE
3FDD3
11F50
03478
3EE17
3279E
0B069
0E485
0445F
10066
0C0C3
33747
31C97
3C9CF
11532
289F2
3A227
0F211
0A8B2
35B12
127BC
055AC
37139
2D1D8
37733
03CCF
3A8F4
3DC96
05D6C
3EE95
02DB7
388A3
0BF31
2AFF3
2D4C7
28CB1
2C3D1
072E5
289AF
3817A
36A4E
3C3CA
141B5
08640
0A6F8
2EFE6
31640
389C0
295AC
28754
0B2AF
01208
0B243
3B42C
2BE15
063E3
116F1
3FB4E
070F3
0037E
3A22E
00C06
3E27F
3EC6A
11521
2EDDB
0CD4E
02DA5
009E1
0462B
07D7D
0F5DA
09B86
2B4AF
35434
04B53
38254
15D86
0307B
163EF
2C3FC
3BF64
2F081
09449
37ACF
02FE8
0BC7A
15E99
2B6C7
380C9
04BAD
0E7AB
13692
30EA0
34B78
0A11D
2F0E4
09E9E
3A10A
3C8FE
2A5E4
16575
3649B
167F0
0AEAA
2D904
308E9
36E98
35FC6
0F09B
12F04
05FAB
000B8
0A410
17608
3F819
2E903
16F6B
0EC1D
06080
030D0
36B85
07748
327CD
0A547
2A229
3697A
0CD4F
10401
2D1D0
052D8
16F8D
2A47E
324B6
02C1C
35F47
299D5
03AA2
3607A
15B3F
376C8
0788B
2E7D5
10DFE
288BA
3801E
049DE
14DEF
2BD5A
286F0
04C96
3D54B
2E0F1
302F5
3B1FE
0BCA4
336FC
3A57E
015E6
2DD00
2DEAB
3A79D
37ADF
11756
32C60
36E4B
10543
3A550
3545E
12435
3537F
3C64A
329AC
0E321
3BD32
1795F
2C03C
06AED
38DCB
00368
3CF30
008E8
03411
17228
32188
313BC
35BFF
310CA
034A0
2D4A4
2F8AE
031A5
2A28A
2FFF7
01FD3
31FC2
3D5A4
0FACE
044C2
087D9
3F930
01F0D
29E2A
17BAF
0BAB2
34C6A
37670
2E3C4
33596
304C0
06F7A
02971
1363B
36C74
0853D
318DB
3E447
3C60F
326D3
2F87D
2D6DC
3C9CC
046E7
29ABB
305E8
09218
14C0F
0283C
0B2C8
15AD4
13B81
36AED
009C2
01CDC
15959
28A24
3C74D
3C3FD
15040
0BC59
2ACB2
0862B
32271
0A726
34B02
2C43C
39741
05C7C
31C4A
290B4
11F87
03C95
3055C
2CAAC
0C4C7
0BD85
134F3
30D82
2E4AB
04E8B
3D9C9
06777
3A8E3
30C80
2EFDC
2E8D1
2F565
2F908
06347
3D697
0739D
1709A
37ED0
12DEB
2ACCA
2A6C6
00132
0B0B1
38034
09397
0B7D6
39B55
09208
2B86A
0E15F
0F892
10FDE
1074C
0572D
35CB0
2AE8D
2CC4D
3F600
052ED
32C02
298CE
09036
0BA12
3A4B5
3CC23
09D44
174BB
124A0
32FA8
11009
177F5
15253
39D1B
3BC7C
3D77B
37AFE
2D56B
08186
08A0C
0D9A7
01719
0FE1D
0D227
37B4E
0A8BB
2C124
0BF79
3C220
01EDB
3D1DE
306AA
2E136
0A724
2B662
2D318
2D213
345D0
2F304
029CC
17007
0B2F2
2ABF5
2AD15
37E04
16FD5
28C96
043C0
1713B
0BD7C
13E8C
364B4
3E219
30BEB
2C139
3386C
12510
348A1
0BD00
106B6
38519
2E991
0C822
1741D
05BA6
356C2
3475F
05C7C
10824
2BD9E
094C7
2ED70
378D8
330F6
2AC0C
3AAD2
3A47A
0183D
01765
07FD1
0D64A
07181
2C934
00AF9
39373
088E7
0F250
3347F
163DE
08750
3F196
0E363
068B3
10C77
0D62C
1777E
08807
34EA0
2876E
1744D
3727B
2F03F
0C54E
34DE8
36826
01F08
0BA28
30EDE
10A28
0332B
11F91
09E81
3D7ED
0D9BA
3F84A
355A2
13607
1611A
30053
0738B
3FC53
339C7
38EE4
04F27
13804
0A6D4
0ABDA
29BF1
079CC
36DF2
2B497
2D211
02CF7
0D6AB
02285
3C3B6
0DEB7
073A9
12E73
17A4D
09646
0797F
044E6
12B9F
09074
0F14E
047D8
16C1C
00BDA
2CCC3
3FE3D
085D9
343DB
28FE3
0CF05
3684A
05137
09927
0DC7D
07BE2
0E38E
32BCF
2D38D
0DA36
2BA50
0E128
2D172
11F47
110AC
1330D
31630
37ADA
08D53
38185
2E946
3269D
327BF
28F06
3905C
3DE97
13A9B
0D22F
114C5
133D7
124E2
0FFF0
3929A
2DC6E
10031
16E3F
30364
38223
0873E
174C4
2930B
011F8
15393
0793C
01172
3AACE
06412
2D313
16104
0330E
1682C
11225
2D08D
121C9
0894B
0A1B0
30B3C
16550
0E214
3AB21
01CF2
0A444
3E3C4
15C06
0E4AA
13F58
1111A
138EB
38344
3BCE2
37FCB
1376F
3D8B6
2B6F0
11375
12E53
38C8A
128E4
2EE98
30ECD
173DD
008D7
3C05D
2ACF8
38A83
087D0
08D01
0739B
02652
30424
2BA2A
3CAD9
0DAD6
3A4F6
3648B
30C9B
2A577
2C745
3EC5F
115A1
163F0
023F7
14179
16C70
055DF
17AA5
17143
33E72
0D245
28D12
02786
0A7B8
09415
2EE09
1645D
3862E
126FE
289A5
0BF7C
3B230
092E7
2A6C3
176B5
3EE14
293A9
05355
0FF2F
2A64E
37BB8
03346
10ECF
104B3
00998
3BDB4
39E28
35004
03EC9
06FA5
31DFA
0251F
02C7C
05FDB
13300
32F52
39EBD
0C7BA
35101
11B39
343D3
29877
0AAB9
05166
3F2FD
067EE
0E3C4
06B75
28705
169DC
0BDC5
037D8
134E8
3043D
3D649
105ED
10850
34A0A
105E6
32D70
394E8
04B1F
35D6E
0C628
36BA9
3518A
3BF9B
033C1
045F6
16D79
11058
35EF5
006A7
36DFE
14319
0ADB5
15E7E
05410
0D4AF
03EB8
1392C
1616C
37EC8
006E8
37C0F
0ADFD
00B26
2DFF1
1773F
35C88
336CD
00804
0F9B0
3D774
0E29E
127D7
0C6B2
3CD78
0C5F8
102F8
30631
093DD
38A58
29ECA
2A714
135B2
324EA
343D9
0ECE1
1649B
033E0
0601E
00835
0A5FC
372D1
09456
32CA5
10764
37206
1366D
0AA66
31A82
13F8F
06628
0F987
0D8AC
168D3
3F5E8
2D919
0CFC1
07CCD
0A86A
3BCC9
0A5E8
3F409
0A19E
2981F
3D2F6
0C5F0
0B847
3A124
3A245
2CCB1
08ACD
3CD34
15334
38B92
3E1EE
294B0
0F9A5
29679
2E79C
2A3B7
0E32B
0779B
0D908
2C16F
34938
024D6
0B9DA
16856
2B83F
056E8
0E24C
2CDB4
0876D
01CAD
36636
07857
322F6
141E2
15EAF
3A231
047CC
28F1A
09DDB
0D480
39239
0D716
13F23
3E336
11B83
30FE8
2A59F
2A5C7
13D82
3E103
32492
2B162
382D8
1704F
04256
0A94A
2CF55
0B9D5
29D1E
0878D
3088A
3624F
28E76
10FAB
3C5F5
3F0EF
14182
0FDB6
006CC
382F1
2841C
08191
043CD
35CC7
166AD
07238
3B4B9
3CC50
03D0F
0428F
29AC9
3EFA9
31D02
2A14D
0B747
2B15C
098A1
2AABD
38C1A
15A13
042D8
2C74A
0ABFB
16D4F
31E62
2849D
3DF0C
39C72
39EAE
01CF6
0E5B7
2D292
13D84
0EC87
0074B
3F97E
12973
0A87D
0EFCD
37181
04C67
15C1F
2B501
31D5C
0A1A2
2FB59
3A759
0B054
0ADF5
36525
1199F
2EDD9
1291C
35256
00B4D
2C3C4
0CB98
0EA1D
30865
14DFC
0FD3D
0EAE4
33977
28630
15424
36D82
14FE1
38BFF
174F8
15428
0CC58
2DB1F
0285F
1553A
00C8B
106E9
3D8AD
16812
313E0
06365
29CCA
121ED
345C8
3A8A2
3C03B
060B1
0DAB1
3843A
025A0
2A14B
16AC5
06D09
15E6C
030EC
0356B
12CDD
2BD03
0B568
3752D
3840A
2C9DC
36390
00188
0B9B5
36BA2
01BEE
0045B
3D952
2FDB4
2A9D6
39A30
335DC
11DF9
07966
3A623
10EA5
3B8F4
13AAA
39265
0FD80
2DFDE
2D103
019FE
109E1
1005B
0F606
10610
2F670
0F2E8
04E57
0A2C7
03DF1
07932
31B3B
3B375
3AE21
141E5
35494
3564C
115E2
348FB
0D0C4
31B38
2842A
2EDA8
11F7D
0A192
3696B
125FA
01233
2E7A8
30A72
37C31
2B931
13F32
113C7
38361
11929
3D798
11BFC
34BA6
2C38B
3903C
077BB
2DA7B
30840
3B28B
39649
307F8
2D2C5
1321B
0F14C
3327E
09E34
2A808
144E9
2E08D
2E7F8
3868A
16851
2E9F4
145DB
15BFD
32CAA
3A3D8
08048
12A86
0E12C
0D697
0528B
0662A
0CA91
3B171
024FF
34990
2A169
162DF
07532
0AA5A
04519
31D4A
2CDC0
3B7F4
04D0E
2E9E4
3EF4F
1602D
176DF
08AA7
2868D
04A78
33F5D
3736A
05391
122AE
047A3
0A4EC
3C34D
3D5C2
38BA8
3D106
15667
173D9
39C01
36A57
0EBB5
04661
2C5AF
39949
2E9D8
15B2A
09294
3ED68
0E57C
2A0BF
10CE1
06C29
15A37
03B92
336DD
09AAE
3FC1C
09A9E
07A89
00C98
367E0
3331F
110BB
3BE1C
3521F
3A2B7
0DC38
30799
0E1AC
2D161
12352
01CD0
1537B
3C5BC
158A4
3921C
0636F
2A887
37E4F
153F5
38997
11280
0F518
0CF23
2CE5D
115B7
3A4FC
12F10
32F66
351EB
01C0A
3F858
29E4B
2E243
0B2FE
062B6
39F34
0BED2
11B4F
32AD2
3A2F9
33EA9
00BCA
29400
0C2DB
370C2
327A3
39AEE
1338A
08251
31FDB
35C77
00B9B
32672
28BD7
0AFEC
100CC
2A4F0
2A26C
2CF15
32A77
39A96
025F6
29104
315A9
3DD26
3FBB8
3172B
299BA
3F654
34221
030AF
3240D
32882
38FD4
08FB5
295F1
3F4B1
16A2B
36492
050F5
3801E
0C7AD
39D21
30C03
172D5
3411A
3C95E
34F22
0A9B7
04912
2B1DA
3079A
3CED8
3CD1B
3CF08
11182
094C3
3EFC0
2CFFB
3D9E3
3DE6B
2D0D2
0810B
0A29C
3380F
146C7
3EBB6
11DD8
027ED
2DA8E
3ACEE
01C06
14DC3
04DC7
3AD01
07B2B
00B85
024F9
0B584
08D76
28509
2DAFA
11E13
366E2
37491
2D254
3F9B1
387D3
3BE73
355B0
013E9
175BE
040A1
0F9AF
3B680
1240B
137D5
07178
29355
2C6F8
0D9EA
0E1F5
28665
398BB
28AD4
3333D
07A10
3DDFA
0C530
3E7EE
07DC9
28F5B
3E16E
36711
0082C
3F115
0052A
35289
2F25B
37958
2D78C
3C55A
13B10
3BAEB
384F0
2AE8F
289A5
080E4
3F555
013FE
35ADC
1094F
2EE52
3F646
04F28
05C9B
28EDB
12ED9
36E6A
38BD0
0374A
076AE
3CACC
2DA18
15E81
0430A
0B425
060C9
2DCE0
32F47
3A4B9
36BBE
32CBC
2BA6C
3E044
00DED
330C0
2A1FA
0C947
2B90E
311CC
325BD
14029
07F20
053FC
12AA8
3E7F8
39F9B
31C4B
2BBA9
16734
14724
144EE
3FAF9
3B251
0A82A
0C240
3C18E
30600
09BC8
15D61
2E250
2AE9E
3B959
01FF9
17650
15507
3E6DC
092C6
39544
01635
28F7A
04E4B
09888
319EC
368D1
14E5A
3B9E3
04288
012BD
38F3E
16CA9
2CAE2
15AC7
2F7BA
021A0
31FAC
0CF3F
31C8D
39863
022CA
0203D
3E41F
039D3
092D5
12675
3CFD8
3EAF4
3B5D2
02B14
2AE97
16D2F
316F2
14875
007C6
07AD0
2BBBE
01B49
06EEE
399B3
2BCF0
31CC7
318BB
34B2F
0A305
3CB5D
12172
3BB08
3E9FE
288A8
33209
28F63
2A536
03AF1
17B05
06A04
0A204
3E17A
061D2
065AD
33E49
3DBD1
298E0
369D3
14E6E
3F03D
08E16
3B7BF
0455B
33F15
12BF6
2D9B6
314CE
348E3
3D212
289C9
34B2C
3E05D
12E2D
128BE
0FD16
10B64
3E808
04A7E
02F5E
3C993
03B54
14DD2
2E42E
0A2AF
0437B
2F112
03ED7
13175
31C6D
04836
12169
286BC
106BB
14AEF
301C1
2F89F
34C27
08803
0AFF8
078DE
321A7
00793
35E02
2AF36
17192
299E1
33205
3F332
2A447
070DA
09052
33341
2BE09
2BBE2
3C368
0E20C
01414
3B5C7
0DA87
32134
05B20
2F52A
29091
00645
0F0E0
12AC8
0E540
29A53
3CD7F
35801
0145C
0A0C9
2EEC4
2C03D
35924
026B5
13639
3CAE3
34C22
38588
09F83
0AED0
3D344
00AF0
3926F
3F155
32446
3AD5B
3F5E9
2C0B7
036A7
287E8
3FA9C
0B565
3AFFD
2A5DD
3E6D1
3C05D
0A5FF
07B75
34517
0EB24
2BB3B
0B159
10096
00864
17410
31CD4
0AF01
3DC7C
073EC
0C866
03A17
05FC5
043F8
36F4A
0B09F
0BE3C
3B756
13004
3A552
0A124
367FF
3A6FE
33659
02F03
0D058
030F8
04535
2959A
07C65
3B0BB
1483D
3323B
3E0A6
2EFB2
3725C
3641E
15A66
0B502
2E857
15CD2
09EA5
2FAE8
38127
03DBD
06551
28AD0
378D0
2FCA3
15911
0ED1D
3C8EC
31754
1088A
3BC0B
16E1D
38CAE
3758A
02604
2D524
35018
0F70A
14DD6
019AA
1246A
007C3
16245
0CE0A
0A6E3
31517
05505
096A4
105E6
3389D
305AE
36BFF
14ADD
03D4B
3BF5B
327E9
3AC79
05389
0F8EC
32BB4
02D13
31C3E
39541
319B3
14830
03A02
01CD1
2BAB6
38AE6
2F76E
17B6C
36E86
351EA
1348F
39A9C
0A6F6
05122
0A6D7
0E52B
10EC5
2C7BF
2F67A
03A80
336B2
3F065
3E758
3A28D
2A845
3A740
3F5F9
02FF9
125AE
2D0B3
31C57
06F44
29CB4
3058B
020ED
0688D
034C4
08ABB
2F795
02BB7
2CD8D
357DD
3485E
135D5
30379
03173
2C108
0D129
35710
02036
10D89
1059C
13F16
399E7
147D6
0C2C0
2DDF0
1760E
147F1
0BFDF
2AAC5
08F5F
12C7E
0F419
3FD79
10EFD
09B1A
0EB9F
38B17
38E06
2E173
1625F
38573
2E13F
11470
3D949
34666
0E87A
08D6C
2BAAB
0EBFC
2D20C
16676
012B6
3D2C2
3C3FE
2D0B3
2D3CF
13A0D
055D9
02A04
11F55
2BEE8
3EE86
044B7
3BDEF
1605F
02102
0B4B1
31843
3D8DB
02C34
0C34D
04497
29AD6
38C01
3AE00
2E870
3C0D3
02E5C
383EE
357D4
0D8A0
33C92
3A053
3E7FE
3B851
03703
32C55
3E8EF
030B8
06C02
2B497
39828
2D595
024DD
35445
089DA
326A8
2FF17
36D70
034A6
35B42
05480
3B513
081C3
0CAED
2E897
31564
0A3FC
09BFB
04E8D
047EE
02874
11C98
1136C
179FF
3BA6E
2B65C
0282F
06103
06CF6
29AF1
14DC9
3DB10
0F731
315C9
111AE
2FD9C
16DAE
0B29A
3E4DF
35E3F
2F64A
04102
3B7BB
09804
39E6B
1045B
08803
2DD6E
36E51
03A9E
12AFA
11639
306DE
366F3
2DFE4
3CE3F
1664C
2C360
0398A
0BBEC
3A595
29C0B
03345
0036A
094CD
38CEF
332D9
318FF
3CFB0
0DD5A
13D0B
0DE62
13C93
1545A
0B272
32095
2D089
2E72A
287BE
01E77
2A363
15D05
3279A
0B647
3477D
073C0
00EEA
3B15E
08DC0
05D89
0DAF1
1641D
3BAE3
387A3
078D3
29B27
00881
1180E
10105
3A4D5
09726
023C7
32FD1
0616C
00F63
3F233
003BC
02190
2A07B
2C963
34F91
0097C
176ED
0174B
39303
2FF0A
16968
36D29
0A0AB
3D0A0
0A8A0
31731
16AFB
03554
01117
02271
2BDAB
2FFB0
2C238
2FB30
135DA
12B34
0F56B
01B5A
02C78
2AA17
3FD05
2B3F8
3D421
39C6C
33D6D
34054
12CDD
0DC0B
0644E
3D38C
09DD0
36271
090CF
3CF3A
34010
39B6D
01168
37414
29964
0ABA4
1780C
0A3EF
0FDBD
2FAB6
367A4
00114
2E330
3A602
04702
11B08
385EE
04641
3F665
2AA4C
01425
2862D
36DFA
12B63
347A6
3BF85
3A47B
117E5
29998
12D8B
00E33
31723
3CAEB
3ADCD
0E93A
2F62C
2F7FE
3DEE6
36BED
0DBDE
32AC3
38E20
3ECFA
3801B
0AA9A
3E711
2F87C
33402
2C099
0B4A4
32368
12E87
148B4
15383
3BC01
00007
05657
2A03F
0DD9B
2EE68
0B5B3
0B979
3CD83
15DB1
03245
3ABB1
12296
31F2A
04949
0E9A6
3C111
2A8B4
3A86A
3EF6C
142A8
2E46C
0D35C
16377
0590C
06EB8
05997
174CB
3E66C
3EA6A
1393C
0AC0F
34B92
13462
300CD
0FA3F
0DF61
05D90
2D42F
05C0E
3E5D3
15160
0A3BE
3185A
050E7
10B65
0E514
2A485
2BEF5
2C6D8
352F4
0249E
3DE59
16105
0AAC8
00C96
3AA61
110F5
39F67
2C87A
3805F
16E7E
09F70
09BC9
14AB4
39FE7
35BC1
36667
05858
2AC1F
04A36
3FE63
2A44F
30853
128C2
129BB
3457C
2AE65
11761
3B56B
05746
3CC59
2AF78
13E84
106AC
2F23B
09E36
159B9
33E93
0274F
03E06
08B64
0A5FF
11185
336FB
30DDF
0BB6E
0471C
03E49
2C9BA
3AAAC
13EB9
1695F
01B55
35CB9
32FD5
0A0C8
03B05
0E3F4
3BBCF
2A850
11A40
10030
3A2DF
356A2
15557
341C1
00792
15EA6
03938
283B9
09E4D
0133D
054B6
29C11
31BCC
39B57
16B91
01E6A
2EA8D
1008C
31ABE
2E0D4
02DEC
03AD6
2C435
17C18
0A572
299E6
39171
06053
2DCB1
329DE
2C7AF
09E87
2F75A
3ED99
0153A
09928
027FD
069CA
31A28
305E1
178FC
313AC
298DE
350FB
14EEA
31FC6
172E7
31641
052FF
3EE91
2F973
0A73C
2EEB5
35E96
2DC0A
138DF
06E62
2CD9F
3EB08
10A1B
0AAEC
3B5FD
0E1C3
3B2F7
2A295
31C22
131FF
39863
02A1B
10FF0
0937C
0AA96
0B6CE
3AEAE
01D20
3B43F
05C08
37F2D
06B94
10749
13953
13D74
026D0
0D97F
2F6B4
149D2
0567F
0D72A
29802
2F94D
02BC1
2B3F5
2E32E
323F0
0D377
3C917
148DF
31A6F
3E70F
29695
14F46
0AEA5
0EA78
0F9C9
0C90F
3AE05
143E3
35E40
085B6
308EF
07873
3A9E9
3902E
06D33
0DA77
1357D
0C9A0
03D9D
0DE56
342DF
01DC6
02D09
0AA91
15826
2AD72
01135
322CD
01F70
09315
375F5
0D763
14F1C
396B1
10388
04D53
06447
0FD75
00DEB
2B8FF
2B6F8
39F35
01FFA
0671D
339CC
0142A
3CDE4
3AE33
346F2
0FD61
2A522
33979
3C3D1
39A1F
35D3E
0B754
07336
0766D
2E834
07958
33D3F
01C58
0B044
0AD1D
28C36
325B2
05FD0
10398
0512B
133C7
052AA
3FBB5
32281
2993C
287A9
35909
03305
2BC61
0807D
2E6EC
1288A
00430
0924A
3C9BA
01C0A
2EA7A
32AF8
0953A
2F247
162C0
0E27B
369A2
0F5E8
13A81
3FDE6
3507F
0BA27
3C19C
0E495
32694
37AB6
3708A
2EE87
17184
0FE26
3C7B6
29FAA
35429
0D011
043BB
3DD63
0FF09
2EF49
08E4E
097A4
09A8A
2875D
14F21
0F66F
0E3D2
3C6DD
0A2C0
0782E
12DFD
3D09D
3A824
3C1B2
2B803
08D7B
00A19
0F193
355DE
048D5
3187B
0BA80
32CA7
38264
00E0A
0DF47
39995
0834A
33DAF
02346
00131
08DAE
0734F
3D59F
0E0D1
0A552
0D517
057CB
17441
38A1F
35CD0
15598
12375
3CE94
35F94
064A1
341AA
0EAC1
0CB8E
06C94
3086C
31836
366D9
02233
02948
39813
1302D
0A2C6
37141
1521C
2C4A4
10DB2
321E9
0245E
3B0AD
0BBA8
038C6
03D6E
14355
0B1FA
0D58F
070A8
0583C
3BFD2
17729
0BE10
2922B
0FCCD
3A7D1
34630
07A23
3E06A
2F038
09BF2
1494C
39742
17A5A
14867
11C9D
13656
350E4
31EBD
3F2F7
31C43
2AE7F
081E1
0584E
17A3F
2E8F5
12DA7
028D5
13EB6
050AD
29241
17C4D
35EC5
07797
3034A
15D27
1593E
061E4
07A61
38120
13864
10F44
05D9B
14F9C
2D13C
023E2
05477
0B633
2F4F3
0FEE1
31183
034B6
14258
02CC3
2C219
0B7ED
0A2F0
10B8C
0D762
02DCD
07454
3017E
34110
296C7
31E58
11009
3CB48
08B54
0FCF9
1730F
174FC
3272A
35DE1
09905
2DF83
06C9D
0E0D9
04567
2ACF7
051D6
3F83A
01206
09346
14EE2
0984D
2E01A
31FFB
3C208
33484
2EB8D
2BF45
0AEEE
2A506
07ED5
14FB7
129F9
2C61F
0200D
3ABF2
13651
07260
3E5B8
11813
0F588
3783A
2935E
39863
2E4D8
0CF91
10E37
32EF5
0D42D
01160
0A96D
38A0A
1582B
11587
05EA3
0C446
0569E
2ECB3
35485
04278
10480
07D13
16AD9
32235
041DB
0BCB4
019BB
14914
14183
2EE51
11C03
0E0A8
00057
0FA73
0C6E9
33233
05A83
0D6B6
0A007
29353
3304A
380D5
0B6C8
0F817
32962
101A5
2F8F6
2A62B
31623
10B4D
3969A
15E5D
15B24
0C85E
059E9
15558
14663
3A59F
3AB9A
033B1
08CC0
3F749
322D9
0F1B3
29488
29EF1
0EF2A
17889
3ED9F
2E57F
16EB7
0E84B
0BC49
0BA61
317DB
3BC13
2A9B5
14976
166EB
3D3A0
02832
37348
2DF66
0810B
14E81
390D4
13794
15909
0E07D
1607F
3DDD0
00718
0BF46
300E1
2EDDC
00374
08DC9
0DEFC
35DD0
3F2E5
2910C
09E4B
3D14C
0CDF8
0D207
2F3C8
08A2A
2992B
13346
295DB
08AF0
2AEC2
01F7C
071EA
3AC8D
17515
2BE3D
059CA
3D33A
35485
0EE52
290D7
37F2E
03C68
2C358
300A5
3B4D4
008C0
0E175
32C05
03D53
08B20
36B36
28611
3FB0B
373E3
0AC98
39AAB
284EB
1429A
3789E
295D8
3CCC7
39DC6
2BA2A
3FD47
0694B
097A6
349B1
09E82
08283
156CB
16D7D
05779
305AA
03A4A
33E1E
2EA33
1738B
16F81
3DA87
0F654
06E65
2AFBB
2CEAA
0BF78
164EF
05716
149DA
04EFC
117E7
3F373
285D9
3C0E6
3B6E3
0A98D
38846
315F0
3429C
0F36C
3A212
1213E
0111A
2B846
11BD4
3C1C1
3664A
3A264
0CA1A
0942D
3758E
13E89
2B4AA
3F13B
37EAB
13ECC
0BC74
306FC
0E629
039EC
28E88
09E3F
04CF7
0AD39
347C9
3B0D7
3860D
11878
140A9
36CFC
355B1
3A996
04589
38649
2DB90
0CD76
3808E
3EAAF
2F2B9
01400
0EFAE
2D858
03F2B
086B7
3F35B
14F0E
3558F
340D6
37BB0
3A711
2BC91
0D3E8
36F6C
0B4CF
023FF
38083
16058
2E114
2942B
3DA98
146A2
371AB
3570F
33FE4
09B47
3A2D6
01C46
3BFC1
3AB05
04FA2
3176F
2B7A7
28700
0CB6D
3013C
38255
0D70A
2A762
14E19
3CBCA
28983
0582B
3F475
3C440
02B26
042B9
0B531
32A31
337BD
29A45
0A26C
0A857
0672A
29EFD
2C507
01246
0D9D2
1272F
2CBE6
00909
33EAA
3FBFF
10156
105D9
2EB77
057EC
0E38F
33B05
08214
2D691
15829
16B06
0D9F6
3A791
2B7E9
3DF92
3221B
09654
36B5E
3A2F3
05599
0FAC0
08006
0BCFF
3FF26
3E61F
2B414
3E53D
377BA
30508
04C2D
383DA
0FFC2
1534E
28D9A
3700C
32391
13889
0F10C
3FC44
0AA87
01184
367CB
33F76
08E0F
2A709
07627
12C14
35FFE
01851
36899
351B6
16895
1111B
34CCD
0905E
3B370
3A297
0FA5E
0356D
3ED31
14A26
1445A
0B0CD
35CBA
1243E
380AD
1405B
37E77
06278
11F36
12724
0A10F
28604
0E017
0F7C5
06C9A
34480
0BD20
0DF7D
0136E
14229
06851
36DCA
02E73
0FA90
11C5E
0CCF3
14B44
151B1
29C2D
13BDA
07B2D
0D534
0158C
11DB3
16C4F
2AF86
126C4
085AE
3B56E
3DCC9
3910C
028C2
031B3
398D0
084E2
05AA2
08B13
3D9A3
0C4D4
0ECF8
3FA8D
0F2E6
13B3D
385B0
15AC9
39EE6
0EE10
07250
165A3
29265
35561
17753
2B12F
06257
15081
3E57D
3AB96
32AD7
13AAE
0D0ED
07376
3D80D
29322
3FA61
00487
3149B
2B635
2A274
2B5E9
0918C
2CAC4
3E1B2
0E0FB
2899D
0FDE9
170CD
2865F
04C8B
03D96
0C842
30441
2B432
0C39E
09806
3BEE3
062C0
170C0
392D6
37FEB
2C816
02962
2FEB0
14EE1
330AD
35136
38838
13C5A
09437
2911B
317E3
156BB
02B44
1422B
14DA6
2B712
2EED4
285F5
15D96
147D0
0F16C
0F9C6
033FE
05888
3BB75
28D86
3E45D
2EE66
2FF13
3DDE4
02A11
16247
148AE
2D552
11812
3BEF6
360C9
384DB
1181F
031D4
05F15
2A1DE
2F11F
057F0
16F47
2BB4D
0D41C
0794D
29AAF
36FB6
17635
2A24E
05AE9
12752
04E97
15A99
3B95D
093CE
2D71F
307CD
13AD4
35B01
37A04
17BA2
297D8
04A9A
11FE2
165DD
36777
369D1
10F2C
29824
0F5C6
13E01
0FEF0
2DF4D
12E55
33162
156D4
2A055
0D88B
041AD
32C57
3C453
310D6
39A66
160AA
3D849
3AC62
38A00
0381B
39DA0
01AA8
0307E
2E0BA
34C63
29B15
2F4A1
32105
3C5C5
02092
36041
2F5C5
1258D
0848B
349A5
3CC0D
0B816
2B3D7
0B24E
38904
3E9C7
07C89
3E757
14116
12A74
05288
1687F
2EA81
03286
32BC6
02947
3819E
0BF33
11E44
0A77E
076AB
01353
28A1B
3A010
0CB40
3FFCA
07874
39304
2B6DA
05A9B
37BC7
01C01
14939
30DD1
0464C
12D03
3AF1E
2B751
2E365
3AB73
3CBE5
0395E
14EE9
34904
0983E
32347
0E359
01BD1
34252
2A306
0E5CE
318B7
04F0C
3F91D
2CD47
2CE86
296F6
0D30F
08298
2AD54
1036A
2C4DD
28754
39494
3D251
38872
3CA01
0863E
03CC0
02F52
0693F
0CD82
06A87
2FD4C
2E918
17082
0CEDF
2B9C3
1479C
0D07B
15BF1
14A78
297EC
387E4
0211D
008A8
15264
10599
2CF36
0A130
116C9
05702
0D61C
331AF
365B0
2F312
3AEFE
3FC95
2E2D2
0147E
2BCA2
0FF52
09E29
068B6
394ED
35A6D
2C73A
1469C
3B3FD
371F3
39F8A
02AD9
012F6
31DC5
2A573
32DCC
131B0
0452B
3B011
34C80
3DADB
295CC
2FFB8
288A4
2CF3C
07E45
2A51E
3C70F
29840
35302
2D0D2
3E6FF
3FAD8
16847
112DC
14C87
3ED17
08A40
34853
2C92B
3D6E2
2EC81
17577
3B63B
065F4
0A08F
10251
0E234
0469A
021C0
0EED3
0877D
30479
399CA
38EF5
3EEE5
332EC
17908
05310
336EF
01BB9
146D8
02064
08AEB
34C76
3F656
36803
2C9FA
03412
32D92
3CCE8
114B8
00CD7
3D027
10E9F
16F8D
050A0
2B865
29325
369C5
15945
0B3A8
2BA43
28E5E
06C1C
0B85B
0F035
39F71
0BF87
0C9A6
2A9F6
114B1
2D438
32180
12ED8
056BF
02F6B
12A28
3FF7C
014A7
05F9A
04C56
081EE
2D627
059BA
10AF8
3F4A0
3B49E
024D0
2F55B
366FA
35210
3754D
2D69C
2FEAD
2EECA
337CC
2F083
0F2E2
02EBD
0FA81
36FB0
0716F
0F037
0C190
17950
0BFD2
11196
03F3E
0E085
322AE
16D65
28E16
28570
32A22
02625
3A074
10289
3B44F
06CC8
355E6
32E8D
109E4
35793
00C0C
3D5FD
03700
15099
28B01
04CFB
10799
32FD3
355B5
12BB2
061BF
3DFDB
306A2
0CBBC
3B37A
34EFB
16288
02F21
06937
3069E
0CE95
3CBC8
29594
3CFA7
3459E
34E9C
397AD
31296
09F09
08FC1
051BA
3865D
31583
07F57
0AE70
146F3
1109F
14B54
11A3F
3E452
15BB4
13ACC
0C383
36FA0
11982
2E35D
2E5CE
37300
340FB
11FD5
0CB67
09AC9
0F28E
0727D
14A96
2B03E
2FAD9
0E8AD
1776A
3FAE3
11C86
141E1
3A231
30C2F
0601F
2DB6D
07F78
2F5ED
39335
3FE2B
17AAF
033B4
0B0FC
397C4
1795B
12DEB
0AC66
321B7
2BF82
179C0
2E5CD
28C34
3BE8E
1521D
2B939
3FA0E
2D96F
38DE0
3ED95
0BE92
15DDC
2AD56
323EC
0B13A
0CCA9
3E786
09D26
2853D
13FA2
3CEBE
29813
29B99
3C7A0
37EB0
302C2
0964A
02CE2
0EFA2
3247F
3AF57
0357A
2E25E
28AB8
01AEB
055AA
35BF0
01AA2
3C915
0A48A
176E1
08A7B
33011
28A32
12C02
2DE60
0280E
3A327
3B01D
0AC03
0AF44
2D7BE
06005
14C08
3A704
005AE
07875
172C9
2A01D
28427
14F84
02A55
29A06
3CDC5
2F68F
3440A
3311D
17835
28C86
17A3D
1425E
3C4E1
3F949
03CB1
03887
006AD
022E4
2B18F
153D6
36AEC
097C0
0C658
12C01
04C1B
142D9
0B8DB
2DA20
3656C
15DBF
0C94E
2E266
2FCEB
3B63E
02489
0435E
310F0
03403
3F817
03F7D
09B8D
3924A
2C588
09548
10F53
288E4
3B242
0A532
35121
3DC28
0576D
10976
3746A
3D307
05E6B
2D23D
3FEF2
3B9D6
2F070
3F3F2
3F2FF
36E75
39A26
08BB7
05EE8
00671
0F850
07E59
3B94E
02E70
2B311
2B5EE
14F1D
0009A
33198
2AE1B
379CA
2A38D
3D1E3
3E884
38BBF
0744A
28749
0454C
15D0F
2E281
3BF2B
2E836
0F112
3C7D3
2868E
01DF1
3914C
12EED
2B9D6
304A6
2F624
0B485
34AAC
00690
15E8A
33E55
0508F
289B8
32033
0A3F0
2A734
0126A
06557
06A9F
13332
161A0
2A72D
2980B
36871
3FB3D
06B2D
37483
06D7F
3D24E
14A69
3DA44
3906C
014C1
2E497
153BF
15647
29676
100F7
071A9
0ABA3
3B3C6
156D0
16EB0
3F635
04662
10837
09706
1474D
3FCFA
03DA4
12C0D
3DF3F
3DCAD
0A9E9
32A57
08FC1
02DF8
04267
15ADA
0AA0E
30396
29600
394B7
059B2
13040
375CE
2D63D
31DE9
34B9E
33B48
2B00B
00777
0EB0C
10912
355EE
05249
08C9E
0167C
2FC7B
397EC
34A1F
149B9
3C29C
16CB6
088CF
0082C
3F850
10942
0EF6E
2A4AF
0BFFB
3B438
301C4
15271
0CA78
364C0
33A9F
12148
12DBA
28914
0AB84
0C630
0A11A
0BBE7
394A4
01228
04582
0C9D5
11EC5
06FCD
2FDCB
3D3B1
31DA3
14E25
082B1
3DC22
14E9F
03D6C
02BE5
06C9C
3A097
1263B
35C75
0786B
136DC
38433
28673
35984
03816
0DD5A
10916
0097C
174FE
3A658
34DAB
1330C
33C65
004F5
3321B
35CCF
39436
3E026
3E1A3
37D1E
0A9DA
31018
28FE8
120BE
2DDF9
0184C
30168
0E50D
11535
17BF0
0C4EF
2FD45
02BDC
0646F
0B270
07B63
36A92
288F2
0FB4B
386B6
0B476
0779D
33435
0C8BF
0FA57
0EF53
051F2
2B7BF
2A5AD
17479
036BA
14D6A
3ED04
0225A
38887
30896
16922
2B8CE
2D89C
162D9
0CB10
05A38
36B63
120E5
28C7F
12440
04E7C
12C57
05DD2
2A527
3B0F5
2D1D0
171C4
10B8B
0CB08
03ACB
3D14E
37B9B
29B36
3E868
0A194
0B80C
0FFD3
0217E
3558D
34132
00FD2
06613
33665
2E996
33392
0866F
30E97
1270D
291B9
10F8A
11BE5
37BEE
3B8C3
09C5D
16811
39A47
35FE6
0BF04
291D0
36B92
06E00
2B586
3D30C
07512
34AF5
36471
0D7A1
346B2
360D6
07277
04295
034E8
3F877
39D89
37ED3
173FA
3465D
38C60
3EEED
00FD8
3EC65
35E14
06435
3072F
2DEA5
09176
3FF44
0FF17
2CFBB
395D1
3D52B
09217
3FB1C
04B2D
2B3C0
0E75D
0C62D
2E1AA
0412C
09E2B
2DE07
0ADFC
16789
07CB7
17B69
0D1E6
3A330
3FC2F
0006C
346D8
0394C
0C01F
32EE7
39522
01385
3B564
09B01
15C85
2AE9D
045C8
2A64A
0D7E9
2D926
06F80
3E61B
004A2
35A47
0B888
0754C
1749F
0DCA0
2C9AF
0361B
3DEFF
3D429
01E89
05820
0A7FE
01056
2FE8F
01C6D
048B6
2C8AB
38144
2D783
36ACE
02F28
30FCE
10C0B
13CD2
35F8A
0AD27
3337C
2F9A5
13F1E
2BCCF
0513E
14E06
07DAE
116B9
0677B
3A114
2A888
17AF1
117ED
0CC73
377D1
0D911
39F38
0A420
37689
365C2
3D412
154F2
08528
0E3D0
2DD29
2B436
03ED2
080BB
0E8A9
016AF
110DB
15FC5
07898
0912F
3DB5E
32284
0FE2F
3002E
12589
2C00F
04C4E
28A48
145F8
3AA68
17757
09A20
2A637
337D8
2ABE7
3C2BD
0B011
31D8A
2B6FF
065B8
2A419
2D7D5
02FE3
2CE4D
0C20D
0EAF6
15D8B
1232D
16266
0B168
0888A
094DB
0F6B0
3A403
33C21
04130
35336
168ED
02A7A
1075E
0C611
13BC9
121BE
114BF
0DE72
0A4DE
00C1B
139DD
2AFBA
10E4D
10A15
2EF02
0C5ED
2B6D4
0D064
09064
03BCC
2AA03
12BF9
30DC3
0D125
15B60
112E9
2B7FA
3D6B6
2A13D
0280A
094C6
3F69F
340C0
12200
0D830
0FB67
07250
13675
311E9
3071F
09D0B
29672
32867
29E29
143B2
0E268
157AA
1299C
0EE52
0AD50
05D0D
1629C
08D92
2A3AD
0DAE0
2F56E
0D4BF
33E85
12347
094AF
2C07B
2FA3E
04FCA
0D6A6
04918
13772
1536A
060AB
17084
28891
29EA3
2EF6C
32420
0D5AA
33658
3A8D0
0443B
12DCC
2D2F9
30105
0E4FA
3B4D6
330CE
14311
0FC40
0C023
2CE8D
37C22
34962
2F626
2D448
02965
32C2E
08061
0F542
3ED28
3A383
3824F
32120
3BA27
0FC36
169A6
3613D
0D528
2AE56
175CF
29AB5
3109D
39431
02E9A
33DD8
2A51C
0E02B
30A87
3EE3D
3536F
3D988
3C2CF
2CB4D
09ECA
3736B
3E86C
13D52
0187D
10D58
305A3
0EB96
03F4E
30260
3911F
2B8E6
381A9
3F02F
0EC57
0D14D
1376D
3CE94
13E27
0D27E
0A489
35537
359BC
167D9
02470
099FD
0D803
0A105
069FA
05557
14C06
16244
34C17
3D0BD
3C6DB
002F4
109AD
036A7
0D369
04BB6
1423E
053D2
0A5AD
29C5D
15349
0D3BC
009CB
00AF0
3D3F9
29594
1202A
00104
15950
12318
130A8
0FC4E
09F98
0E1C8
39302
15E46
37B0D
2C0D4
3AC28
36917
02AF6
143FF
3EDD4
02B69
1461A
3E037
14632
10876
02DE8
04A88
364B7
1393E
02055
14F44
050DC
14846
3775B
0C4D0
3DD80
35C7C
3ABE0
01948
0890D
14D46
3F1F7
3E85C
2A195
11E7E
0FB2C
2DA47
3C778
2ACFD
02E3E
311D9
2B46D
3F7AD
086E8
3146D
16968
158A8
09C93
2D923
11060
04263
2F1D4
28C48
376A6
05BCF
329D0
0D20D
37F5E
16E7F
14A57
3E333
1067D
3E91F
0559B
1467A
2F008
17701
1197B
2A7A3
0ACA5
0B147
038EF
05AD4
3B1C1
13FA6
07AEB
3B723
1481B
2A90D
287A8
10D2D
2BB62
3E7A4
3E475
37369
11F79
2A271
012E8
3A6C5
2ED2F
145F3
0E308
2E4C1
13520
3459B
00395
3AEFF
0A50A
384E1
13374
2C190
15588
070C6
30E70
3AC5F
0F062
3B338
12400
287A1
3C212
31B18
3C171
15513
3B251
0576B
1568D
1298A
2EC7C
03AB4
30667
2C6E0
12CE2
0A1BC
0533C
03BA3
3DEEC
02231
03C3F
11042
37EF2
053B0
2E922
0D258
025B4
3EE6B
3176E
3526A
3472B
0DACA
05B94
3EF33
30837
2E8C2
014A9
03035
39F6F
11457
12C26
38637
15218
10F25
2C45E
0066A
13260
11D4E
0DBB2
3B269
29E21
39CB9
12AE5
142C5
0C79C
36CBD
08676
10A1C
3091D
1184E
3730D
29C44
178C1
0C616
149BE
366C0
0BE74
06A88
2BFD3
03632
09D10
3C534
0684B
29527
35E4F
37778
39415
2D96B
16B7A
2CFF5
3A615
08992
028CC
3534D
0349B
37FF3
380EA
059FF
09CDA
38B01
0058A
3B398
355FC
0F638
00BC9
06B3F
1084E
08653
0B05F
15430
39B64
3840F
3FB3E
3A8E3
0736B
39036
395C5
2D912
3EC29
09C30
129B3
08E38
3259E
16387
053F1
10EF0
00A9E
349F2
356E5
3F482
05648
061D4
03C05
083F0
05851
33D6B
34196
005F3
3D231
3BBF6
082EC
04270
0A232
0E9E5
37E44
3D105
09BA5
0705C
3FEB8
03DDA
0178E
28559
179E4
2C3D9
029B4
0383D
04C01
3CA6A
06B66
32F26
3DB86
020B3
3747F
05D2F
0CC9E
3C55E
2D13D
0789F
09783
3407F
2AF64
39E3A
02AE3
2DFCC
3675A
38274
3FAA8
3B9A9
09B2D
0D862
00D75
36BC4
3FC24
06344
2D26F
3DEA7
3723C
29ED9
3347F
0765B
3C46A
0EF5E
3094D
2B644
15275
0E414
15BC5
11288
34B5C
2BBBB
1320B
06026
32870
02B11
2EFC1
37697
3241B
03BFD
3B139
3C1EE
13DC6
3E819
2CAA1
35AB5
3AC3D
02AFA
37421
31454
0066D
3D65C
0144A
2B1D3
28645
04B3D
139BD
07DB2
0177A
3F892
327DE
092B7
14694
11997
077EB
06410
34736
0546C
32806
2CB13
39BDE
3C74A
0E27D
2B8A1
30ED6
00A6C
15272
08997
3E273
0FE4D
10F9F
38870
2A5A8
37023
00026
104E9
3AF12
13B71
03A27
13139
1292F
33574
2F936
30E2D
2F33E
11059
35677
15B60
08301
2A996
17661
33E3B
3684C
33033
07BE6
2C89E
16093
3E080
05CBD
05ADC
17923
1299A
0A4B9
0A22E
31371
3EEE4
0157B
32769
174B7
3D07D
355ED
03B69
3F57E
0D6FB
29DA7
2B934
0E361
36D25
0229E
149E5
0746F
05B50
3AFF9
0A922
1659F
1290B
3DDD6
34408
08A3F
324C5
2AD5B
293DA
356D6
3EF8C
062B3
166A6
371F3
0F2AE
0C224
347DB
013B0
11018
1186D
3840D
0A2E6
09F4D
2A31F
399F3
3FFAE
34A90
11E09
057AC
1735C
3102F
2DF5F
3B991
289C3
3132F
31E17
2B5BC
3A541
15DCC
2AC16
356C7
0CE9B
06A53
08FDC
3BAE7
0EB49
3472E
00D86
02906
0A09D
0CA30
34656
08424
0D7DD
32C81
2B002
15584
069EB
000F6
3E6CC
111C2
00F34
1082E
05762
39789
134CE
3150F
15010
2DB5D
3C2F0
05DE1
15E2D
3F1C0
177EC
0C555
34BB2
1015B
3A013
2F89A
03E98
0A055
02A4A
05774
2E070
3680B
01665
2CA94
39F2D
3301C
00008
34EE1
39A00
00F88
00532
1007F
044FD
3C416
28F44
37197
0C820
2FF0F
03B82
3A6E0
0CC25
177E9
3951C
3D345
2919A
06C91
3FC36
2EF44
0E934
09E39
031B9
2B542
149F0
38955
2D226
072D9
3BE3F
12A3F
2905A
2CD0A
11D67
118DE
2DC77
0E198
0CC80
0F0F9
30E08
1784E
11FE7
0EFEE
0D11A
093EB
38D53
1744C
08F52
140AF
15B27
09D27
0E629
02AA6
08EF4
3C14E
06E79
343AF
10B10
0BC6C
0DD0C
0A9C7
10431
299B5
0B9D6
1017C
3097A
136A8
3B3BE
2E001
0B23A
38816
069CD
0C46B
3FB9B
3157A
1433F
2F6F3
0148F
133DE
0A56F
150C9
0D500
2991E
10732
3E30C
2AFD0
0AD7A
32EAD
2C0EB
0F077
0E577
09DB6
37851
36481
0EC16
108E8
3E8EC
10FAB
15343
05040
09896
38E27
0610E
32898
0CE1C
0EAC3
3C1C9
2B33E
380CB
3F2A0
3D69F
3F7BD
04DD8
2BC82
301A9
1017F
0ADAB
36B5C
0EFDA
3877B
08F0B
3B671
3D1D4
0F911
2F84C
16378
284BA
33C25
321DA
34C73
3888B
3705D
28B22
292ED
0B386
045BD
290DE
33660
16753
0637D
003A4
32007
3D3D1
2AF8C
318EE
1627D
16425
158DE
02D92
0049D
2C57D
36478
00C74
333A3
3B56A
30398
39C41
1149C
32EA5
34F57
3E8FE
3E3ED
0C321
2C57D
3F2AC
0411A
0DA90
3C205
0CE88
399BF
371AD
0FA1A
07D11
3016F
2AFD7
13618
3453B
3F191
147B6
3C0B4
0850D
0849D
3257B
3F420
0C151
031DE
0D8D6
00CAA
2D0F1
3C609
0FFD2
09938
034BE
01A09
0F6C7
005C3
3E567
121D8
2BD7F
0C04A
35CE4
2CB8B
2F769
3643E
3C852
0ACF9
10671
28E97
312E0
15384
3DBF8
37E67
364C9
3EF57
11D72
39D51
11FBF
3F9DE
0BE92
3F6D6
28A35
2AC7F
045B8
02AEE
3FC36
0C9E3
0EDFC
113F5
1038D
3C138
3BD59
3926E
01176
0BDE6
0B482
01CB8
36D23
395DD
2B632
2B5BD
3545A
3138B
09A71
0E4BA
12B5D
32D38
0894D
2EB43
0800B
390D4
1133B
32311
31128
3337B
10053
0B536
15647
2C551
15E73
2C76C
15D9A
32D8D
15A58
10506
110D0
34538
10138
29CFB
2CA09
33BD6
2FE12
0AA2A
3A209
070DA
01CFD
3C2F8
00D33
31C21
3710B
14B61
2ED0A
2E68F
06492
3F57F
35D04
147D5
0E38A
02FFB
2DE77
04C52
3D32C
3442E
34CA7
334E7
2EEE5
05EA4
13F67
13221
32FB3
0DB44
039FB
0C04F
3E120
0344A
0CA75
28C2A
30224
32F8C
30023
3A6B0
159E5
01E6C
3B1A0
0E2DC
1236E
3DD0D
2D60B
10641
2FBEF
041F9
151A9
384B4
2B4B6
32323
05CEA
04737
02F92
178B1
2EFAA
3C71E
3A8B0
06D59
0590D
311F7
1305A
39542
35D5B
07E6A
09AE4
10741
120CA
0AADF
0BA5E
30763
3731F
15EF6
31342
3D78A
2C562
3AE71
08DA3
0E723
01E01
2EBA2
370CE
2D61D
2A3F5
0C187
06B51
1220F
06430
0B57D
28927
2B48A
3132A
13093
0C05B
06DF9
0E298
02938
15FF6
0BE14
0A31F
2B968
0A0BE
08020
39B74
0545D
04B9C
35FEE
3B592
37899
012CB
13FD9
13843
37E68
105A9
39840
331E4
3EFB0
0C2AD
3A128
3F56C
085CE
0BAAF
14DD3
33E4A
35FB3
0718E
0FEFA
2976C
38992
0EF5C
0F250
3F833
3A066
2AC71
010FC
1067C
37E6A
02803
039E5
2C085
3846E
0FBFC
01F68
11C8B
3B9CA
377BD
069F0
317E7
00D6C
155BE
3A2F6
3C50E
085EE
0CE87
3D244
0E77C
09CF3
36409
3D1B4
0F06F
07E5D
2CA13
38D51
2A87B
3AA5A
2A94B
396B8
0FB50
386F2
07C0A
2A459
34992
0A27E
13C51
13845
0FF2A
3DF68
11D8C
32054
13D9D
39466
30215
32D0E
37CDF
0C0B0
0DA74
0C578
11089
0997F
08F16
0A828
2CBAA
3CAB0
14958
0D1FF
32684
3685D
3C617
2DEB6
0BCD9
36032
3243A
0ED76
131CC
02D62
3F3E4
3C7B3
0486C
32E4F
2BA91
006CC
2C1D3
0B5D0
3A99C
037E5
34DBB
36D48
0CF85
2DB17
360BF
3B551
29DA3
15F84
001C4
05517
30B1E
0D97A
37582
14949
3B9F6
34568
034B8
03140
38FBC
3FCC8
2CA09
16CF2
00B79
00AB7
3BE67
03E01
3B546
0A106
2ED56
3A599
17448
30917
0F151
12DCB
32EF3
0D57C
05577
36C6A
2986B
0CA64
2CEC6
17AF6
124BA
39F1A
1606E
08914
0E006
16D6C
1769D
08A13
2C974
0A72D
03936
31F94
31B87
3F3A7
3178D
3BDEC
3008D
0FB08
3D73E
29BEC
3B953
0C3AE
399FE
3392F
07774
3C4B7
30398
172B7
0D805
2FFEC
317CF
35FCC
285A1
393DD
0D2F1
2EF43
13988
2E1ED
0ED82
0BBC4
115C7
3DD75
13A39
05304
0CD0C
05510
32A8D
3EA0E
01BA0
28AE7
36B50
0E012
0896F
0327B
0A33E
2BE7F
07E7C
07FB0
2C1D4
2BFBA
2C858
2EF56
39CB4
3D274
2F0DD
285FA
2850C
0B028
3C316
0D084
04DD2
3F1F7
10C26
0AA02
0F9DC
0668F
0557E
2AB1F
3D877
0DEFC
04B3E
147A0
2FC97
16684
2A487
10954
15A2E
35CD7
304EA
3C387
3A31D
3D386
29643
3AC5B
33AAF
0E2C9
34354
3EAF3
3B26B
2F308
0A596
385C4
17B1E
34759
3A221
15355
3DA54
02F87
16A7A
3FD4B
13D40
01A21
2927B
3D237
3B37B
0969A
3421C
36F33
0D54B
33CFB
2CBB6
0B420
0D075
3DBFA
101D1
134AB
02CB8
16860
3E86D
3C5AE
3100D
015DC
3380A
09D8D
37DAE
0FB34
1248B
056C2
3A6AE
01B70
3C4CB
1347C
3CBC2
3D275
1355F
35D23
0BC81
0F1D4
0670C
0EAFE
14DD5
31D9D
11226
3C0BD
39CF2
3516D
0A3CD
2C2FF
12E7F
32A8D
00621
3E8CE
132A1
10A88
04BFB
05E8A
2D172
087E3
374F3
02768
02C40
01CD8
11F86
37315
3E40D
34E5B
2ED34
0CAF5
16537
0DB9C
07BC7
30EE3
0DCCD
30A97
00DFA
353B6
0A9C6
0AE2B
36889
3C39A
33954
36A3A
081BD
16C8B
373D8
03BDF
3438F
3F0D0
2D14E
0C65F
0EBBA
11FD5
04807
0A915
08F4D
34D9B
2AD46
36EBB
33165
3F93C
39BCA
3252B
0467B
17095
0FB01
06166
2C0DE
00F52
10F00
160B5
2B1BA
31BB3
2E7C2
0B00F
30F92
33310
02904
2C9F8
0CF2C
3BBCB
3605E
28957
00F27
0A423
3D5C7
0350C
08C5A
1262E
176FB
2CBFB
11C3A
2B84C
0213A
09D43
083BF
2B8F0
2EE5B
397C5
3818E
3AAC2
0CC9D
3E82D
002D2
0CA48
3CBDB
3AF96
07E52
00E3E
3BCE7
16C15
30A93
3EE5E
0D1AC
3149A
16ABC
29BA0
1392D
2C9C2
3FF9D
34BB9
3BCE4
3A2CB
0A5E5
36351
390E7
35B25
3A839
37329
3735F
0FCAB
3CD89
07858
1557D
08F68
0CE8A
14567
14091
2FD0F
353F8
29447
303F7
132C8
2F830
164F6
2A2C4
16A83
3E343
3076D
0DFE5
123FF
0CB60
3B0C4
33CAE
1295E
392A9
17842
2BDDE
36539
10169
2D854
097E7
06C01
03693
15D14
0AD75
29559
2C649
096E9
3ED98
17AC1
30F44
34CDE
30186
34B3D
00B80
38DEF
0626F
3B1C6
290EC
3E42B
1411D
2E649
3B101
13665
30B5C
2CBC7
3F0EA
3E81D
070DB
038BE
3E419
2DE7C
2D7D8
33136
298E2
3C4C1
3076C
2DCB9
329E5
2B9DA
0CF21
0E4CE
141E8
2DCC6
3400D
10679
05B96
301CC
0F13B
0E90F
1061D
08ACF
0EB7C
2B055
110FE
2E28E
02E30
018E1
116FE
3326F
3E6BF
2D533
13A50
11175
166FF
2E4C5
0293A
35006
35828
03296
3FBB7
36094
03281
00D07
30ADF
03F16
13CB9
3B345
1043E
34346
32763
3B435
321D7
3B86B
3571F
013EF
32C03
02C51
28C23
3D8AC
02B8D
2F43C
2E918
2BF7C
0D9D7
3F268
061DF
397F0
0ECEC
0DD7F
38E7C
06C8D
1287C
299AD
0161F
002C9
3AD7A
2DE4C
3BACC
28BF7
01A45
33506
2F1B9
0B5AC
28E7A
15956
0BF84
3EB28
2BACB
0A222
0BDB5
2888D
2AAE2
0561D
1344F
3E4E0
0AD2F
342E1
2B208
16136
2AF9D
07B7A
11614
2AF4C
100B1
29F83
0C757
0685F
03245
15B41
3BF01
11064
33A34
0E928
08160
38116
3CA2E
11571
0DDCE
14CF0
17B73
0B54E
00D72
14276
0C18F
02B62
30505
02717
171CA
3FAE7
0536E
0A9C7
0F5F1
3D766
38DF6
32D7D
2EEC9
04587
171FD
3BAB5
101D6
35095
358EB
03E54
289D1
30397
0C238
0492A
29234
0875F
06959
3E35C
39691
16E9E
2CEA8
2C397
3A394
1572F
3AA7B
35319
125C7
00894
2D60A
2B965
2A921
3FAAB
0DB89
29E2D
0A1D1
0FA4B
371EE
2BE8A
2969E
14991
3969E
0C787
32619
3D960
2A95C
31CB9
2EEEA
06F6D
0C06D
0E659
3617A
08F9C
0686D
2FAAC
30676
2FFEF
30F15
05B09
090F7
39012
07AD5
004E2
33D9E
0B63E
3EC7E
0B8FC
00A1A
00BF0
12D8B
0F18B
0A185
3A5B5
12682
322EC
2BE7A
10B88
00221
31E12
31AE3
3E511
144D2
2C653
0D2CB
2BA7B
043EB
14519
13C29
3F8E6
0A3B9
04A83
29FC0
11A2C
0ABEB
13440
2B66E
28685
354D4
15F7F
0E67A
2B449
02A18
02C00
098BD
0E19E
3FA97
172E6
3A60F
02273
084A5
36218
31FBD
0AB3A
05B24
36699
0546D
0DC02
3885A
3DB96
0494F
2897E
00C61
041C9
06739
379FC
0E484
0786A
30FA6
3A28E
3AB6A
0E1D7
01430
32603
2F9B2
371BD
0C33D
07002
06800
0A92C
36A48
030AF
17985
15D1A
033C6
173A4
35BAE
0F1C5
088CC
3ED0F
09549
0B0A8
3EB23
1795E
04C01
001A3
12CB6
0063B
088EA
00D16
3C0D5
136F5
38712
0C2C6
29E42
06B21
14ED4
35C83
0748D
38558
320E1
2ED55
31952
31CC5
06B8E
0D2C1
05C78
14900
2A7A6
3B247
027E3
392D8
386AE
38EF6
0CAEA
2D72E
08C53
11E19
0C199
31144
17B81
00397
087D9
312BB
3ECA4
2DB2E
0A94B
29E3D
12DCE
0BB03
14741
33986
2E65A
0D1AC
01FBF
0025E
17214
02C97
3CE20
0AED6
11F00
03160
0AAA7
377C5
287D6
3EEE4
3DD1F
31327
016E4
16810
3F81F
0A471
10018
2DC8A
3E78C
38C57
35C8C
0F429
28F22
33680
34511
31D25
1188F
02784
32BB4
13D64
3D17A
12AFB
331FE
2DCE1
32240
03AB7
2C1FF
3DF2C
0ADC5
00838
0C5D2
135A3
00C5B
1051A
3B95B
319D5
01AD8
3B030
0A59F
11052
00B0C
2D9D4
1592D
03C43
3DD29
3D7CF
3EEB1
10580
0D5D1
06712
02DBB
390E7
09EF8
3D454
39230
2EA4F
29878
02DBE
08C46
02844
145C3
2E766
0E358
0F89B
39AB7
0D3AD
3A675
2D247
3D7D2
3C5EA
2843C
2D66B
33A6C
04CE7
3D994
1189C
09002
03252
0B64B
023C2
2E8B1
129CF
16B76
0BA78
08784
070AA
00C5A
2C5BF
31F85
28D13
03ABD
0D356
3A7FD
11C36
336EF
10EB8
0125E
08181
02221
00CBC
09DD4
2D429
2F8A4
3A3C5
38E7D
28C55
33698
2ADB1
334EA
3D79A
2C6BA
3DBC3
3FC60
34F97
30C53
02F00
105CF
111B8
0D362
04BD0
132CB
0B028
123CD
15948
2C5B4
3569F
09D84
0DB25
06CFA
3E827
0135B
12549
076B2
380D8
29DE8
294C2
37375
2C1F9
33733
3883E
0DCEA
0EA0B
2A20F
146B0
05019
0627E
144A9
11531
01BDB
00FD0
1766C
1084D
03AD0
16F89
12AF3
0532D
37C0C
3CD56
2D691
32768
2BE5E
3CAA3
2C117
166D9
2AAE3
35998
0EEEB
3F784
2AEB1
0036A
3543F
375B9
00E00
2EEA7
30BD8
0B4D3
3284D
3C0B4
34F14
0D5BE
0B543
02E21
3564D
02AF2
2D6D1
12367
07DC4
3787F
02B7A
3CAAF
10207
073FC
084CF
2ED20
2962B
14DB0
13C11
387E4
0AF65
375EB
1568F
2DB6B
01FE3
31974
0DE5A
12F51
33C2A
32A1E
0A3E4
0D06A
2F932
0E7C8
100EE
2F155
123FE
0D0C3
34A12
37DBD
0D787
09399
2AEC2
3C07C
078EF
3209E
0D56E
2DFD9
2CBE9
17330
385B1
130BA
343F2
3A2FB
3F1A0
0BDD9
15B55
2F305
2DA02
3DEFF
0B86C
3B8AE
15218
2AF93
0E948
0DEDA
2C51A
397D3
2A46C
0B226
11D2E
3694B
0EBB1
3D88B
0BF31
376E1
3B029
0796B
01539
32864
3025B
0455E
39D72
2A586
0B6F6
2A68A
2B0AB
17914
0B8F5
0F6A7
2D638
16CBA
2FE3E
2AAC3
3DDA7
04A0C
2C889
0DF49
004E7
09D4B
34DDE
01F86
2A66E
0AF00
16D6A
3FDAE
12BAB
17443
34850
1530F
0F6BC
2DC42
09AB1
2FB6B
2A612
005C5
2A95B
3EEE0
006C3
088C6
04AB9
2D9D6
2BBD5
119B6
06434
10568
3D3D6
335FF
3A878
39E9D
3C2F1
31740
36E8D
0F239
0D6BC
2E9D0
34902
16C67
0F25F
1504F
3F980
3B228
05D64
2D479
0F250
10171
167F9
0F5B5
35978
38E5B
0F56F
34D58
142C2
1160A
3C1B9
0F59A
0AF62
054FD
325B3
365D7
36302
33A7A
1433E
05869
05D0A
33283
0AE82
379CC
01887
10F70
3A892
3C929
2BB40
2C4D3
037EF
3262E
3046D
381D4
1526B
362DA
06BA0
03215
0FBCA
2E7FB
3F722
038B5
38C33
1314C
02761
0576D
29D7A
2AE62
2FFF9
11A12
38C1A
050FB
122AF
07087
0A8D4
2BE05
308A5
304F0
0D776
11327
310DC
29853
05289
03161
3F410
05B55
0DD39
0C39D
128EE
08E6A
327EA
105E4
3E47A
3CA95
0264E
16809
2B4D7
3E11E
044D4
011ED
33F62
2B2F2
0A831
34517
37967
10E72
33705
0259D
0D3A0
3C7B2
1105A
34927
32848
2F40F
0593A
364D8
01EC3
3FB2F
30DC4
2FCF9
13F3B
33F8C
0A316
2D430
33D3D
09966
07BE2
08116
097D1
10F93
33ED3
05D9B
02E04
01460
04E73
3DC6C
2B94C
0EC8C
10532
0A821
162F1
0DD85
3095E
33AD7
396CC
0FE18
1381B
177F5
347BE
3FC95
0CE6A
09D81
0DDD4
0827F
3837F
3A0FC
29597
35484
09685
348A0
3BA19
317BA
30302
38000
013E8
3B120
37EC5
13F1F
2EBF8
0D67D
0376B
2C881
36AE3
3EDE5
2D86C
0AAC3
0E798
2FD28
055B0
37802
3FED6
011E2
357D0
36655
39C27
07A61
2C7B7
1088D
11A50
1039D
0F848
3C82F
00493
04618
0C266
0F7EF
2AEF1
326E8
06651
314BA
011F0
35984
117EB
0E38B
33F3E
3B9D0
0020B
07EA0
2FD01
2CDB1
107A9
179CA
0917D
3696D
2A1B8
2B5CA
39C3E
3B3E9
38434
09747
1404E
2C9F5
0B3D1
2EB6D
318E6
09C51
2FB33
28645
3D14D
073EF
32B2D
3E5E0
0B295
082E3
14448
2FDB4
0D7A8
3D809
03639
322AC
105E2
146F0
392ED
038A0
04353
02B2D
37E61
12353
01400
2E45A
0EC1D
3EAC4
384F3
1538E
38250
0ED0C
14E08
3DE41
34427
14AE5
3AE6B
3CF6D
0FEE9
0A47F
2B271
01566
04187
3240A
05666
3669D
3C1F3
10198
177B3
0D992
0BD59
38446
2DDBC
3E324
0A3F7
0D608
2E093
2D21D
33C51
38745
3FF07
13178
34332
05734
34CFB
0F2E2
36FF0
3BCD4
3ADA4
39F30
30500
289AD
0B156
0514C
0A5F8
15791
35EA2
3F140
0E1EA
33AEF
29317
394F0
16FD8
2C783
3F709
06A46
2985B
3A191
3B811
317C9
36508
3567C
00ECA
3D817
332E8
2E2B3
34974
298A1
3E5E6
3BA82
156D4
324C6
2C537
3809B
07850
0D19A
13323
3827F
07DEE
04251
08305
16DE6
2D058
34779
30676
392A6
375EE
2D067
30C84
3FC3D
2CB9A
34298
0B120
14AE8
2F4D7
3D352
02AF2
31C3E
39CFF
144EF
0AE33
3B022
2FE6E
370DE
06E77
0ECB2
00685
01F6E
2DE89
075C4
07653
3323A
30CCA
305D2
09419
3761C
309B7
1449E
1168A
101EB
32C98
34A5A
0E1A0
2D3C4
2C9A7
2F705
2D093
30D15
3531C
34D96
00E2D
11821
2DE34
0A415
28411
11A0D
3DA48
3C46A
1469A
3CE08
112AF
2D916
2E8F9
0F95C
08763
01764
01F44
3FB0D
2DA8C
2BA3C
3612A
36F35
399CC
3D914
34E6C
06231
299DC
162A8
12D85
0A977
0CBBC
0220B
04AAF
13971
04F90
05A86
33884
2A8A8
2EA27
38D3F
16B1F
2E3BB
0AA41
050B7
04659
12E06
0F820
11632
293D2
2C944
306F3
2B1F0
358E8
0A6E6
3D952
165AD
36D79
0EEFB
30C82
080A0
3BBC7
3AF1D
174F8
28944
3BF4C
383E3
12BEF
390C9
3891D
101E6
159F9
0894A
0244A
0417B
3F867
0577D
286F7
368CA
17160
3287F
3060A
0941D
0993B
0EE16
028E7
160A2
28837
149D8
35EBA
08E17
3AE29
3DC0F
32CBC
0C494
2D63E
2A269
07DB6
30ECC
2D5FF
11C02
15E08
37044
301AC
110FC
09B60
00AF0
3C416
11E16
0F722
3BDDE
09504
321DC
01442
0E626
34EC9
34EE5
05066
309F6
10545
31D08
322DE
365A2
2D563
3A183
0DA9C
3266C
3075D
3E6BC
39659
2DCA8
3939B
0E04F
0FD3B
0FD1B
10771
2E6AC
304E9
0C623
2C5FD
07BED
295C6
0253C
3225A
28C76
2FBDD
3841A
35609
0E7B5
00EA6
314FB
09C2E
003AD
097CF
3FABC
04CD3
11CDD
0AC93
02EBC
14D3F
09EBE
3940B
064E7
341C9
092F3
0681D
00251
0764A
3988F
0D93A
074FF
34902
3D86E
2A248
11E03
11E38
31E7C
3568B
32562
3F5DD
0DCF7
12B76
2F4A8
07C86
288C0
07279
0C275
00799
02B26
163E1
2F86F
3952B
0EF54
30138
00AC3
050E1
14746
103AA
2EDE6
2D0F6
39D19
29340
298B8
3524E
2C71A
3F013
03029
33DDD
106AE
31550
28DDC
00D36
10332
2A717
07377
2B1F5
02BA6
3597A
3A553
038EE
34637
29A73
3C63E
06431
3C2A8
176AA
0BDFD
30E9A
335A4
3C3A1
00680
37D6B
0C423
3DD20
0BF2A
3D930
3383B
038C0
3A3EF
1177A
3F450
06F3A
3EC0F
09DB2
13118
34DA1
146BC
0986C
09B29
0EC4B
14B79
37244
37B8C
0A367
0BE8C
05456
08DF2
00FE2
0FD5A
2C7EE
16689
2E2DD
340BA
36E38
050BD
14915
076D2
2CF52
044CB
015A8
3A35A
36F00
2A874
05128
1597F
17071
0E3A1
0F233
3DF26
2FC40
2F81D
3C493
02C5F
15644
0D8D9
36A68
02463
048EC
045D5
053A8
10CA0
3C6FB
30383
2BF61
10596
0B27B
3A15B
01F45
384AD
14EDA
0075D
2F704
03ABB
1775F
3E9DE
12BFC
0EE52
2C6E9
15C0F
2ACAA
04B54
06BD1
3FE44
2DC4A
149E7
2B9E1
0F87F
084A5
2E017
00EC2
37D4E
07129
2851C
3AA8D
2F982
09437
28842
378DF
10C6B
3FD9F
395C4
0EEE5
313C5
15272
352CF
09753
3FF65
2C86F
30FF2
2D233
2C3D3
3919D
0614D
05C24
0DEEF
2963A
2D753
30D80
09BAB
0ECCD
2B66E
09B88
3AA93
3E3C5
286B5
158CB
0F32A
0E342
2DD6E
2D2D1
161D6
046F8
29199
381CA
0ABBB
0C8D6
2DA3F
36631
2FBED
2DF77
0CBA6
2E475
2D85A
2F8B5
154A5
2EBEB
34106
2D202
3A35B
0A013
3D018
0A613
2F73D
02730
14485
39BB0
0AD02
0C490
0B6D5
2D87F
2EB39
28E79
0F5DC
306FC
3859A
141FB
3EAFE
1121A
0A5D6
3F972
11D50
3471E
30DD7
3A103
00337
0E8B9
16A30
0489B
0A44A
3B48C
3B703
06DB6
341FD
38856
30585
0DB63
035C1
0CFED
39FBC
31766
05733
14C26
12DEA
2B739
0493A
04FCF
3327D
06A55
30A4B
2915C
2AA48
3E1B6
113A2
2EFB6
34C0D
2E819
0C583
079A4
13ABE
36124
02BB7
39170
3D1A1
3AD83
06DB2
2F91D
37918
06177
37751
06EFE
3FE4F
2FCCE
0B215
01436
146F8
011DB
01A81
02947
3F47A
335E9
2E9BF
3507D
39A3C
2E916
175C0
33968
3E3BD
2FEEB
30AFD
28E64
0CAD5
049A0
16EC7
06070
00C5C
379A1
365B3
32E72
2CAFB
0DA1F
159E3
2FA3A
01C04
0EC3F
3D519
2CFB0
3091E
366BA
3FC93
02ABB
1086B
0C2BB
07670
2A7FE
13DFE
34BA8
0A16A
0394C
00EF6
0B19E
31C0B
178CF
03360
17184
124FC
0445F
34B80
300C8
0DF3D
0837A
2A5AF
0736B
0F988
39B04
02DB0
2D46B
13EEF
3FF6D
2F78B
371AC
048E3
2894E
35C60
0FF84
3369F
11370
2BFBB
3987F
145A2
295FE
3C540
16286
11BCF
022BB
0A7DD
08137
2FE4A
310D9
14BD2
0D558
014D7
04E21
3712C
3306F
11DF3
1219A
0F5AB
288C1
04137
2EB59
044BD
03440
02051
345DC
2AF40
07DAF
019C2
2E547
1540A
2C0C5
11AAB
3E375
06643
29841
2B745
2D9EB
1724D
38D84
2B925
0DF08
1381C
02B63
070A6
0E34A
04D39
15EA7
3CCB8
30498
06D20
3B692
1799C
11296
02045
355C8
0D6A2
0F7F2
070B2
095AD
33F4A
0F002
3428C
03272
3FB23
0D24A
2D763
38EC2
0B044
3500B
286CD
0ADB5
1156E
288A0
09E56
024A7
07360
047F8
0A263
169C4
05D9E
0C8BB
36EFE
139D6
306D0
074D6
0455F
07377
355B0
3312F
2C8CE
38CDC
3B9F6
3B892
2B671
2B759
2FB99
39B96
007BE
14335
35A5E
074A8
2FED5
3D012
2F452
104C3
3DC0D
16D24
038BD
06475
3D7F7
1450C
06B12
089A8
07A85
15E6C
2DB3A
1181F
2F5A5
018A3
38DED
12B28
30901
08B16
335C0
35CB3
305FD
38777
0CEDF
2B591
043EA
079D2
330B9
3B771
0E362
3DCE2
32919
15157
31414
0C098
34A43
11651
2EE64
3C57A
133D9
2FD7B
0FAED
3196B
02183
15DBC
13685
2D0FD
3673D
34594
3F7C6
3BA04
38EC5
01118
0350E
0B55F
103E1
399C5
12F37
0CF39
10C0D
3D985
0E57A
1638B
31285
344FB
31AB4
2A588
11955
16D0F
00597
07708
3849F
356D3
3F30A
318EB
32B61
30C21
13FD7
35366
3915A
2E54F
00447
3C574
02850
32138
2DB98
119BC
2A746
02732
16D22
3B59B
30082
12860
29614
149AD
3A8EE
05978
02109
3C904
0A6DE
2A5C3
0C694
15DE5
0FFA0
16E1B
333A9
17285
3EF47
34013
3B6D0
1777A
2C178
2F9D7
33062
3BF75
1063A
3E859
35C82
01F8E
16E7F
15214
10B41
006AB
11CCD
17B34
06F89
3CFFB
3E793
3E8D3
3B192
2B208
0648D
0C32C
2F9E5
3829E
11DB8
3CA52
28DA7
01D9D
2FB64
123DA
37967
2A002
01ED8
10090
10067
290AE
17585
29DAF
02188
131AC
1301C
31A60
07096
13B81
3180D
14785
0B0C2
078DC
331F3
0B331
38599
1121E
00737
3F808
36EEA
08DE7
15ECD
3201A
39CD5
3FB6F
0388F
2EE9A
3C487
0E7E5
14A51
3D9E8
07279
13C6D
069B1
33B0D
3E4BB
3A71F
35970
117C2
12FA6
04BCA
08744
0254E
0F426
29370
0A455
075CE
17726
0A705
0E730
3DC6B
2EAE2
3F805
33C8D
3081C
3AF5C
3C8BC
345EA
07F19
3E62E
0F9A9
15E44
2C0A4
2D5D0
3ACF2
34E6C
2DF3F
14FF2
30972
07EE9
12847
392FA
3DEEE
2C092
15FAE
07D7E
30512
296A0
15B10
3E41E
3FD6F
28886
3980D
29B47
34855
343B4
3582A
3A76C
0C2B7
326A4
2F369
0CF70
2ECE4
087AF
15B37
061B9
14636
0D00A
0E1E3
16128
37364
38623
2E424
39EE8
3C26B
1583F
121A3
2ADB6
28869
3E809
0B996
0DB99
0E757
0D9AB
380C0
052DC
0A109
159F9
34C06
371E2
06D8C
3367C
040F2
13FA0
3643B
0D171
38321
0E57A
32103
13BD6
10A4A
3191D
11068
12EF5
11378
16CD8
0FDCA
2FBD0
2E32B
0F86D
00D2A
0D563
33CBF
165AA
3B356
3EB56
08CC2
09B20
176D9
3BB20
0048B
3CD9D
33B60
15157
36D58
2B0CA
2924E
0CB60
3D725
10249
342F8
3260C
2C058
0AC42
3F2F9
14289
37694
3CF41
1211C
0E8A2
294A6
3686C
3B42F
3DB37
0E9E7
170B0
2F24C
12283
0BD58
0E677
0D98A
053C5
37DCB
2CFE0
2F555
384FD
3EAFC
129E7
335B3
128DC
320DF
29A74
37927
3EADA
059B4
111B0
35EBA
11203
03B63
2BECF
32BB0
13A0E
0A7E3
2EE96
16F24
08260
018B6
09B54
33771
15616
16FE1
3540C
2F6B7
09C17
2C315
35C15
326F0
0F2F2
07E8D
04491
0CC3B
0AF3B
09649
2FAAE
2FA54
15F85
29789
36310
08CF1
01209
090EE
37BBF
12689
0A353
096CE
01900
0466A
37387
10388
0417B
2D664
289AC
2C4D2
2DE5E
34894
2D880
28F55
07E4E
2E185
06B93
3F838
0F38D
32EF8
178F9
09D5B
04CC6
0BF9C
02629
37F48
0C78E
3A419
174F7
33630
0E449
17307
2A538
05DD7
1731E
3CA3C
3FE1F
13551
38069
335CF
336C2
006DD
14AC2
0E068
2E1C6
15A11
07623
3E52B
13821
0CEDC
3E15C
00877
16501
10808
076C2
07F83
33611
1562E
08E9B
0B5E6
01C2F
173C6
0B0CE
2B61B
29690
3E690
3C223
12056
38EE2
03CC6
2AA49
37072
0CBAC
0DD73
3C024
2CCC0
34BE5
37CA8
3F539
2FCC8
2D391
30317
021D9
28ED9
3684F
0FFA2
0FDC2
0B3DE
3C1AD
005BC
16AA4
34890
147CB
1625E
006AC
10793
33333
35E4A
16DD8
02E42
2F0EF
3034E
0F5E9
2ABAE
13990
38387
33AAF
166C7
146E4
31352
13834
28A02
07893
124A3
099DE
0CFF8
08AA6
3BA7D
3788D
3F38E
04EEF
14A7A
0182B
0E7A5
0FDE8
159DF
07531
0C365
06293
30705
00BB4
306F0
29F3B
38AD0
3737F
0735F
14162
07DFE
2DE5A
283D7
05429
0B0C9
17728
3BC02
0C356
0299A
3C2FD
01E0E
01928
2AC55
0529E
2D04B
148A7
2AB3C
2FC14
39167
0A35A
3859A
0B5F6
3CD1A
2F4DC
09AE2
3BFC6
153F1
2A7EA
369B9
34E77
2BC2D
37D80
3581F
02CAE
140D9
0F8B7
2BB37
2C157
11BCE
10141
33B8F
10DB4
051DD
3F553
1612B
2F942
343B7
33694
0D355
374BD
3D680
157EF
305BC
3D61D
10465
0120A
0E001
160C1
2DB87
376A7
051DC
14A22
1385D
3F7CA
00BD2
06E9B
0209E
07BC2
10683
35DA1
02625
105B2
334B7
05D0D
3CE28
2887E
0AACE
345F8
0586D
28B9E
2845A
293B1
006B2
29817
026BB
00E7A
021E6
02955
17079
2FDDE
35FD0
14F7B
17274
33FAD
14BE8
135A3
09DE6
3ED09
0DA90
065A3
0AF53
0FC87
0D2D1
3CE5F
34B30
05E33
12EE3
0E258
3A342
0CFA0
0CA6D
2C1C6
06AFB
029A6
02B61
3AFAB
082F2
2B06A
3F7B4
0D323
2D2D8
0B05B
0E02E
05CA4
2D59C
30879
07A13
2EEB2
0FCB5
0A761
32423
0D497
28684
0435A
0AC9F
286D0
11B0F
0F897
142A9
06BE1
2F2CF
3B767
39877
301F1
14A71
39C2D
3C2B9
3B56B
007BE
08608
34A8D
1705A
2FE00
2B73F
15D31
373A2
324C5
05F6A
2BB38
12855
3F93F
373CE
37547
2FAAD
36F40
3A57D
121E3
3966C
3FACE
37CB2
31558
17A5E
08232
15CF5
13E2A
0435E
3515C
368F2
1676A
17A07
30E64
2F557
0433D
05DA1
3FD01
2A4A1
2E262
05597
0B807
0564F
0FA23
3ADAF
07F09
2E63D
3E991
31DBC
32CD4
3C92D
0CEBB
0AF86
0DD45
0F369
0E366
2FAE0
3C6D6
29E39
310D4
06FD3
30E3E
0747C
3B64C
01F6F
0A9DD
11911
08FA2
12D5F
3323F
339EE
3040D
0323F
36C12
0109A
2CBB4
3ADD6
3DAD6
290CE
3E245
032EF
3F212
06ED5
13B4E
1238D
3A79B
074BE
2EB39
0AF7A
0E5E9
09B24
2C487
324D1
2AE37
153C7
07140
2A509
0EA76
1292F
0E94C
2F649
01D22
06E83
2B804
3F364
09270
3CCD0
3C4AD
2FC74
15AC3
28934
336AF
2B69E
13526
33A02
2E0E7
2F934
29692
28E60
131ED
2CA52
15BCF
31FA2
344C2
2AF27
38CF1
3E62B
2B5DA
06699
119A3
369D4
05FBA
3CFF2
0E53D
39D0D
07C98
11130
3285E
102E6
05B28
2A0F5
091BB
2D4E0
3B97F
2BA77
33F01
32ADC
3D3CD
01821
16FD6
2D761
2E19C
348D5
307C9
11ED1
33170
08E09
2AA67
02B68
04DCE
3E3B8
2EE5C
2A259
0474E
38669
133D0
0D11B
302E9
0DB98
17893
10D7F
01FD3
2C8DB
342A0
03E80
04CAE
3C8CC
0CCAA
2C38C
3E6D9
0957A
3B59C
324DD
142E6
04AEA
0F07B
07287
05A94
03205
37B3F
07F44
168F2
075AD
2CD2E
2E895
04359
04BC1
327A5
03FEB
05280
2BB92
05671
16E32
0931F
112C2
109D3
0DB05
0BA4A
351E1
3DC96
02E69
07DFD
1421E
07E52
0F66B
2A252
3544C
32433
2D7B0
2BE5A
3BD71
3D0D7
09A33
3B403
157D0
3DDC1
3F8BA
11FAB
0B409
2A4BC
37035
2F9BC
3BB18
36723
14BA7
1254E
03E02
13823
0F131
3A04D
3567F
38BE6
30DCC
