3E02B8C7
BE302CD4
3E23BE23
BE0A4441
BE36A37B
3C97891E
3AC79F66
3E31986C
3D8DC337
3E32F944
BE1DDB98
3E13A9F4
3E2936C6
3DAFF089
BD1BD1EE
3CFCAC8E
3E144F1A
3D20A527
3DE6EDAB
3E45BD94
BE36EAC8
BD896E59
BDE8B5CC
BD96323C
BE409E13
BE34EB14
BD908AAD
BB7CD680
BE2124D1
BD8275AB
3C14D940
BDA2699C
3E1F9831
3DFC43B3
3E50B956
3D854930
BE1BD406
BE011A97
3D853006
3DDA9C99
3DD4067D
BD0C692F
3E3B7AE5
3E23382E
3E2E72DA
BDC2C5E3
BE082B63
BE3DDF87
3E4BFF47
BE40CBF3
BDE2D730
BE4F8402
3D284AD8
BDCF9C20
BC917F84
BDF233DF
BE191255
3D38305E
3DA8B7E5
3CE85122
BDCA4FCA
BE294F27
3E41E083
BDF0D38D
3E39C9D6
BE3C6F7A
3E223D0C
BDDEE782
BCBB9064
BE1A1017
3E31FEA8
BD81E3EB
3E4C5155
3E106706
3DE0C73B
BDB2CADE
BC487981
3E0DA09D
3DE82B63
BD7049AA
3DD1A006
BD3A0F91
BD698351
BE4F0846
BE07FE8F
3E4DF117
BDCCD317
BD8D6CB5
3D93B646
BE32C83F
BE3934F0
3E40F7FD
BC554541
3D7530CF
3E402F73
3E14A622
BE1087CA
BC88D6D4
3DD7EFE1
BDCCC78F
3E052EF9
BDB6DDAD
3E2ADD9C
3D965BA7
3D0D3E0C
3E053EB4
3DF3C148
BC9F03D1
BE0F3C2E
BDC6234B
3DADDA49
BDBD5DC4
BDB2702A
3E08A19D
3D85F06F
BDE4B6E9
BC791A33
3DD3FC87
BCFE1112
BDCCB296
3E3A2728
BDD267C7
3D816C61
3DBB6241
3DFDA7B1
3D9166E0
BC043809
3E1B6955

