3E4DAF8E
BDDEFE0D
3E0AAFBC
3DAFBB0E
BE2E6E22
3D5C65C7
3E550B52
3E5B6806
3D562CFE
BE1446FA
3E09BA5E
3DC81776
3E48DEB1
BD66F827
3E6A1D75
3DCFD3B3
BDF8140E
3E2DE58E
3E76B160
3E1FD19A
BDA5B079
3D0472C1
BE1DE97D
BDBD944B
BE3ACFFA
3E045565
BE7C2720
BCF49279
BE520A74
BB279357
BD2977C9
BD86CC1D
BE72DBE8
3E5B295F
BE662281
3E31B717
3E634DF0
3E6A2164
BE251FC5
3E46DDF0
3D615A8E
BE698DCE
3E80676A
3D8DE658
BE2E685E
BE2C9E23
BE62FAD7
BD3FC43B
BE4EBDD3
BE67F6F5
3DF7DF1A
3E737586
3D4DCFCC
BE742E99
BE68C543
3E14B6E9
3E814B7B
3E5D5E8D
3E0BA98F
BD8E2D1F
BE814D2F
BDEEB570
BE41B0CD
3E796CC6
3C87F456
3E5316E3
BDCC814D
3D0828C3
3E6DCE3A
BE0F0ED4
3E7D9989
BD6A582E
BE65C63B
BD8D1527
BDF661F2
3E4AC3A8
BE540EE0
3CF9DD3C
3E20FA16
BD6805A3
3E75907E
BD76933A
BCCDFCE3
BDC4827B
3E7D65E4
3E7F227D
3D8E2329
3DB2CADE
3E1C0336
3E36C8F7
3DC15098
BD00841F
BE0571D2
BD0866A1
BD921F6D
BC70DC77
3E15EF63
3E2549F9
3CD68C69
BE71B08A
3D29EE46
3E46130A
3E10B8D0
3DB464DC
3E236502
BD8C332F
3DAA9260
3E52A412
BE429ED4
BDC66B1E
BC34202E
3E806057
BD365CB3
3E4B3D08
3E6EB9A1
3E1447C3
BE09CD3E
BD98F606
BD4EA183
BE2D9A0F
BDB524C0
BD4D002E
BC87A8D6
3D3F7F06
BE0D52C1
3E5B456B
3DAF4F94
3E764990
3D1B8DC5
3E55A683
BE156EF0
3D793038
BDEAFC48
3E348777
BDF49060
3E3C4F3C
3D80181E
BE1DDD2B
3DC0F883
BE17BF62
3D86F3F5
3E5B0C02
3CD95BBC
BE5FC19C
BE2A5DAF
3D7E0AC8
3DE116EC
3E4810E9
BD8E1049
BDC1F3A5
BC892EE8
BDF9C0EC
3D454691
BE587EBF
3DD0A351
3CC04EA5
BE686402
3DA6EEB7
3E784125
3E74CB19
BE72E72E
3E2CF28C
BDC20C4A
3E5B8A5D
3D4C868C
3E5D0529
3D69142B
BCC22CCB
BCCD3177
BD30941D
3E53293D
3DF77319
3CB393AB
BE098FE7
BE3BE660
3E3606FB
BE07A073
3DDA2A4E
3DDD05AF
BDF74C4D
3C9A3098
3E498351
3E5537E3
3D37B9E0
3E769C24
BE5B7803
3E28C1DB
BDD1D4FA
BCAD8A11
BE219F3C
BE3AE925
3DABC9CD
BE07A0F9
3E5B3CC5
BD4C74B8
3D4116EC
BE3E6F2F
3E454435
3E3BE9C9
BCB8B04B
3DE5F41B
BC40E7BC
BC556B01
BDE80F99
3DE711D8
BE0A8F3B
3B007358
3DB97EDC
3DE1F31F
3D7DB3C0
BE4D6D7F
BDB3F184
3D2A3BDE
3DCAD57C
BE647842
3DF02D5A
BE68E9F7
BE501041
BE2A9197
BE469AD4
3DF27A20
BD840B78
BE74CA92
BDEBBA99
3D6FB6DD
3D74CF4A
BD423D92
BABBD380
3E0EA0FD
3E3E7BC4
BE29AF9F
BE761BF3
BE094AB2
3E4A1123
3CAA1F8E
BE2F88B9
3E7268D3
BD1378EE
3D0D1D8A
BE4B08DD
BDA2773E
BDB63023
3DDC1377
BC58F0C7
BCF0739B
3E0AC754
3DBE4713
BD969B17
BE6BCE85
BE3A63FA
3E5E0CE1
3E2647BB
3DB49060
3DE86B59
3DF8383B
3E38E326
BDFA5B10
BE4B53D6
BE4523F6
BDA29C78
3DDDA37F
BD9BF1E9
3E3FB6DD
3E2C2CA1
3E30663C
BE1FD86B
3DB69C24
3D39C62A
BD196313
3E434CA1
3E2D16FD
BE538152
BC8E8EA4
3D1099E1
BDB7CED9
BAAD03DA
3E1B007A
3DDB994E
BDBE8145
3B6A6C1A
BE7308BC
3DBF5F0B
3D7BA12B
BE3FDAC7
3E585E3E
BE56605F
BE265CB3
BE60A201
BDABEDFA
BE6B29A2
3E461D86
BE76BA06
BE1574F7
3D206749
3E3440F2
BE58066C
BE35CDD5
BDA9F2FE
BE6C0DB2
BE736E2F
BD03D146
BC9FE005
BE521427
3D2AEAFB
BDD6366D
3E11A36E
3B0B6523
BD7290AC
3E478FAC
BE370D63
3D9B7E91
3C06AD2E
BDF64841
BE59A177
BE2DAB5C
BE713059
BE2CB4AF
3E7D2CBF
3DA17DAF
3E5A936C
BD783276
BE36B096
3E00CED5
3E399807
3E01F8A1
BE2E8B7E
BE0DC487
BE1A4096
BD71AF3A
BD807F67
BE01376D
3E0981BF
BE3DD97F
3E65D56F
3DB17ACC
BC56CB53
3CD03105
BE455FBB
3D9F609E
BE527350
3DB2E408
3DF2BC30
BB8D3283
BE2CDC87
3DC62CBA
BC11793A
BE704B7F
BE6F4FD7
BD4A1BE3
3DB870DA
BE2C49BA
3DB92C8C
BE7A0BA2
BE53D31C
BDB2BB23
BE681A58
3E255A3A
3DE07896
BE0E5FB7
3E197742
BB9081C3
BE4EA9A4
BA95AF29
3C34A665
BE545458
BE564E05
BE0ADC4D
BDE6A3BE
BE2AEA74
BE287725
3E4F440B
3E760136
3C51E96C
BC180F56
3E4A4E38
3DA6F9BA
BDA59210
3DC8A2EC
BE61804E
3D61F080
3E01F645
BCDCB791
3D1A9EB2
3DDA237D
3E3A732E
3E3019B1
3CEAA2A1
BE349B63
3D4D130E
BD304791
3C7FE6D6
3D08E9B4
3C9BE6E6
3E1E4042
BDAEC4A4
3E67FA1A
3E10FD7E
3C357C4E
BE3EF523
3D2CF313
BB3F7F06
BDA461FA
3E51BE6E
BCECF851
3E31D14E
3E3BE9C9
BD25907E
BE40A201
3CE33483
BD04EB57
3DD635E7
BD0BF7F0
3DBA6DF0
3C5DF86E
BE7C9470
3CCF95D5
3DC30985
BE707033
BE02CA15
3DD14339
3E339BCC
BE0939EB
3DA4E619
3E7C5500
3E561672
3E8067F1
BE001798
BE12B841
BE54940C
BD920429
BDCB53D6
3E2167EC
3DF76577
3DFE18F0
BDAFE0CE
3D1591CD
BC7FFBCE
3E4D67FD
BD3A237D
BDD104D5
BE53AA37
BDD13DFB
BDCD7492
BDA0D802
3E766ADB
3E21C9F7
3D56BA8C
BD4B007A
BD6B40F6
3D2528AE
BE2B5808
BB937D20
BD3631B6
3E127A63
3E085D31
3E502603
3E1F7165
3D666235
3C8FBA88
3E24CCAB
3DD112FD
3DC9F7B6
BDEE5CD5
BE3FBEFD
BCB4091C
BE02018A
BD7EAB36
3E7AD213
3E595183
3E44B05B
3D84A0E4
3E120AFA
BE80E219
3E11E42E
BE493F29
BE0A9692
BDF165D4
3E68CC57
3E2FBC5E
BE4094E6
BD261BF3
BC99E0E7
BD98769F
BE61F299
3D4C2720
BE55BD51
BE5FF477
BE0F8338
3DD0C2C6
BE1B7AA2
BC986DB5
BE18F14E
3E2D0AAA
3DD05D96
3D88DE2B
BDB49731
3C37457C
BD61FD15
BDF80CB7
3E720924
BE68CEF6
BDA58256
3D86C00E
3E6EE88E
3E278E19
BE5A7E31
BD838327
BE0280F1
3DE46C76
3D97DE0D
BCDE6FF8
BE670542
BE0A21A7
3C304253
3E2496AB
BE10D307
BCA046C7
BB878FAC
3CC0B780
3E581DC1
BB91AFC0
3E6ACB43
BDAF97EE
BD19AC79
BD9B5632
BDE770BD
BD8E2D1F
3DB06035
BC9DA9CA
BDE470A8
BE5DD378
BDF0092D
3E3F1562
3E3245B3
3E3E66CB
3E1594F2
BDB88766
3DAEF45A
3E4D0918
BE7C2EFD
BCC0767D
3C9376D5
BCB519BD
3CD9A954
3DB28BF4
BE360BF6
BDA3F4ED
3E324DD3
3D86D2ED
3DD65775
BB903644
BE726AEC
BB9014B6
3D9FE2A4
3E7206C8
BE39CA9F
BD536934
3DDEBF23
3E528848
BBDA7F3D
BD85A89C
BE4A9047
3DDEE88E
BD98BA41
3D7689CA
BE66D43D
3CD38045
BD1729B3
BE23D641
3E5E18F0
3DE424A2
3E15EAEE
BE2F0A1C
BD68AD69
3D36976C
BE32FC69
3CE18CE3
BE6AEA74
BD953CDE
3DD89ACC
3E78F96E
3D2E4D1A
BC2CB429
BE083409
3E277B7C
3D194C01
BD8A393F
BE76D1E1
3C607E5A
3E7CE9A3
BE62A737
BD8B92C0
BD6CF744
3D6C215C
BE570B8D
3D069835
BE33D89D
3E669015
3E47546D
3E30B3D5
BE0AD9AE
BE09FECA
BE009F1F
BDE63AE2
3E66F502
BE59C1F8
3E2B4AA9
3CCA1F08
BE496FEB
BDF486F0
3E426BB5
BE33E9EA
BE0BA1B2
BDE29521
3E308894
3CBEAF68
3E091E64
BE1A6D26
BE3A9197
BDC496EE
3E473BC9
BDD5C39C
BCE414E8
3E688EBD
3D87C8D2
3E5F0308
BE607B35
BD8219EB
BD193D53
3D92B55F
BE46E04C
3D8E38A8
BE5DAD32
BE585447
BE269510
3E813BE2
BD45BE1B
BE7E7147
3E4DADB8
3E1A3769
BDCA758A
3DFD2F1B
3E6796C0
BE05AD97
3DAE3CDA
BE550ACC
3E13E682
BE1FC6DA
BE57C8D2
BE527632
BE8064CB
3E3E0EFA
3E811E21
3E48E25D
BD40B780
3DCA12F9
3DC18937
BDB80991
BCA14270
BE25A533
3E72830A
BE00BF1A
BD2D85E0
BE114CA9
BABBF50E
3E19DF55
BE12BCB6
BD37F8CB
BE00CB29
3E441355
3E423C00
BD8465A5
3E5426FE
BD1A8156
3E790F73
3DEAF683
BDA5A9A8
BDAB4D8C
BE121709
3E78A86D
3E6B10FD
BE0BB1AF
BD9E8FF3
3DE8F084
3E2BC665
3E417226
3D4D7BEA
3E3297C0
3E73B320
3E629846
BDFD40EE
BC90ABB4
BE80C3D2
BBAD3E92
3E803BE6
BE260E95
3DE4840E
BE813187
3E2E2435
3C88D089
BDB7A5F4
BE5E464A
BE8062D4
BE3B13E0
3E56744B
3E5CDF26
3CE353F8
BDC0A30E
BD949386
3DA539FC
BE490796
BE70D1FA
3E0A5615
3DB9FF50
3D14CCAB
3D5C5825
BE7264A1
BE24DA0A
3DB19503
BE41C6D2
3C1F3C71
BE46E547
3D764389
BDEB92C0
3E031D2E
3D3C5693
3E16BCE8
BDD02603
BD8FF972
BCE696A2
BE67891E
3E4A4CE8
3E6C3A86
3DBC7C52
BE7BAF10
3E687D2C
3C3D5DC4
3DAAA21A
3E242FE8
3DCFAF86
BDD75537
BDED3954
BDDDD2AF
3D9F3F10
BE0B95A3
3E37FE4C
3DD3E814
BE37DFA0
3E7EEE0F
BD1F8B15
3E71E604
3E7D19DF
BB9D27C4
3E4231C6
3E3B59DE
BDC71EF3
BE5BDC6A
BD08A9BD
3DDD9D34
3E626741
3C38AE32
3DEAE3A4
3D6BCB60
3E645D42
BDA84DFD
BD1DBB9D
3E14295A
BE55E918
3CF19F80
3D9D96EA
3E7BA83F
3E27BE12
BDAFDC9C
3E552FC2
3E4EC5B0
3E61CDE6
3E31ED9E
3C16FA83
BE7A33BE
BD9E8DDA
3E5776C5
3D5DE9C0
3B6D9168
3C736695
BD567989
BD978BBD
BE360FA1
3CE6A338
BE1D8E86
3E564BA9
BE0FF79D
BE761954
3E788C61
3E662D41
BE52070C
BD37292C
3E668B5D
BE028AA4
BE808FA8
BE186A4D
BE70318C
3E52480F
3DB8B1DD
BE75EF63
BE2B9E49
BE3B6135
3DFB8801
BE630CAA
3D9C5BD1
BD93FD0D
3E4A361A
BE417C5F
BCBFCEB8
3CFED41B
BDE3B9AE
BD9F43C8
3C2F8DF8
3DAA3F8A
3D99285B
BE7626F6
3E08C005
BE7C59FB
BE704FF4
3E7BE165
BE22E126
BE391362
3D1CE8D9
BD426784
3E69C4DB
BDB253DA
3C903644
BDF481B2
BD424F66
BE079AF2
3E092FB2
3D904DDB
3C1D7FD8
BE3FA1E4
BDEE0653
3DE7D242

